{
  "version": "1.0",
  "truncation": null,
  "padding": null,
  "added_tokens": [
    {
      "id": 0,
      "content": "<s>",
      "single_word": false,
      "lstrip": false,
      "rstrip": false,
      "normalized": false,
      "special": true
    },
    {
      "id": 1,
      "content": "<pad>",
      "single_word": false,
      "lstrip": false,
      "rstrip": false,
      "normalized": false,
      "special": true
    },
    {
      "id": 2,
      "content": "</s>",
      "single_word": false,
      "lstrip": false,
      "rstrip": false,
      "normalized": false,
      "special": true
    },
    {
      "id": 3,
      "content": "<unk>",
      "single_word": false,
      "lstrip": false,
      "rstrip": false,
      "normalized": false,
      "special": true
    }
  ],
  "normalizer": null,
  "pre_tokenizer": {
    "type": "Whitespace"
  },
  "post_processor": null,
  "decoder": null,
  "model": {
    "type": "BPE",
    "dropout": null,
    "unk_token": null,
    "continuing_subword_prefix": null,
    "end_of_word_suffix": null,
    "fuse_unk": false,
    "byte_fallback": false,
    "ignore_merges": false,
    "vocab": {
      "<s>": 0,
      "<pad>": 1,
      "</s>": 2,
      "<unk>": 3,
      "!": 4,
      "\"": 5,
      "$": 6,
      "%": 7,
      "&": 8,
      "'": 9,
      "(": 10,
      ")": 11,
      "*": 12,
      "+": 13,
      ",": 14,
      "-": 15,
      ".": 16,
      "/": 17,
      "0": 18,
      "1": 19,
      "2": 20,
      "3": 21,
      "4": 22,
      "5": 23,
      "6": 24,
      "7": 25,
      "8": 26,
      "9": 27,
      ":": 28,
      ";": 29,
      "<": 30,
      "=": 31,
      ">": 32,
      "?": 33,
      "@": 34,
      "A": 35,
      "B": 36,
      "C": 37,
      "D": 38,
      "E": 39,
      "F": 40,
      "G": 41,
      "H": 42,
      "I": 43,
      "J": 44,
      "K": 45,
      "L": 46,
      "M": 47,
      "N": 48,
      "O": 49,
      "P": 50,
      "Q": 51,
      "R": 52,
      "S": 53,
      "T": 54,
      "U": 55,
      "V": 56,
      "W": 57,
      "X": 58,
      "Y": 59,
      "Z": 60,
      "[": 61,
      "\\": 62,
      "]": 63,
      "_": 64,
      "`": 65,
      "a": 66,
      "b": 67,
      "c": 68,
      "d": 69,
      "e": 70,
      "f": 71,
      "g": 72,
      "h": 73,
      "i": 74,
      "j": 75,
      "k": 76,
      "l": 77,
      "m": 78,
      "n": 79,
      "o": 80,
      "p": 81,
      "q": 82,
      "r": 83,
      "s": 84,
      "t": 85,
      "u": 86,
      "v": 87,
      "w": 88,
      "x": 89,
      "y": 90,
      "z": 91,
      "|": 92,
      "~": 93,
      "·": 94,
      "á": 95,
      "â": 96,
      "é": 97,
      "ê": 98,
      "ï": 99,
      "ñ": 100,
      "ó": 101,
      "œ": 102,
      "​": 103,
      "‐": 104,
      "–": 105,
      "—": 106,
      "‘": 107,
      "’": 108,
      "‚": 109,
      "“": 110,
      "”": 111,
      "…": 112,
      "€": 113,
      "™": 114,
      "": 115,
      "�": 116,
      "he": 117,
      "an": 118,
      "the": 119,
      "ed": 120,
      "to": 121,
      "and": 122,
      "in": 123,
      "it": 124,
      "wa": 125,
      "re": 126,
      "ou": 127,
      "ha": 128,
      "was": 129,
      "er": 130,
      "en": 131,
      "om": 132,
      "im": 133,
      "ay": 134,
      "on": 135,
      "il": 136,
      "The": 137,
      "ar": 138,
      "id": 139,
      "is": 140,
      "sa": 141,
      "ing": 142,
      "le": 143,
      "al": 144,
      "lo": 145,
      "her": 146,
      "st": 147,
      "ily": 148,
      "ne": 149,
      "or": 150,
      "am": 151,
      "ir": 152,
      "Lily": 153,
      "pl": 154,
      "hat": 155,
      "be": 156,
      "at": 157,
      "ut": 158,
      "Tim": 159,
      "ri": 160,
      "day": 161,
      "my": 162,
      "ot": 163,
      "ce": 164,
      "his": 165,
      "ver": 166,
      "se": 167,
      "ith": 168,
      "ig": 169,
      "with": 170,
      "said": 171,
      "play": 172,
      "She": 173,
      "pp": 174,
      "ck": 175,
      "He": 176,
      "They": 177,
      "ld": 178,
      "all": 179,
      "ow": 180,
      "up": 181,
      "ke": 182,
      "un": 183,
      "th": 184,
      "she": 185,
      "that": 186,
      "ked": 187,
      "mom": 188,
      "end": 189,
      "ve": 190,
      "ted": 191,
      "itt": 192,
      "very": 193,
      "you": 194,
      "we": 195,
      "happ": 196,
      "they": 197,
      "of": 198,
      "ad": 199,
      "ime": 200,
      "time": 201,
      "big": 202,
      "li": 203,
      "fri": 204,
      "friend": 205,
      "ittle": 206,
      "little": 207,
      "ome": 208,
      "had": 209,
      "ent": 210,
      "for": 211,
      "as": 212,
      "there": 213,
      "ge": 214,
      "so": 215,
      "One": 216,
      "ch": 217,
      "nd": 218,
      "el": 219,
      "nam": 220,
      "ould": 221,
      "wan": 222,
      "happy": 223,
      "saw": 224,
      "ther": 225,
      "named": 226,
      "ved": 227,
      "On": 228,
      "but": 229,
      "bo": 230,
      "do": 231,
      "Timmy": 232,
      "Once": 233,
      "ly": 234,
      "upon": 235,
      "ro": 236,
      "ound": 237,
      ".\"": 238,
      "not": 239,
      "out": 240,
      "es": 241,
      "go": 242,
      "ter": 243,
      "ok": 244,
      "ide": 245,
      "ca": 246,
      "ra": 247,
      "ht": 248,
      "went": 249,
      "sh": 250,
      "ry": 251,
      "hel": 252,
      "friends": 253,
      "car": 254,
      "help": 255,
      "!\"": 256,
      "loved": 257,
      "were": 258,
      "wanted": 259,
      "It": 260,
      "sm": 261,
      "ird": 262,
      "way": 263,
      "bird": 264,
      "ack": 265,
      "irl": 266,
      "did": 267,
      "girl": 268,
      "some": 269,
      "toy": 270,
      "thing": 271,
      "ma": 272,
      "ug": 273,
      "ul": 274,
      "ind": 275,
      "him": 276,
      "ur": 277,
      "ame": 278,
      "et": 279,
      "Tom": 280,
      "could": 281,
      "rom": 282,
      "od": 283,
      "new": 284,
      "one": 285,
      "hen": 286,
      "ore": 287,
      "gether": 288,
      "fel": 289,
      "But": 290,
      "co": 291,
      "came": 292,
      "ho": 293,
      "ec": 294,
      "fun": 295,
      "together": 296,
      "side": 297,
      "ga": 298,
      "par": 299,
      "ful": 300,
      "can": 301,
      "me": 302,
      "ue": 303,
      "fe": 304,
      "?\"": 305,
      "tre": 306,
      "ax": 307,
      "too": 308,
      "asked": 309,
      "boy": 310,
      "ta": 311,
      "Max": 312,
      "ill": 313,
      "sad": 314,
      "cat": 315,
      "ght": 316,
      "man": 317,
      "back": 318,
      "have": 319,
      "star": 320,
      "felt": 321,
      "ic": 322,
      "them": 323,
      "are": 324,
      "own": 325,
      "found": 326,
      "their": 327,
      "sp": 328,
      "um": 329,
      "hed": 330,
      "dog": 331,
      "park": 332,
      "played": 333,
      "la": 334,
      "loo": 335,
      "sto": 336,
      "fa": 337,
      "gr": 338,
      "pr": 339,
      "ick": 340,
      "looked": 341,
      "smil": 342,
      "ong": 343,
      "now": 344,
      "started": 345,
      "low": 346,
      "other": 347,
      "ex": 348,
      "would": 349,
      "ab": 350,
      "ball": 351,
      "like": 352,
      "tree": 353,
      "ran": 354,
      "mommy": 355,
      "got": 356,
      "Ben": 357,
      "wor": 358,
      "use": 359,
      "ard": 360,
      "want": 361,
      "ure": 362,
      "what": 363,
      "didn": 364,
      "see": 365,
      "make": 366,
      "op": 367,
      "ny": 368,
      "wal": 369,
      "ud": 370,
      "ought": 371,
      "playing": 372,
      "ried": 373,
      "home": 374,
      "scar": 375,
      "ade": 376,
      "ouse": 377,
      "You": 378,
      "no": 379,
      "when": 380,
      "made": 381,
      "away": 382,
      "more": 383,
      "gain": 384,
      "ice": 385,
      "smiled": 386,
      "then": 387,
      "ty": 388,
      "again": 389,
      "good": 390,
      "every": 391,
      "ned": 392,
      "outside": 393,
      "toys": 394,
      "find": 395,
      "put": 396,
      "from": 397,
      "mu": 398,
      "ll": 399,
      "ways": 400,
      "around": 401,
      "ant": 402,
      "ss": 403,
      "Sue": 404,
      "lear": 405,
      "ened": 406,
      ",\"": 407,
      "ep": 408,
      "ie": 409,
      "something": 410,
      "if": 411,
      "uck": 412,
      "cause": 413,
      "get": 414,
      "always": 415,
      "ally": 416,
      "From": 417,
      "because": 418,
      "thought": 419,
      "pe": 420,
      "oud": 421,
      "things": 422,
      "ight": 423,
      "scared": 424,
      "liked": 425,
      "Mom": 426,
      "who": 427,
      "udd": 428,
      "Sam": 429,
      "down": 430,
      "ret": 431,
      "sha": 432,
      "Her": 433,
      "red": 434,
      "king": 435,
      "ol": 436,
      "took": 437,
      "dec": 438,
      "ust": 439,
      "about": 440,
      "know": 441,
      "ble": 442,
      "care": 443,
      "house": 444,
      "ate": 445,
      "eat": 446,
      "pot": 447,
      "your": 448,
      "any": 449,
      "told": 450,
      "ited": 451,
      "fter": 452,
      "gre": 453,
      "small": 454,
      "knew": 455,
      "look": 456,
      "ided": 457,
      "tried": 458,
      "ish": 459,
      "decided": 460,
      "pped": 461,
      "ach": 462,
      "us": 463,
      "by": 464,
      "ite": 465,
      "lot": 466,
      "der": 467,
      "say": 468,
      "So": 469,
      "learned": 470,
      "fore": 471,
      "room": 472,
      "ous": 473,
      "ile": 474,
      "wh": 475,
      "dad": 476,
      "exc": 477,
      "box": 478,
      "pret": 479,
      "udden": 480,
      "pa": 481,
      "qu": 482,
      "Spot": 483,
      "uddenly": 484,
      "lea": 485,
      "When": 486,
      "fly": 487,
      "ise": 488,
      "cle": 489,
      "sun": 490,
      "laug": 491,
      "much": 492,
      "here": 493,
      "ist": 494,
      "feel": 495,
      "lived": 496,
      "nex": 497,
      "fo": 498,
      "ers": 499,
      "will": 500,
      "gave": 501,
      "than": 502,
      "show": 503,
      "na": 504,
      "ven": 505,
      "ump": 506,
      "cl": 507,
      "bot": 508,
      "bed": 509,
      "into": 510,
      "mo": 511,
      "long": 512,
      "ive": 513,
      "clo": 514,
      "Suddenly": 515,
      "take": 516,
      "ac": 517,
      "water": 518,
      "need": 519,
      "excited": 520,
      "uc": 521,
      "tter": 522,
      "inside": 523,
      "As": 524,
      "how": 525,
      "And": 526,
      "hug": 527,
      "ia": 528,
      "jo": 529,
      "sur": 530,
      "bu": 531,
      "pick": 532,
      "couldn": 533,
      "bl": 534,
      "tr": 535,
      "ang": 536,
      "careful": 537,
      "His": 538,
      "many": 539,
      "Let": 540,
      "bro": 541,
      "flow": 542,
      "dre": 543,
      "come": 544,
      "dy": 545,
      "sw": 546,
      "Mia": 547,
      "run": 548,
      "pretty": 549,
      "became": 550,
      "We": 551,
      "over": 552,
      "te": 553,
      "sk": 554,
      "ber": 555,
      "iz": 556,
      "surpr": 557,
      "best": 558,
      "better": 559,
      "bear": 560,
      "shin": 561,
      "our": 562,
      "ink": 563,
      "rd": 564,
      "fast": 565,
      "ised": 566,
      "fi": 567,
      "kind": 568,
      "just": 569,
      "urt": 570,
      "never": 571,
      "ank": 572,
      "ged": 573,
      "lf": 574,
      "br": 575,
      "pla": 576,
      "imal": 577,
      "po": 578,
      "animal": 579,
      "ort": 580,
      "de": 581,
      "even": 582,
      "Yes": 583,
      "Bo": 584,
      "this": 585,
      "rab": 586,
      "imp": 587,
      "clean": 588,
      "laughed": 589,
      "jump": 590,
      "Th": 591,
      "both": 592,
      "wat": 593,
      "list": 594,
      "fle": 595,
      "under": 596,
      "Thank": 597,
      "wo": 598,
      "Luc": 599,
      "rock": 600,
      "Lucy": 601,
      "its": 602,
      "nice": 603,
      "rain": 604,
      "ving": 605,
      "After": 606,
      "old": 607,
      "Can": 608,
      "com": 609,
      "let": 610,
      "read": 611,
      "che": 612,
      "Then": 613,
      "says": 614,
      "where": 615,
      "cre": 616,
      "heard": 617,
      "rong": 618,
      "happened": 619,
      "ion": 620,
      "walked": 621,
      "igh": 622,
      "fish": 623,
      "hurt": 624,
      "try": 625,
      "ground": 626,
      "animals": 627,
      "sor": 628,
      "proud": 629,
      "ied": 630,
      "hand": 631,
      "ara": 632,
      "don": 633,
      "eci": 634,
      "sky": 635,
      "ell": 636,
      "lots": 637,
      "lad": 638,
      "flew": 639,
      "while": 640,
      "safe": 641,
      "bea": 642,
      "real": 643,
      "self": 644,
      "food": 645,
      "fam": 646,
      "unt": 647,
      "gh": 648,
      "nt": 649,
      "per": 650,
      "each": 651,
      "ass": 652,
      "That": 653,
      "illy": 654,
      "ough": 655,
      "sorry": 656,
      "pic": 657,
      "picked": 658,
      "repl": 659,
      "off": 660,
      "shiny": 661,
      "idea": 662,
      "right": 663,
      "app": 664,
      "bit": 665,
      "fin": 666,
      "Benny": 667,
      "replied": 668,
      "bad": 669,
      "Sara": 670,
      "Jack": 671,
      "share": 672,
      "pu": 673,
      "love": 674,
      "tur": 675,
      "clim": 676,
      "What": 677,
      "rm": 678,
      "ear": 679,
      "ning": 680,
      "Bob": 681,
      "import": 682,
      "Mommy": 683,
      "ture": 684,
      "An": 685,
      "loud": 686,
      "speci": 687,
      "special": 688,
      "anymore": 689,
      "beaut": 690,
      "lor": 691,
      "important": 692,
      "family": 693,
      "give": 694,
      "wind": 695,
      "thanked": 696,
      "still": 697,
      "hugged": 698,
      "raw": 699,
      "pec": 700,
      "rel": 701,
      "until": 702,
      "iful": 703,
      "beautiful": 704,
      "book": 705,
      "keep": 706,
      "ched": 707,
      "surprised": 708,
      "tal": 709,
      "con": 710,
      "helped": 711,
      "arden": 712,
      "garden": 713,
      "forest": 714,
      "mor": 715,
      "walk": 716,
      "being": 717,
      "ized": 718,
      "pected": 719,
      "near": 720,
      "ople": 721,
      "weet": 722,
      "hard": 723,
      "nexpected": 724,
      "ag": 725,
      "unexpected": 726,
      "ummy": 727,
      "vor": 728,
      "fell": 729,
      "ine": 730,
      "bug": 731,
      "picture": 732,
      "after": 733,
      "vent": 734,
      "far": 735,
      "cha": 736,
      "In": 737,
      "cake": 738,
      "next": 739,
      "mber": 740,
      "color": 741,
      "ff": 742,
      "cook": 743,
      "store": 744,
      "people": 745,
      "favor": 746,
      "squ": 747,
      "favorite": 748,
      "showed": 749,
      "cry": 750,
      "Anna": 751,
      "yes": 752,
      "Wh": 753,
      "member": 754,
      "high": 755,
      "sing": 756,
      "led": 757,
      "unny": 758,
      "going": 759,
      "ever": 760,
      "ished": 761,
      "should": 762,
      "Amy": 763,
      "call": 764,
      "listen": 765,
      "mon": 766,
      "great": 767,
      "place": 768,
      "tow": 769,
      "stay": 770,
      "Don": 771,
      "remember": 772,
      "lost": 773,
      "ste": 774,
      "tin": 775,
      "dan": 776,
      "set": 777,
      "bra": 778,
      "ies": 779,
      "ru": 780,
      "ak": 781,
      "int": 782,
      "mag": 783,
      "opened": 784,
      "No": 785,
      "truck": 786,
      "flowers": 787,
      "butter": 788,
      "before": 789,
      "used": 790,
      "times": 791,
      "met": 792,
      "okay": 793,
      "strong": 794,
      "Every": 795,
      "pt": 796,
      "door": 797,
      "ook": 798,
      "blue": 799,
      "sl": 800,
      "fix": 801,
      "watch": 802,
      "worry": 803,
      "noise": 804,
      "Do": 805,
      "table": 806,
      "ater": 807,
      "uff": 808,
      "realized": 809,
      "lease": 810,
      "ild": 811,
      "boat": 812,
      "ess": 813,
      "joy": 814,
      "ark": 815,
      "doll": 816,
      "story": 817,
      "advent": 818,
      "magic": 819,
      "Billy": 820,
      "night": 821,
      "yummy": 822,
      "flower": 823,
      "ung": 824,
      "swing": 825,
      "tor": 826,
      "exp": 827,
      "able": 828,
      "leep": 829,
      "ves": 830,
      "lie": 831,
      "work": 832,
      "rest": 833,
      "Jo": 834,
      "rog": 835,
      "bunny": 836,
      "happily": 837,
      "won": 838,
      "catch": 839,
      "wait": 840,
      "uch": 841,
      "lock": 842,
      "dress": 843,
      "mouse": 844,
      "cream": 845,
      "Sally": 846,
      "draw": 847,
      "irrel": 848,
      "face": 849,
      "mis": 850,
      "rabbit": 851,
      "ip": 852,
      "Fin": 853,
      "also": 854,
      "ask": 855,
      "ner": 856,
      "key": 857,
      "cu": 858,
      "clos": 859,
      "jumped": 860,
      "This": 861,
      "stick": 862,
      "stopped": 863,
      "squirrel": 864,
      "others": 865,
      "everyone": 866,
      "irst": 867,
      "frog": 868,
      "oft": 869,
      "ph": 870,
      "called": 871,
      "sat": 872,
      "brave": 873,
      "owl": 874,
      "ens": 875,
      "plan": 876,
      "bar": 877,
      "kid": 878,
      "less": 879,
      "adventure": 880,
      "feeling": 881,
      "ama": 882,
      "kept": 883,
      "game": 884,
      "ious": 885,
      "butterfly": 886,
      "ded": 887,
      "needed": 888,
      "nod": 889,
      "les": 890,
      "soon": 891,
      "andma": 892,
      "ired": 893,
      "din": 894,
      "walking": 895,
      "slide": 896,
      "yard": 897,
      "row": 898,
      "ring": 899,
      "sometimes": 900,
      "Hel": 901,
      "warm": 902,
      "sand": 903,
      "Look": 904,
      "having": 905,
      "top": 906,
      "ct": 907,
      "pie": 908,
      "cho": 909,
      "head": 910,
      "bor": 911,
      "dif": 912,
      "cut": 913,
      "pon": 914,
      "uffy": 915,
      "hear": 916,
      "angry": 917,
      "luffy": 918,
      "ken": 919,
      "ting": 920,
      "remembered": 921,
      "Wow": 922,
      "ath": 923,
      "At": 924,
      "zy": 925,
      "cou": 926,
      "race": 927,
      "kids": 928,
      "looking": 929,
      "ree": 930,
      "bal": 931,
      "dis": 932,
      "sure": 933,
      "ined": 934,
      "open": 935,
      "tri": 936,
      "ft": 937,
      "iced": 938,
      "ster": 939,
      "smile": 940,
      "mean": 941,
      "tired": 942,
      "ued": 943,
      "ppy": 944,
      "fire": 945,
      "climb": 946,
      "soft": 947,
      "kit": 948,
      "brother": 949,
      "prom": 950,
      "ect": 951,
      "buy": 952,
      "ket": 953,
      "sleep": 954,
      "first": 955,
      "birds": 956,
      "flo": 957,
      "enjoy": 958,
      "contin": 959,
      "green": 960,
      "hole": 961,
      "wear": 962,
      "chen": 963,
      "kitchen": 964,
      "sound": 965,
      "Hi": 966,
      "gan": 967,
      "nodded": 968,
      "Now": 969,
      "lady": 970,
      "rot": 971,
      "hands": 972,
      "eyes": 973,
      "ught": 974,
      "making": 975,
      "watched": 976,
      "agre": 977,
      "continued": 978,
      "party": 979,
      "cold": 980,
      "duck": 981,
      "funny": 982,
      "ward": 983,
      "Mr": 984,
      "Hello": 985,
      "fere": 986,
      "laugh": 987,
      "differe": 988,
      "dir": 989,
      "town": 990,
      "ollow": 991,
      "shed": 992,
      "piece": 993,
      "ident": 994,
      "itty": 995,
      "Fluffy": 996,
      "cand": 997,
      "bre": 998,
      "sho": 999,
      "tell": 1000,
      "ash": 1001,
      "cried": 1002,
      "moral": 1003,
      "broken": 1004,
      "que": 1005,
      "ient": 1006,
      "explo": 1007,
      "two": 1008,
      "amaz": 1009,
      "Why": 1010,
      "dro": 1011,
      "noticed": 1012,
      "pond": 1013,
      "cident": 1014,
      "hid": 1015,
      "hot": 1016,
      "swim": 1017,
      "follow": 1018,
      "worked": 1019,
      "age": 1020,
      "lion": 1021,
      "accident": 1022,
      "please": 1023,
      "turned": 1024,
      "stand": 1025,
      "farm": 1026,
      "Kitty": 1027,
      "cool": 1028,
      "rough": 1029,
      "light": 1030,
      "trees": 1031,
      "grandma": 1032,
      "hind": 1033,
      "hung": 1034,
      "different": 1035,
      "oney": 1036,
      "quick": 1037,
      "aybe": 1038,
      "bag": 1039,
      "cookies": 1040,
      "talk": 1041,
      "daddy": 1042,
      "pul": 1043,
      "river": 1044,
      "tra": 1045,
      "deli": 1046,
      "stop": 1047,
      "win": 1048,
      "hair": 1049,
      "move": 1050,
      "scary": 1051,
      "behind": 1052,
      "mess": 1053,
      "av": 1054,
      "wel": 1055,
      "surprise": 1056,
      "think": 1057,
      "ger": 1058,
      "Tweet": 1059,
      "explore": 1060,
      "climbed": 1061,
      "ready": 1062,
      "agreed": 1063,
      "Joh": 1064,
      "song": 1065,
      "helping": 1066,
      "tall": 1067,
      "John": 1068,
      "air": 1069,
      "Later": 1070,
      "sweet": 1071,
      "listened": 1072,
      "ries": 1073,
      "running": 1074,
      "grass": 1075,
      "turn": 1076,
      "wrong": 1077,
      "cr": 1078,
      "coming": 1079,
      "curi": 1080,
      "cars": 1081,
      "dark": 1082,
      "build": 1083,
      "ub": 1084,
      "ange": 1085,
      "friendly": 1086,
      "owner": 1087,
      "gu": 1088,
      "dinner": 1089,
      "vis": 1090,
      "fr": 1091,
      "curious": 1092,
      "shared": 1093,
      "closer": 1094,
      "learn": 1095,
      "hungry": 1096,
      "floor": 1097,
      "quickly": 1098,
      "sed": 1099,
      "sn": 1100,
      "another": 1101,
      "ucky": 1102,
      "dream": 1103,
      "dance": 1104,
      "land": 1105,
      "oun": 1106,
      "block": 1107,
      "Sarah": 1108,
      "mar": 1109,
      "Just": 1110,
      "prin": 1111,
      "doing": 1112,
      "ike": 1113,
      "might": 1114,
      "ign": 1115,
      "forgot": 1116,
      "pet": 1117,
      "Dad": 1118,
      "teddy": 1119,
      "accidentally": 1120,
      "stuck": 1121,
      "cast": 1122,
      "leaves": 1123,
      "wet": 1124,
      "touch": 1125,
      "broke": 1126,
      "tail": 1127,
      "rag": 1128,
      "brought": 1129,
      "hide": 1130,
      "grab": 1131,
      "pare": 1132,
      "ittens": 1133,
      "herself": 1134,
      "bright": 1135,
      "med": 1136,
      "bye": 1137,
      "asure": 1138,
      "himself": 1139,
      "sit": 1140,
      "col": 1141,
      "ons": 1142,
      "gone": 1143,
      "cked": 1144,
      "paper": 1145,
      "wood": 1146,
      "paint": 1147,
      "dr": 1148,
      "left": 1149,
      "finished": 1150,
      "kay": 1151,
      "why": 1152,
      "pretend": 1153,
      "ateful": 1154,
      "grateful": 1155,
      "promised": 1156,
      "To": 1157,
      "fair": 1158,
      "danc": 1159,
      "close": 1160,
      "candy": 1161,
      "ered": 1162,
      "cor": 1163,
      "icy": 1164,
      "vo": 1165,
      "anything": 1166,
      "glad": 1167,
      "cla": 1168,
      "Tommy": 1169,
      "colors": 1170,
      "voice": 1171,
      "has": 1172,
      "tle": 1173,
      "ride": 1174,
      "hill": 1175,
      "grow": 1176,
      "through": 1177,
      "really": 1178,
      "tight": 1179,
      "em": 1180,
      "Oh": 1181,
      "Finally": 1182,
      "Mittens": 1183,
      "wing": 1184,
      "trying": 1185,
      "ield": 1186,
      "Maybe": 1187,
      "puppy": 1188,
      "fall": 1189,
      "wished": 1190,
      "train": 1191,
      "arm": 1192,
      "cess": 1193,
      "yel": 1194,
      "hold": 1195,
      "oup": 1196,
      "window": 1197,
      "sunny": 1198,
      "ballo": 1199,
      "pink": 1200,
      "wonder": 1201,
      "snow": 1202,
      "full": 1203,
      "began": 1204,
      "yellow": 1205,
      "sis": 1206,
      "ba": 1207,
      "fru": 1208,
      "world": 1209,
      "pictures": 1210,
      "parent": 1211,
      "dirty": 1212,
      "gg": 1213,
      "While": 1214,
      "bab": 1215,
      "ple": 1216,
      "roll": 1217,
      "been": 1218,
      "tast": 1219,
      "word": 1220,
      "hop": 1221,
      "isy": 1222,
      "someone": 1223,
      "lue": 1224,
      "seen": 1225,
      "everywhere": 1226,
      "moment": 1227,
      "eating": 1228,
      "ary": 1229,
      "flying": 1230,
      "erous": 1231,
      "goodbye": 1232,
      "ached": 1233,
      "wards": 1234,
      "castle": 1235,
      "nest": 1236,
      "only": 1237,
      "dry": 1238,
      "does": 1239,
      "bow": 1240,
      "There": 1241,
      "thank": 1242,
      "nap": 1243,
      "blocks": 1244,
      "olly": 1245,
      "Okay": 1246,
      "bran": 1247,
      "pat": 1248,
      "visit": 1249,
      "mus": 1250,
      "done": 1251,
      "sear": 1252,
      "ze": 1253,
      "apple": 1254,
      "break": 1255,
      "name": 1256,
      "whe": 1257,
      "monkey": 1258,
      "baby": 1259,
      "happen": 1260,
      "slow": 1261,
      "spo": 1262,
      "swa": 1263,
      "pre": 1264,
      "waited": 1265,
      "reached": 1266,
      "pack": 1267,
      "thy": 1268,
      "pen": 1269,
      "Em": 1270,
      "swam": 1271,
      "colorful": 1272,
      "crying": 1273,
      "gent": 1274,
      "appear": 1275,
      "mi": 1276,
      "beach": 1277,
      "wi": 1278,
      "zz": 1279,
      "plant": 1280,
      "stead": 1281,
      "held": 1282,
      "carrot": 1283,
      "reach": 1284,
      "stran": 1285,
      "heav": 1286,
      "clothe": 1287,
      "mat": 1288,
      "clothes": 1289,
      "Everyone": 1290,
      "cup": 1291,
      "wasn": 1292,
      "parents": 1293,
      "sister": 1294,
      "cious": 1295,
      "ames": 1296,
      "Sure": 1297,
      "illed": 1298,
      "ation": 1299,
      "wise": 1300,
      "pro": 1301,
      "towards": 1302,
      "fight": 1303,
      "chair": 1304,
      "upset": 1305,
      "monster": 1306,
      "treasure": 1307,
      "expla": 1308,
      "finally": 1309,
      "ctor": 1310,
      "heavy": 1311,
      "wag": 1312,
      "ace": 1313,
      "getting": 1314,
      "music": 1315,
      "sy": 1316,
      "treat": 1317,
      "enjoyed": 1318,
      "dang": 1319,
      "everything": 1320,
      "Bobo": 1321,
      "alone": 1322,
      "lesson": 1323,
      "fl": 1324,
      "job": 1325,
      "bike": 1326,
      "delicious": 1327,
      "af": 1328,
      "bus": 1329,
      "fur": 1330,
      "bigger": 1331,
      "art": 1332,
      "pur": 1333,
      "ju": 1334,
      "cloud": 1335,
      "followed": 1336,
      "sail": 1337,
      "woods": 1338,
      "understand": 1339,
      "Jan": 1340,
      "woke": 1341,
      "doctor": 1342,
      "arri": 1343,
      "money": 1344,
      "hopped": 1345,
      "swings": 1346,
      "perf": 1347,
      "Be": 1348,
      "je": 1349,
      "spot": 1350,
      "tain": 1351,
      "ele": 1352,
      "games": 1353,
      "smell": 1354,
      "Jane": 1355,
      "mix": 1356,
      "wall": 1357,
      "All": 1358,
      "ance": 1359,
      "books": 1360,
      "ton": 1361,
      "looks": 1362,
      "leave": 1363,
      "llie": 1364,
      "bath": 1365,
      "without": 1366,
      "outh": 1367,
      "tw": 1368,
      "outed": 1369,
      "blew": 1370,
      "mouth": 1371,
      "zo": 1372,
      "stre": 1373,
      "board": 1374,
      "gif": 1375,
      "kno": 1376,
      "whis": 1377,
      "sea": 1378,
      "inted": 1379,
      "grabbed": 1380,
      "thre": 1381,
      "field": 1382,
      "pass": 1383,
      "bite": 1384,
      "shouted": 1385,
      "Ted": 1386,
      "hor": 1387,
      "snack": 1388,
      "arrived": 1389,
      "pulled": 1390,
      "must": 1391,
      "igg": 1392,
      "caught": 1393,
      "cy": 1394,
      "ose": 1395,
      "cover": 1396,
      "pushed": 1397,
      "heal": 1398,
      "balloon": 1399,
      "shar": 1400,
      "tower": 1401,
      "leg": 1402,
      "ourse": 1403,
      "explained": 1404,
      "deep": 1405,
      "ely": 1406,
      "dri": 1407,
      "sc": 1408,
      "Go": 1409,
      "tiny": 1410,
      "stayed": 1411,
      "chool": 1412,
      "pieces": 1413,
      "pop": 1414,
      "bee": 1415,
      "Blue": 1416,
      "school": 1417,
      "waved": 1418,
      "aisy": 1419,
      "dangerous": 1420,
      "threw": 1421,
      "nee": 1422,
      "Soon": 1423,
      "elly": 1424,
      "mind": 1425,
      "phone": 1426,
      "black": 1427,
      "wouldn": 1428,
      "white": 1429,
      "free": 1430,
      "mother": 1431,
      "bring": 1432,
      "hit": 1433,
      "carefully": 1434,
      "cket": 1435,
      "Sammy": 1436,
      "silly": 1437,
      "appeared": 1438,
      "gi": 1439,
      "unch": 1440,
      "comfor": 1441,
      "worried": 1442,
      "perfect": 1443,
      "Inside": 1444,
      "ence": 1445,
      "drag": 1446,
      "My": 1447,
      "clapped": 1448,
      "hes": 1449,
      "ila": 1450,
      "branch": 1451,
      "fox": 1452,
      "itting": 1453,
      "adventures": 1454,
      "else": 1455,
      "pping": 1456,
      "plane": 1457,
      "Lila": 1458,
      "anket": 1459,
      "iet": 1460,
      "blanket": 1461,
      "enough": 1462,
      "amazed": 1463,
      "course": 1464,
      "bowl": 1465,
      "ross": 1466,
      "quiet": 1467,
      "ated": 1468,
      "amp": 1469,
      "today": 1470,
      "sna": 1471,
      "talked": 1472,
      "drink": 1473,
      "orange": 1474,
      "princess": 1475,
      "dropped": 1476,
      "fairy": 1477,
      "soup": 1478,
      "sharing": 1479,
      "farmer": 1480,
      "wish": 1481,
      "va": 1482,
      "sick": 1483,
      "itch": 1484,
      "Teddy": 1485,
      "well": 1486,
      "phant": 1487,
      "danced": 1488,
      "fruit": 1489,
      "though": 1490,
      "amazing": 1491,
      "pudd": 1492,
      "most": 1493,
      "instead": 1494,
      "chee": 1495,
      "three": 1496,
      "dolls": 1497,
      "jar": 1498,
      "late": 1499,
      "closed": 1500,
      "morning": 1501,
      "backyard": 1502,
      "bble": 1503,
      "elephant": 1504,
      "storm": 1505,
      "round": 1506,
      "gl": 1507,
      "pow": 1508,
      "sees": 1509,
      "ible": 1510,
      "rocks": 1511,
      "smart": 1512,
      "cray": 1513,
      "Daisy": 1514,
      "pers": 1515,
      "ses": 1516,
      "dragon": 1517,
      "lunch": 1518,
      "sitting": 1519,
      "sang": 1520,
      "uddy": 1521,
      "bas": 1522,
      "join": 1523,
      "such": 1524,
      "strange": 1525,
      "year": 1526,
      "cow": 1527,
      "Please": 1528,
      "oth": 1529,
      "mail": 1530,
      "ap": 1531,
      "pes": 1532,
      "leaf": 1533,
      "basket": 1534,
      "neigh": 1535,
      "searched": 1536,
      "val": 1537,
      "makes": 1538,
      "irt": 1539,
      "crab": 1540,
      "creat": 1541,
      "sign": 1542,
      "Of": 1543,
      "ugh": 1544,
      "ull": 1545,
      "stood": 1546,
      "few": 1547,
      "ship": 1548,
      "turns": 1549,
      "mud": 1550,
      "juice": 1551,
      "seek": 1552,
      "letter": 1553,
      "Gr": 1554,
      "\".": 1555,
      "barked": 1556,
      "cute": 1557,
      "sec": 1558,
      "belie": 1559,
      "coin": 1560,
      "pper": 1561,
      "neck": 1562,
      "carry": 1563,
      "drawing": 1564,
      "wings": 1565,
      "gift": 1566,
      "itten": 1567,
      "mil": 1568,
      "ather": 1569,
      "cheese": 1570,
      "fan": 1571,
      "past": 1572,
      "ray": 1573,
      "wore": 1574,
      "Emma": 1575,
      "shine": 1576,
      "pig": 1577,
      "Ducky": 1578,
      "hig": 1579,
      "patient": 1580,
      "egg": 1581,
      "chil": 1582,
      "unk": 1583,
      "shoes": 1584,
      "ben": 1585,
      "days": 1586,
      "dren": 1587,
      "secret": 1588,
      "apples": 1589,
      "hiding": 1590,
      "purple": 1591,
      "belong": 1592,
      "Joe": 1593,
      "fixed": 1594,
      "part": 1595,
      "children": 1596,
      "brown": 1597,
      "taking": 1598,
      "welcome": 1599,
      "Tweety": 1600,
      "neighbor": 1601,
      "live": 1602,
      "button": 1603,
      "count": 1604,
      "ti": 1605,
      "faster": 1606,
      "stone": 1607,
      "lon": 1608,
      "rub": 1609,
      "cra": 1610,
      "ser": 1611,
      "Re": 1612,
      "fit": 1613,
      "pil": 1614,
      "spl": 1615,
      "blem": 1616,
      "boun": 1617,
      "problem": 1618,
      "net": 1619,
      "dist": 1620,
      "road": 1621,
      "Buddy": 1622,
      "smo": 1623,
      "wr": 1624,
      "shell": 1625,
      "bottle": 1626,
      "singing": 1627,
      "spid": 1628,
      "bought": 1629,
      "sli": 1630,
      "uni": 1631,
      "sug": 1632,
      "ises": 1633,
      "colle": 1634,
      "suddenly": 1635,
      "throw": 1636,
      "filled": 1637,
      "likes": 1638,
      "pull": 1639,
      "buck": 1640,
      "snake": 1641,
      "pol": 1642,
      "band": 1643,
      "milk": 1644,
      "wash": 1645,
      "rug": 1646,
      "driver": 1647,
      "bench": 1648,
      "Ne": 1649,
      "coat": 1650,
      "ian": 1651,
      "higher": 1652,
      "helpful": 1653,
      "words": 1654,
      "craw": 1655,
      "irth": 1656,
      "wagged": 1657,
      "har": 1658,
      "fla": 1659,
      "berries": 1660,
      "bat": 1661,
      "lonely": 1662,
      "heart": 1663,
      "pocket": 1664,
      "cozy": 1665,
      "irthday": 1666,
      "trou": 1667,
      "cks": 1668,
      "trip": 1669,
      "Fred": 1670,
      "talking": 1671,
      "Whis": 1672,
      "Nemo": 1673,
      "fused": 1674,
      "answ": 1675,
      "Together": 1676,
      "start": 1677,
      "paw": 1678,
      "Some": 1679,
      "wand": 1680,
      "oc": 1681,
      "forever": 1682,
      "teac": 1683,
      "nose": 1684,
      "lake": 1685,
      "umb": 1686,
      "mach": 1687,
      "kers": 1688,
      "same": 1689,
      "cal": 1690,
      "Come": 1691,
      "street": 1692,
      "prot": 1693,
      "Whiskers": 1694,
      "idge": 1695,
      "birthday": 1696,
      "tasty": 1697,
      "tu": 1698,
      "seed": 1699,
      "kick": 1700,
      "eas": 1701,
      "ches": 1702,
      "erful": 1703,
      "di": 1704,
      "log": 1705,
      "rown": 1706,
      "rolled": 1707,
      "knocked": 1708,
      "puddle": 1709,
      "healthy": 1710,
      "spider": 1711,
      "ountain": 1712,
      "shelf": 1713,
      "teacher": 1714,
      "tea": 1715,
      "moved": 1716,
      "Ellie": 1717,
      "spin": 1718,
      "missed": 1719,
      "pra": 1720,
      "believe": 1721,
      "comfortable": 1722,
      "push": 1723,
      "des": 1724,
      "ng": 1725,
      "card": 1726,
      "drove": 1727,
      "ban": 1728,
      "birdie": 1729,
      "orm": 1730,
      "wants": 1731,
      "honey": 1732,
      "cookie": 1733,
      "grew": 1734,
      "banan": 1735,
      "loom": 1736,
      "ier": 1737,
      "gentle": 1738,
      "sent": 1739,
      "spit": 1740,
      "building": 1741,
      "ment": 1742,
      "Brown": 1743,
      "organ": 1744,
      "bush": 1745,
      "collect": 1746,
      "drew": 1747,
      "teach": 1748,
      "shop": 1749,
      "os": 1750,
      "war": 1751,
      "nic": 1752,
      "landed": 1753,
      "su": 1754,
      "Le": 1755,
      "worm": 1756,
      "shy": 1757,
      "shining": 1758,
      "wra": 1759,
      "shirt": 1760,
      "mod": 1761,
      "fence": 1762,
      "ize": 1763,
      "nut": 1764,
      "ming": 1765,
      "vel": 1766,
      "living": 1767,
      "magical": 1768,
      "ude": 1769,
      "Good": 1770,
      "ek": 1771,
      "later": 1772,
      "wich": 1773,
      "ants": 1774,
      "sandwich": 1775,
      "hero": 1776,
      "rainbow": 1777,
      "sharp": 1778,
      "knee": 1779,
      "laughing": 1780,
      "hu": 1781,
      "bur": 1782,
      "longer": 1783,
      "songs": 1784,
      "tent": 1785,
      "watching": 1786,
      "spital": 1787,
      "quest": 1788,
      "hospital": 1789,
      "mine": 1790,
      "horse": 1791,
      "pract": 1792,
      "feather": 1793,
      "kite": 1794,
      "suc": 1795,
      "life": 1796,
      "cave": 1797,
      "rich": 1798,
      "pan": 1799,
      "pile": 1800,
      "corn": 1801,
      "ey": 1802,
      "mad": 1803,
      "ungle": 1804,
      "puzz": 1805,
      "jungle": 1806,
      "sack": 1807,
      "resting": 1808,
      "mel": 1809,
      "onto": 1810,
      "ughty": 1811,
      "chick": 1812,
      "robot": 1813,
      "Daddy": 1814,
      "olf": 1815,
      "busy": 1816,
      "meet": 1817,
      "naughty": 1818,
      "gest": 1819,
      "How": 1820,
      "hang": 1821,
      "ped": 1822,
      "bread": 1823,
      "kin": 1824,
      "spark": 1825,
      "umpy": 1826,
      "epend": 1827,
      "inv": 1828,
      "kitten": 1829,
      "crayons": 1830,
      "raid": 1831,
      "afraid": 1832,
      "picnic": 1833,
      "Ch": 1834,
      "shad": 1835,
      "wonderful": 1836,
      "carrots": 1837,
      "bucket": 1838,
      "along": 1839,
      "wolf": 1840,
      "chased": 1841,
      "esp": 1842,
      "scream": 1843,
      "smiles": 1844,
      "fold": 1845,
      "gently": 1846,
      "kis": 1847,
      "rope": 1848,
      "thin": 1849,
      "asleep": 1850,
      "ular": 1851,
      "jour": 1852,
      "chocol": 1853,
      "gen": 1854,
      "tomor": 1855,
      "tomorrow": 1856,
      "oven": 1857,
      "lemon": 1858,
      "lice": 1859,
      "una": 1860,
      "cir": 1861,
      "If": 1862,
      "spicy": 1863,
      "swimming": 1864,
      "taste": 1865,
      "uce": 1866,
      "sage": 1867,
      "coun": 1868,
      "ecially": 1869,
      "especially": 1870,
      "foot": 1871,
      "mum": 1872,
      "bled": 1873,
      "peace": 1874,
      "note": 1875,
      "ney": 1876,
      "holding": 1877,
      "asks": 1878,
      "Grandma": 1879,
      "messy": 1880,
      "meant": 1881,
      "body": 1882,
      "ling": 1883,
      "bugs": 1884,
      "yell": 1885,
      "pill": 1886,
      "dirt": 1887,
      "shake": 1888,
      "takes": 1889,
      "chocolate": 1890,
      "lucky": 1891,
      "tasted": 1892,
      "den": 1893,
      "miss": 1894,
      "seat": 1895,
      "ced": 1896,
      "erry": 1897,
      "zoo": 1898,
      "ert": 1899,
      "covered": 1900,
      "slowly": 1901,
      "save": 1902,
      "inte": 1903,
      "sol": 1904,
      "vie": 1905,
      "drive": 1906,
      "vill": 1907,
      "young": 1908,
      "OK": 1909,
      "touc": 1910,
      "promise": 1911,
      "cheered": 1912,
      "shook": 1913,
      "sounds": 1914,
      "spoon": 1915,
      "ob": 1916,
      "cage": 1917,
      "protect": 1918,
      "bone": 1919,
      "min": 1920,
      "cean": 1921,
      "ocean": 1922,
      "fing": 1923,
      "knowing": 1924,
      "anyone": 1925,
      "finish": 1926,
      "ones": 1927,
      "nearby": 1928,
      "sunshine": 1929,
      "bubble": 1930,
      "confused": 1931,
      "umber": 1932,
      "touched": 1933,
      "da": 1934,
      "ugly": 1935,
      "sco": 1936,
      "ions": 1937,
      "glow": 1938,
      "hello": 1939,
      "whole": 1940,
      "bru": 1941,
      "splash": 1942,
      "wave": 1943,
      "wild": 1944,
      "ress": 1945,
      "turt": 1946,
      "Jim": 1947,
      "treats": 1948,
      "joke": 1949,
      "machine": 1950,
      "smelled": 1951,
      "getable": 1952,
      "cleaned": 1953,
      "Tweetie": 1954,
      "lown": 1955,
      "wheel": 1956,
      "gray": 1957,
      "ella": 1958,
      "vegetable": 1959,
      "bin": 1960,
      "whistle": 1961,
      "string": 1962,
      "bake": 1963,
      "hidden": 1964,
      "fancy": 1965,
      "myster": 1966,
      "lt": 1967,
      "imag": 1968,
      "Pe": 1969,
      "Mim": 1970,
      "hoped": 1971,
      "mer": 1972,
      "tid": 1973,
      "stars": 1974,
      "Mimi": 1975,
      "turtle": 1976,
      "izz": 1977,
      "interesting": 1978,
      "couch": 1979,
      "village": 1980,
      "gy": 1981,
      "balls": 1982,
      "Jen": 1983,
      "clever": 1984,
      "shapes": 1985,
      "TV": 1986,
      "bell": 1987,
      "test": 1988,
      "lace": 1989,
      "vase": 1990,
      "cop": 1991,
      "whenever": 1992,
      "spe": 1993,
      "retur": 1994,
      "Bella": 1995,
      "wide": 1996,
      "present": 1997,
      "tidy": 1998,
      "boss": 1999,
      "cloth": 2000,
      "orn": 2001,
      "Molly": 2002,
      "hone": 2003,
      "sour": 2004,
      "waiting": 2005,
      "jelly": 2006,
      "tie": 2007,
      "Jerry": 2008,
      "saved": 2009,
      "Are": 2010,
      "fli": 2011,
      "barr": 2012,
      "embarr": 2013,
      "puzzle": 2014,
      "clown": 2015,
      "roar": 2016,
      "zoom": 2017,
      "rude": 2018,
      "wondered": 2019,
      "fron": 2020,
      ".”": 2021,
      "tightly": 2022,
      "vous": 2023,
      "front": 2024,
      "shes": 2025,
      "Hey": 2026,
      "calm": 2027,
      "write": 2028,
      "honest": 2029,
      "smooth": 2030,
      "necklace": 2031,
      "embarrass": 2032,
      "!”": 2033,
      "change": 2034,
      "twin": 2035,
      "resp": 2036,
      "pillow": 2037,
      "rank": 2038,
      "wearing": 2039,
      "grumpy": 2040,
      "spoil": 2041,
      "roc": 2042,
      "stories": 2043,
      "gust": 2044,
      "rad": 2045,
      "path": 2046,
      "ducks": 2047,
      "snowman": 2048,
      "years": 2049,
      "giant": 2050,
      "cape": 2051,
      "lay": 2052,
      "impress": 2053,
      "ult": 2054,
      "emp": 2055,
      "plate": 2056,
      "working": 2057,
      "empty": 2058,
      "andpa": 2059,
      "bul": 2060,
      "Leo": 2061,
      "prince": 2062,
      "gigg": 2063,
      "est": 2064,
      "fruits": 2065,
      "ars": 2066,
      "group": 2067,
      "Bun": 2068,
      "ich": 2069,
      "ness": 2070,
      "runs": 2071,
      "circle": 2072,
      "spray": 2073,
      "jewel": 2074,
      "pizz": 2075,
      "selfish": 2076,
      "trouble": 2077,
      "Their": 2078,
      "thinks": 2079,
      "huge": 2080,
      "step": 2081,
      "gather": 2082,
      "arms": 2083,
      "pretended": 2084,
      "noises": 2085,
      "line": 2086,
      "scre": 2087,
      "ughter": 2088,
      "ladder": 2089,
      "pizza": 2090,
      "daughter": 2091,
      "sup": 2092,
      "fighting": 2093,
      "ast": 2094,
      "forget": 2095,
      "vegetables": 2096,
      "nervous": 2097,
      "pain": 2098,
      "pointed": 2099,
      "pin": 2100,
      "sleepy": 2101,
      "van": 2102,
      "fil": 2103,
      "chest": 2104,
      "izzy": 2105,
      "era": 2106,
      "tool": 2107,
      "ending": 2108,
      "class": 2109,
      "Johnny": 2110,
      "slid": 2111,
      "sheep": 2112,
      "case": 2113,
      "fake": 2114,
      "kn": 2115,
      "jumping": 2116,
      "decor": 2117,
      "legs": 2118,
      "act": 2119,
      "sold": 2120,
      "trust": 2121,
      "Jill": 2122,
      "across": 2123,
      "clouds": 2124,
      "ensive": 2125,
      "lazy": 2126,
      "expensive": 2127,
      "Remy": 2128,
      "moon": 2129,
      "smelly": 2130,
      "irp": 2131,
      "search": 2132,
      "Mark": 2133,
      "pool": 2134,
      "Your": 2135,
      "feels": 2136,
      "lovely": 2137,
      "last": 2138,
      "twins": 2139,
      "drum": 2140,
      "imed": 2141,
      "drank": 2142,
      "yo": 2143,
      "remind": 2144,
      "law": 2145,
      "person": 2146,
      "embarrassed": 2147,
      "stepped": 2148,
      "Where": 2149,
      "easy": 2150,
      "dogs": 2151,
      "osa": 2152,
      "which": 2153,
      "reg": 2154,
      "res": 2155,
      "carried": 2156,
      "Emily": 2157,
      "cross": 2158,
      "usu": 2159,
      "police": 2160,
      "mir": 2161,
      "print": 2162,
      "beak": 2163,
      "bossy": 2164,
      "cleaning": 2165,
      "pri": 2166,
      "peaceful": 2167,
      "snacks": 2168,
      "osaur": 2169,
      "weak": 2170,
      "stair": 2171,
      "iting": 2172,
      "dinosaur": 2173,
      "deer": 2174,
      "queen": 2175,
      "places": 2176,
      "sticks": 2177,
      "shr": 2178,
      "berry": 2179,
      "sweetie": 2180,
      "closet": 2181,
      "eth": 2182,
      "cord": 2183,
      "teeth": 2184,
      "gold": 2185,
      "gun": 2186,
      "stir": 2187,
      "Brownie": 2188,
      "Mama": 2189,
      "brush": 2190,
      "Bunny": 2191,
      "passed": 2192,
      "plants": 2193,
      "pay": 2194,
      "add": 2195,
      "isa": 2196,
      "swe": 2197,
      "creative": 2198,
      "stud": 2199,
      "Bu": 2200,
      "erly": 2201,
      "Red": 2202,
      "towel": 2203,
      "sugar": 2204,
      "form": 2205,
      "lift": 2206,
      "excla": 2207,
      "hope": 2208,
      "check": 2209,
      "understood": 2210,
      "exclaimed": 2211,
      "blow": 2212,
      "relie": 2213,
      "Lisa": 2214,
      "dish": 2215,
      "sell": 2216,
      "answer": 2217,
      "chase": 2218,
      "ail": 2219,
      "powerful": 2220,
      "medic": 2221,
      "furry": 2222,
      "chew": 2223,
      "medicine": 2224,
      "rocket": 2225,
      "mountain": 2226,
      "lead": 2227,
      "fear": 2228,
      "wom": 2229,
      "eag": 2230,
      "cri": 2231,
      "woman": 2232,
      "ator": 2233,
      "ake": 2234,
      "Ollie": 2235,
      "pump": 2236,
      "success": 2237,
      "clear": 2238,
      "weird": 2239,
      "motor": 2240,
      "stret": 2241,
      "seemed": 2242,
      "ery": 2243,
      "lose": 2244,
      "map": 2245,
      "cater": 2246,
      "caterpill": 2247,
      "famous": 2248,
      "Bet": 2249,
      "spla": 2250,
      "lves": 2251,
      "match": 2252,
      "Tin": 2253,
      "aser": 2254,
      "boring": 2255,
      "dancing": 2256,
      "chicken": 2257,
      "sort": 2258,
      "usual": 2259,
      "spilled": 2260,
      "hing": 2261,
      "nothing": 2262,
      "matter": 2263,
      "vide": 2264,
      "point": 2265,
      "lar": 2266,
      "gate": 2267,
      "mysterious": 2268,
      "polite": 2269,
      "painting": 2270,
      "wha": 2271,
      "caterpillar": 2272,
      "meal": 2273,
      "relieved": 2274,
      "happening": 2275,
      "icro": 2276,
      "space": 2277,
      "het": 2278,
      "tig": 2279,
      "maybe": 2280,
      "hetti": 2281,
      "itter": 2282,
      "pumpkin": 2283,
      "tummy": 2284,
      "shark": 2285,
      "breath": 2286,
      "ume": 2287,
      "order": 2288,
      "Sometimes": 2289,
      "cele": 2290,
      "scare": 2291,
      "celebr": 2292,
      "ipp": 2293,
      "spag": 2294,
      "spaghetti": 2295,
      "dizzy": 2296,
      "ps": 2297,
      "tory": 2298,
      "journey": 2299,
      "ity": 2300,
      "comes": 2301,
      "spent": 2302,
      "anc": 2303,
      "pray": 2304,
      "cur": 2305,
      "Here": 2306,
      "hugs": 2307,
      "organized": 2308,
      "team": 2309,
      "soap": 2310,
      "With": 2311,
      "loves": 2312,
      "poor": 2313,
      "micro": 2314,
      "ustr": 2315,
      "asking": 2316,
      "crown": 2317,
      "hur": 2318,
      "ror": 2319,
      "forgive": 2320,
      "Mary": 2321,
      "whale": 2322,
      "ually": 2323,
      "moving": 2324,
      "Help": 2325,
      "jack": 2326,
      "ten": 2327,
      "taught": 2328,
      "large": 2329,
      "bald": 2330,
      "frustr": 2331,
      "mixed": 2332,
      "balloons": 2333,
      "missing": 2334,
      "rid": 2335,
      "cap": 2336,
      "finding": 2337,
      "tun": 2338,
      "banana": 2339,
      "rare": 2340,
      "true": 2341,
      "guit": 2342,
      "feet": 2343,
      "noisy": 2344,
      "faces": 2345,
      "ventually": 2346,
      "slipped": 2347,
      "mirror": 2348,
      "exam": 2349,
      "boot": 2350,
      "norm": 2351,
      "child": 2352,
      "bri": 2353,
      "tick": 2354,
      "jog": 2355,
      "pair": 2356,
      "ragile": 2357,
      "cannot": 2358,
      "stuff": 2359,
      "ado": 2360,
      "tough": 2361,
      "lamp": 2362,
      "become": 2363,
      "ignor": 2364,
      "number": 2365,
      "Luna": 2366,
      "fragile": 2367,
      "normal": 2368,
      "locked": 2369,
      "straw": 2370,
      "frustrated": 2371,
      "splashed": 2372,
      "stairs": 2373,
      "guitar": 2374,
      "jam": 2375,
      "seem": 2376,
      "dol": 2377,
      "often": 2378,
      "mark": 2379,
      "unique": 2380,
      "dest": 2381,
      "flies": 2382,
      "using": 2383,
      "shoot": 2384,
      "batter": 2385,
      "hose": 2386,
      "bles": 2387,
      "borrow": 2388,
      "snee": 2389,
      "ero": 2390,
      "rod": 2391,
      "zed": 2392,
      "glass": 2393,
      "ilt": 2394,
      "feed": 2395,
      "alous": 2396,
      "flag": 2397,
      "wake": 2398,
      "ours": 2399,
      "glue": 2400,
      "asha": 2401,
      "jealous": 2402,
      "apo": 2403,
      "jacket": 2404,
      "issor": 2405,
      "ute": 2406,
      "umble": 2407,
      "anut": 2408,
      "apolog": 2409,
      "issors": 2410,
      "packed": 2411,
      "march": 2412,
      "Mrs": 2413,
      "cred": 2414,
      "feathers": 2415,
      "Ann": 2416,
      "born": 2417,
      "yelled": 2418,
      "cost": 2419,
      "spoiled": 2420,
      "ashamed": 2421,
      "shout": 2422,
      "bridge": 2423,
      "cone": 2424,
      "gra": 2425,
      "eld": 2426,
      "branches": 2427,
      "creature": 2428,
      "vet": 2429,
      "explor": 2430,
      "Me": 2431,
      "str": 2432,
      "incred": 2433,
      "scissors": 2434,
      "Cat": 2435,
      "spread": 2436,
      "breakfast": 2437,
      "yal": 2438,
      "tiger": 2439,
      "dolph": 2440,
      "yourself": 2441,
      "terri": 2442,
      "fill": 2443,
      "eggs": 2444,
      "Chirp": 2445,
      "generous": 2446,
      "stub": 2447,
      "driving": 2448,
      "arn": 2449,
      "dig": 2450,
      "cil": 2451,
      "scarf": 2452,
      "hopping": 2453,
      "whisper": 2454,
      "incredible": 2455,
      "fine": 2456,
      "thick": 2457,
      "unusual": 2458,
      "balance": 2459,
      "washed": 2460,
      "acorn": 2461,
      "pencil": 2462,
      "shadow": 2463,
      "exploring": 2464,
      "suggest": 2465,
      "stic": 2466,
      "cate": 2467,
      "finger": 2468,
      "yarn": 2469,
      "movie": 2470,
      "shore": 2471,
      "mistake": 2472,
      "Bobby": 2473,
      "elderly": 2474,
      "dough": 2475,
      "lli": 2476,
      "harm": 2477,
      "tele": 2478,
      "peanut": 2479,
      "built": 2480,
      "fridge": 2481,
      "bounce": 2482,
      "leaving": 2483,
      "these": 2484,
      "pir": 2485,
      "offered": 2486,
      "loudly": 2487,
      "loyal": 2488,
      "fic": 2489,
      "seeds": 2490,
      "bubbles": 2491,
      "Even": 2492,
      "solve": 2493,
      "andy": 2494,
      "swan": 2495,
      "ham": 2496,
      "kicked": 2497,
      "bloom": 2498,
      "diffic": 2499,
      "dead": 2500,
      "vest": 2501,
      "cher": 2502,
      "stubborn": 2503,
      "taken": 2504,
      "fat": 2505,
      "giving": 2506,
      "toma": 2507,
      "tomato": 2508,
      "difficult": 2509,
      "gum": 2510,
      "wagon": 2511,
      "Bird": 2512,
      "robe": 2513,
      "kiss": 2514,
      "useful": 2515,
      "bathroom": 2516,
      "mighty": 2517,
      "wrot": 2518,
      "wrote": 2519,
      "ggy": 2520,
      "painted": 2521,
      "El": 2522,
      "waves": 2523,
      "lolli": 2524,
      "sword": 2525,
      "giggled": 2526,
      "lollipop": 2527,
      "licked": 2528,
      "ancient": 2529,
      "delicate": 2530,
      "week": 2531,
      "cart": 2532,
      "fluffy": 2533,
      "supp": 2534,
      "sque": 2535,
      "Bear": 2536,
      "Chirpy": 2537,
      "barn": 2538,
      "terrible": 2539,
      "Stop": 2540,
      "udge": 2541,
      "tape": 2542,
      "crazy": 2543,
      "ugg": 2544,
      "umsy": 2545,
      "tag": 2546,
      "weal": 2547,
      "rode": 2548,
      "clock": 2549,
      "fool": 2550,
      "ond": 2551,
      "rella": 2552,
      "Momo": 2553,
      "umbrella": 2554,
      "cabin": 2555,
      "coco": 2556,
      "clumsy": 2557,
      "compet": 2558,
      "witch": 2559,
      "Polly": 2560,
      "stat": 2561,
      "Snow": 2562,
      "del": 2563,
      "strug": 2564,
      "fre": 2565,
      "fright": 2566,
      "nown": 2567,
      "Andy": 2568,
      "unknown": 2569,
      "bushes": 2570,
      "ighed": 2571,
      "port": 2572,
      "uring": 2573,
      "bitter": 2574,
      "tripped": 2575,
      "escape": 2576,
      "bean": 2577,
      "market": 2578,
      "stove": 2579,
      "screamed": 2580,
      "libr": 2581,
      "popcorn": 2582,
      "forgave": 2583,
      "nosy": 2584,
      "dolphin": 2585,
      "Who": 2586,
      "measure": 2587,
      "foolish": 2588,
      "iver": 2589,
      "dove": 2590,
      "gloom": 2591,
      "kindness": 2592,
      "lif": 2593,
      "anyway": 2594,
      "illi": 2595,
      "obed": 2596,
      "oured": 2597,
      "soar": 2598,
      "flash": 2599,
      "wealthy": 2600,
      "fier": 2601,
      "coura": 2602,
      "dreaming": 2603,
      "hun": 2604,
      "dug": 2605,
      "frightened": 2606,
      "Jimmy": 2607,
      "gloomy": 2608,
      "liz": 2609,
      "cakes": 2610,
      "fierce": 2611,
      "ato": 2612,
      "obedient": 2613,
      "gas": 2614,
      "mailbox": 2615,
      "oppy": 2616,
      "uncomfortable": 2617,
      "depend": 2618,
      "flex": 2619,
      "ipped": 2620,
      "rh": 2621,
      "urous": 2622,
      "adventurous": 2623,
      "bored": 2624,
      "wis": 2625,
      "respect": 2626,
      "att": 2627,
      "dle": 2628,
      "ee": 2629,
      "liable": 2630,
      "aw": 2631,
      "disappeared": 2632,
      "oo": 2633,
      "salad": 2634,
      "als": 2635,
      "?”": 2636,
      "competit": 2637,
      "means": 2638,
      "study": 2639,
      "successful": 2640,
      "flexible": 2641,
      "crawled": 2642,
      "statue": 2643,
      "rise": 2644,
      "clay": 2645,
      "fely": 2646,
      "safely": 2647,
      "sleeping": 2648,
      "cane": 2649,
      "brace": 2650,
      "cereal": 2651,
      "sauce": 2652,
      "inal": 2653,
      "Zo": 2654,
      "nuts": 2655,
      "ruined": 2656,
      "ife": 2657,
      "stage": 2658,
      "vi": 2659,
      "Doggy": 2660,
      "Bub": 2661,
      "trucks": 2662,
      "orig": 2663,
      "potato": 2664,
      "tank": 2665,
      "reliable": 2666,
      "office": 2667,
      "irsty": 2668,
      "illiant": 2669,
      "Instead": 2670,
      "shoe": 2671,
      "belonged": 2672,
      "dull": 2673,
      "brilliant": 2674,
      "trick": 2675,
      "lizard": 2676,
      "bracelet": 2677,
      "grandpa": 2678,
      "poured": 2679,
      "practiced": 2680,
      "original": 2681,
      "twist": 2682,
      "wrap": 2683,
      "rocod": 2684,
      "helmet": 2685,
      "enorm": 2686,
      "enormous": 2687,
      "cam": 2688,
      "smiling": 2689,
      "badly": 2690,
      "cube": 2691,
      "bananas": 2692,
      "roy": 2693,
      "sport": 2694,
      "thirsty": 2695,
      "cocoa": 2696,
      "island": 2697,
      "gives": 2698,
      "independ": 2699,
      "destroy": 2700,
      "hairy": 2701,
      "Ros": 2702,
      "Rosie": 2703,
      "serious": 2704,
      "hunter": 2705,
      "juicy": 2706,
      "rose": 2707,
      "inky": 2708,
      "goes": 2709,
      "cooking": 2710,
      "coo": 2711,
      "knife": 2712,
      "hoop": 2713,
      "independent": 2714,
      "mole": 2715,
      "steal": 2716,
      "suggested": 2717,
      "guess": 2718,
      "shiver": 2719,
      "toast": 2720,
      "parade": 2721,
      "impressive": 2722,
      "ipe": 2723,
      "aunt": 2724,
      "disgust": 2725,
      "suit": 2726,
      "hay": 2727,
      "crocod": 2728,
      "grace": 2729,
      "mid": 2730,
      "chang": 2731,
      "charm": 2732,
      "horn": 2733,
      "relax": 2734,
      "raven": 2735,
      "host": 2736,
      "joined": 2737,
      "upid": 2738,
      "goat": 2739,
      "early": 2740,
      "dependable": 2741,
      "web": 2742,
      "Mum": 2743,
      "counted": 2744,
      "rubbed": 2745,
      "forth": 2746,
      "wip": 2747,
      "nel": 2748,
      "Buzz": 2749,
      "thoughtful": 2750,
      "appo": 2751,
      "invited": 2752,
      "teas": 2753,
      "playful": 2754,
      "cheap": 2755,
      "deliver": 2756,
      "disgusting": 2757,
      "middle": 2758,
      "rane": 2759,
      "allow": 2760,
      "moder": 2761,
      "cco": 2762,
      "ffin": 2763,
      "rat": 2764,
      "stupid": 2765,
      "cheerful": 2766,
      "stamp": 2767,
      "smaller": 2768,
      "penny": 2769,
      "lifted": 2770,
      "wic": 2771,
      "wiches": 2772,
      "bandage": 2773,
      "regular": 2774,
      "stri": 2775,
      "sandwiches": 2776,
      "graceful": 2777,
      "popular": 2778,
      "square": 2779,
      "son": 2780,
      "ave": 2781,
      "choose": 2782,
      "ilty": 2783,
      "guilty": 2784,
      "jolly": 2785,
      "arrow": 2786,
      "fountain": 2787,
      "sca": 2788,
      "exciting": 2789,
      "beet": 2790,
      "prize": 2791,
      "Freddy": 2792,
      "hammer": 2793,
      "tro": 2794,
      "knight": 2795,
      "uth": 2796,
      "crocodile": 2797,
      "amond": 2798,
      "aur": 2799,
      "Give": 2800,
      "eye": 2801,
      "pal": 2802,
      "restaur": 2803,
      "melon": 2804,
      "Will": 2805,
      "corner": 2806,
      "hurts": 2807,
      "disappo": 2808,
      "fork": 2809,
      "diamond": 2810,
      "pasta": 2811,
      "compass": 2812,
      "belt": 2813,
      "puts": 2814,
      "charming": 2815,
      "verse": 2816,
      "paws": 2817,
      "reminded": 2818,
      "sock": 2819,
      "crayon": 2820,
      "jet": 2821,
      "crane": 2822,
      "camera": 2823,
      "env": 2824,
      "needs": 2825,
      "Betsy": 2826,
      "ghost": 2827,
      "tunnel": 2828,
      "gem": 2829,
      "eng": 2830,
      "zip": 2831,
      "warned": 2832,
      "squee": 2833,
      "sailed": 2834,
      "pige": 2835,
      "arage": 2836,
      "garage": 2837,
      "wrapped": 2838,
      "htub": 2839,
      "iness": 2840,
      "bathtub": 2841,
      "grown": 2842,
      "returned": 2843,
      "serve": 2844,
      "super": 2845,
      "twig": 2846,
      "restaurant": 2847,
      "harmless": 2848,
      "gir": 2849,
      "pebble": 2850,
      "fearful": 2851,
      "saying": 2852,
      "modern": 2853,
      "careless": 2854,
      "ordin": 2855,
      "trunk": 2856,
      "Sp": 2857,
      "ordinary": 2858,
      "nowhere": 2859,
      "ears": 2860,
      "Tiny": 2861,
      "spring": 2862,
      "muffin": 2863,
      "vice": 2864,
      "goose": 2865,
      "gue": 2866,
      "erable": 2867,
      "carto": 2868,
      "gifted": 2869,
      "fig": 2870,
      "humble": 2871,
      "stal": 2872,
      "Tr": 2873,
      "men": 2874,
      "mes": 2875,
      "angel": 2876,
      "miserable": 2877,
      "beetle": 2878,
      "comput": 2879,
      "walks": 2880,
      "Sm": 2881,
      "library": 2882,
      "distance": 2883,
      "stranger": 2884,
      "topus": 2885,
      "lean": 2886,
      "truth": 2887,
      "ates": 2888,
      "tied": 2889,
      "yet": 2890,
      "eager": 2891,
      "roof": 2892,
      "filthy": 2893,
      "licop": 2894,
      "licopter": 2895,
      "jeep": 2896,
      "cooked": 2897,
      "icycle": 2898,
      "doesn": 2899,
      "bark": 2900,
      "page": 2901,
      "torn": 2902,
      "bicycle": 2903,
      "sunflower": 2904,
      "twirl": 2905,
      "tom": 2906,
      "bottom": 2907,
      "quar": 2908,
      "compassion": 2909,
      "helicopter": 2910,
      "pian": 2911,
      "trap": 2912,
      "whispered": 2913,
      "create": 2914,
      "barber": 2915,
      "already": 2916,
      "boxes": 2917,
      "octopus": 2918,
      "ffle": 2919,
      "answered": 2920,
      "disappointed": 2921,
      "tries": 2922,
      "shroom": 2923,
      "parrot": 2924,
      "flashlight": 2925,
      "piano": 2926,
      "coins": 2927,
      "deaf": 2928,
      "soldier": 2929,
      "apologized": 2930,
      "guard": 2931,
      "cycle": 2932,
      "pants": 2933,
      "crawl": 2934,
      "anx": 2935,
      "ating": 2936,
      "value": 2937,
      "ject": 2938,
      "package": 2939,
      "lying": 2940,
      "anxious": 2941,
      "atch": 2942,
      "mushroom": 2943,
      "mask": 2944,
      "candle": 2945,
      "stream": 2946,
      "thie": 2947,
      "haircut": 2948,
      "computer": 2949,
      "selves": 2950,
      "waffle": 2951,
      "changed": 2952,
      "sil": 2953,
      "travel": 2954,
      "troubled": 2955,
      "tem": 2956,
      "fet": 2957,
      "dreamed": 2958,
      "brocco": 2959,
      "broccoli": 2960,
      "resc": 2961,
      "rescue": 2962,
      "pard": 2963,
      "ellig": 2964,
      "gets": 2965,
      "polish": 2966,
      "Smith": 2967,
      "advice": 2968,
      "intellig": 2969,
      "pour": 2970,
      "almost": 2971,
      "mug": 2972,
      "anywhere": 2973,
      "smoke": 2974,
      "screen": 2975,
      "spend": 2976,
      "ature": 2977,
      "io": 2978,
      "tooth": 2979,
      "butterflies": 2980,
      "frown": 2981,
      "skin": 2982,
      "jug": 2983,
      "leo": 2984,
      "harsh": 2985,
      "decorate": 2986,
      "illa": 2987,
      "tract": 2988,
      "load": 2989,
      "celebrate": 2990,
      "utes": 2991,
      "aero": 2992,
      "helpless": 2993,
      "Rex": 2994,
      "bees": 2995,
      "compassionate": 2996,
      "pale": 2997,
      "tricks": 2998,
      "yours": 2999,
      "rice": 3000,
      "wallet": 3001,
      "fort": 3002,
      "pear": 3003,
      "clap": 3004,
      "shells": 3005,
      "base": 3006,
      "persist": 3007,
      "restless": 3008,
      "comb": 3009,
      "crack": 3010,
      "leopard": 3011,
      "envious": 3012,
      "quarrel": 3013,
      "sighed": 3014,
      "stretch": 3015,
      "alert": 3016,
      "learning": 3017,
      "thief": 3018,
      "picking": 3019,
      "may": 3020,
      "excite": 3021,
      "thinking": 3022,
      "gurt": 3023,
      "lit": 3024,
      "atta": 3025,
      "minutes": 3026,
      "planet": 3027,
      "notice": 3028,
      "umpet": 3029,
      "intelligent": 3030,
      "See": 3031,
      "sink": 3032,
      "attract": 3033,
      "tax": 3034,
      "question": 3035,
      "vol": 3036,
      "olin": 3037,
      "ubby": 3038,
      "trumpet": 3039,
      "yogurt": 3040,
      "atient": 3041,
      "meow": 3042,
      "magnet": 3043,
      "igator": 3044,
      "bump": 3045,
      "scr": 3046,
      "pepper": 3047,
      "valu": 3048,
      "scoot": 3049,
      "enjoying": 3050,
      "sle": 3051,
      "bull": 3052,
      "desk": 3053,
      "crystal": 3054,
      "flute": 3055,
      "nail": 3056,
      "standing": 3057,
      "catter": 3058,
      "perform": 3059,
      "coll": 3060,
      "track": 3061,
      "cricket": 3062,
      "scatter": 3063,
      "ador": 3064,
      "competitive": 3065,
      "chubby": 3066,
      "uli": 3067,
      "carpet": 3068,
      "persistent": 3069,
      "brea": 3070,
      "stronger": 3071,
      "comple": 3072,
      "sweater": 3073,
      "impatient": 3074,
      "pigeon": 3075,
      "bb": 3076,
      "laun": 3077,
      "speed": 3078,
      "those": 3079,
      "nur": 3080,
      "adorable": 3081,
      "guin": 3082,
      "violin": 3083,
      "lid": 3084,
      "asses": 3085,
      "cact": 3086,
      "record": 3087,
      "sta": 3088,
      "inde": 3089,
      "reading": 3090,
      "triang": 3091,
      "taxi": 3092,
      "once": 3093,
      "bedroom": 3094,
      "figure": 3095,
      "ache": 3096,
      "attractive": 3097,
      "Rose": 3098,
      "St": 3099,
      "velo": 3100,
      "houses": 3101,
      "telling": 3102,
      "basketball": 3103,
      "orry": 3104,
      "alligator": 3105,
      "design": 3106,
      "tire": 3107,
      "motorcycle": 3108,
      "Today": 3109,
      "cano": 3110,
      "flour": 3111,
      "scale": 3112,
      "collar": 3113,
      "envelo": 3114,
      "penguin": 3115,
      "wheels": 3116,
      "earth": 3117,
      "laundry": 3118,
      "added": 3119,
      "squash": 3120,
      "distur": 3121,
      "avoc": 3122,
      "ignorant": 3123,
      "wiped": 3124,
      "superhero": 3125,
      "post": 3126,
      "Did": 3127,
      "Sorry": 3128,
      "engine": 3129,
      "valuable": 3130,
      "power": 3131,
      "ye": 3132,
      "press": 3133,
      "purse": 3134,
      "volcano": 3135,
      "seal": 3136,
      "playground": 3137,
      "Ella": 3138,
      "iss": 3139,
      "themselves": 3140,
      "barking": 3141,
      "Zoom": 3142,
      "sheet": 3143,
      "meat": 3144,
      "shrimp": 3145,
      "shade": 3146,
      "speak": 3147,
      "radio": 3148,
      "lk": 3149,
      "lively": 3150,
      "comet": 3151,
      "pipe": 3152,
      "cats": 3153,
      "bags": 3154,
      "cactus": 3155,
      "behave": 3156,
      "rece": 3157,
      "turkey": 3158,
      "station": 3159,
      "usage": 3160,
      "questions": 3161,
      "raft": 3162,
      "city": 3163,
      "hours": 3164,
      "ither": 3165,
      "message": 3166,
      "sausage": 3167,
      "chalk": 3168,
      "happiness": 3169,
      "acht": 3170,
      "curtain": 3171,
      "lights": 3172,
      "Pet": 3173,
      "dom": 3174,
      "enth": 3175,
      "practice": 3176,
      "pirate": 3177,
      "dust": 3178,
      "boats": 3179,
      "return": 3180,
      "enthus": 3181,
      "drawings": 3182,
      "wheat": 3183,
      "sses": 3184,
      "tears": 3185,
      "gathered": 3186,
      "pony": 3187,
      "yacht": 3188,
      "affe": 3189,
      "send": 3190,
      "notebook": 3191,
      "firework": 3192,
      "Would": 3193,
      "moms": 3194,
      "oat": 3195,
      "Little": 3196,
      "hive": 3197,
      "separ": 3198,
      "unlock": 3199,
      "vine": 3200,
      "uncle": 3201,
      "lime": 3202,
      "diary": 3203,
      "dreams": 3204,
      "umbled": 3205,
      "envelope": 3206,
      "adow": 3207,
      "meadow": 3208,
      "helps": 3209,
      "stack": 3210,
      "bulance": 3211,
      "scooter": 3212,
      "shape": 3213,
      "glasses": 3214,
      "ambulance": 3215,
      "pit": 3216,
      "modest": 3217,
      "Bubbles": 3218,
      "mill": 3219,
      "yaw": 3220,
      "acce": 3221,
      "cer": 3222,
      "spinning": 3223,
      "cing": 3224,
      "cush": 3225,
      "Pete": 3226,
      "nicely": 3227,
      "half": 3228,
      "pho": 3229,
      "nurse": 3230,
      "jellyfish": 3231,
      "boys": 3232,
      "tube": 3233,
      "Jenny": 3234,
      "photo": 3235,
      "giraffe": 3236,
      "costume": 3237,
      "sect": 3238,
      "bulb": 3239,
      "aeroplane": 3240,
      "cows": 3241,
      "reward": 3242,
      "Thanks": 3243,
      "slept": 3244,
      "nament": 3245,
      "distant": 3246,
      "support": 3247,
      "Well": 3248,
      "knot": 3249,
      "bounced": 3250,
      "encoura": 3251,
      "extra": 3252,
      "view": 3253,
      "ox": 3254,
      "mistakes": 3255,
      "repair": 3256,
      "thankful": 3257,
      "camp": 3258,
      "aky": 3259,
      "knock": 3260,
      "oy": 3261,
      "nder": 3262,
      "ito": 3263,
      "bel": 3264,
      "impro": 3265,
      "otter": 3266,
      "helper": 3267,
      "listening": 3268,
      "thread": 3269,
      "gor": 3270,
      "showing": 3271,
      "skip": 3272,
      "calling": 3273,
      "Flo": 3274,
      "ornament": 3275,
      "trash": 3276,
      "ceed": 3277,
      "Al": 3278,
      "Nut": 3279,
      "squito": 3280,
      "hipp": 3281,
      "swinging": 3282,
      "Snowy": 3283,
      "eventually": 3284,
      "aid": 3285,
      "riding": 3286,
      "dishes": 3287,
      "True": 3288,
      "shield": 3289,
      "tern": 3290,
      "cauli": 3291,
      "falling": 3292,
      "forward": 3293,
      "Peter": 3294,
      "Ow": 3295,
      "tells": 3296,
      "shut": 3297,
      "marry": 3298,
      "carrying": 3299,
      "lier": 3300,
      "hotel": 3301,
      "succeed": 3302,
      "climbing": 3303,
      "enthusia": 3304,
      "mosquito": 3305,
      "enthusiastic": 3306,
      "ingred": 3307,
      "ingredient": 3308,
      "organize": 3309,
      "Car": 3310,
      "putting": 3311,
      "judge": 3312,
      "wander": 3313,
      "cauliflower": 3314,
      "ticket": 3315,
      "eaten": 3316,
      "screw": 3317,
      "needle": 3318,
      "pole": 3319,
      "spell": 3320,
      "pee": 3321,
      "avail": 3322,
      "object": 3323,
      "hook": 3324,
      "four": 3325,
      "triangle": 3326,
      "tools": 3327,
      "excitement": 3328,
      "available": 3329,
      "comfort": 3330,
      "incl": 3331,
      "rushed": 3332,
      "gorilla": 3333,
      "attic": 3334,
      "puddles": 3335,
      "arian": 3336,
      "keeper": 3337,
      "pilot": 3338,
      "rec": 3339,
      "fresh": 3340,
      "pretending": 3341,
      "sparkly": 3342,
      "napkin": 3343,
      "chasing": 3344,
      "steak": 3345,
      "stones": 3346,
      "hippo": 3347,
      "cob": 3348,
      "kne": 3349,
      "split": 3350,
      "tray": 3351,
      "onion": 3352,
      "earlier": 3353,
      "gaz": 3354,
      "barrel": 3355,
      "friendship": 3356,
      "harder": 3357,
      "insect": 3358,
      "eraser": 3359,
      "peach": 3360,
      "poem": 3361,
      "gging": 3362,
      "boots": 3363,
      "compla": 3364,
      "azz": 3365,
      "spun": 3366,
      "thunder": 3367,
      "hedge": 3368,
      "wife": 3369,
      "vator": 3370,
      "elevator": 3371,
      "mop": 3372,
      "sailor": 3373,
      "cel": 3374,
      "snif": 3375,
      "troph": 3376,
      "fed": 3377,
      "chain": 3378,
      "leash": 3379,
      "club": 3380,
      "drawer": 3381,
      "mild": 3382,
      "football": 3383,
      "useum": 3384,
      "flea": 3385,
      "Nutty": 3386,
      "journ": 3387,
      "deter": 3388,
      "dive": 3389,
      "pattern": 3390,
      "growing": 3391,
      "cushion": 3392,
      "museum": 3393,
      "monkeys": 3394,
      "cries": 3395,
      "grapes": 3396,
      "mint": 3397,
      "ines": 3398,
      "folder": 3399,
      "fee": 3400,
      "ended": 3401,
      "fallen": 3402,
      "ingredients": 3403,
      "essert": 3404,
      "hanging": 3405,
      "indeer": 3406,
      "celery": 3407,
      "dessert": 3408,
      "nature": 3409,
      "offee": 3410,
      "patch": 3411,
      "strich": 3412,
      "Many": 3413,
      "journal": 3414,
      "zebra": 3415,
      "hears": 3416,
      "trophy": 3417,
      "suppl": 3418,
      "walls": 3419,
      "hats": 3420,
      "rubber": 3421,
      "glove": 3422,
      "itself": 3423,
      "coal": 3424,
      "surprises": 3425,
      "size": 3426,
      "cupboard": 3427,
      "zi": 3428,
      "either": 3429,
      "baseball": 3430,
      "chess": 3431,
      "reindeer": 3432,
      "zzy": 3433,
      "yoga": 3434,
      "wire": 3435,
      "video": 3436,
      "raced": 3437,
      "une": 3438,
      "fac": 3439,
      "metal": 3440,
      "mule": 3441,
      "shouldn": 3442,
      "repe": 3443,
      "herb": 3444,
      "baking": 3445,
      "pun": 3446,
      "cli": 3447,
      "salt": 3448,
      "biggest": 3449,
      "factory": 3450,
      "Jake": 3451,
      "armchair": 3452,
      "spir": 3453,
      "strawberry": 3454,
      "louder": 3455,
      "fu": 3456,
      "squirrels": 3457,
      "rhin": 3458,
      "coffee": 3459,
      "shows": 3460,
      "actu": 3461,
      "actually": 3462,
      "comm": 3463,
      "golf": 3464,
      "skipped": 3465,
      "ocer": 3466,
      "skirt": 3467,
      "counting": 3468,
      "oyster": 3469,
      "washer": 3470,
      "Miss": 3471,
      "snugg": 3472,
      "iron": 3473,
      "agree": 3474,
      "fis": 3475,
      "blueberries": 3476,
      "popped": 3477,
      "cudd": 3478,
      "por": 3479,
      "ley": 3480,
      "groc": 3481,
      "soc": 3482,
      "frame": 3483,
      "musician": 3484,
      "oceros": 3485,
      "struc": 3486,
      "Qu": 3487,
      "Grandpa": 3488,
      "impressed": 3489,
      "tress": 3490,
      "urch": 3491,
      "soccer": 3492,
      "chan": 3493,
      "lives": 3494,
      "magaz": 3495,
      "boo": 3496,
      "drop": 3497,
      "rema": 3498,
      "resist": 3499,
      "au": 3500,
      "dishwasher": 3501,
      "avocado": 3502,
      "memor": 3503,
      "math": 3504,
      "ations": 3505,
      "adm": 3506,
      "Ouch": 3507,
      "kissed": 3508,
      "stumbled": 3509,
      "church": 3510,
      "vend": 3511,
      "trem": 3512,
      "makeup": 3513,
      "lotion": 3514,
      "checked": 3515,
      "battery": 3516,
      "decide": 3517,
      "glowing": 3518,
      "leton": 3519,
      "keleton": 3520,
      "microphone": 3521,
      "maze": 3522,
      "poke": 3523,
      "fireman": 3524,
      "sight": 3525,
      "loop": 3526,
      "handle": 3527,
      "airport": 3528,
      "hurry": 3529,
      "skull": 3530,
      "film": 3531,
      "freez": 3532,
      "discovered": 3533,
      "rhinoceros": 3534,
      "sunglasses": 3535,
      "ased": 3536,
      "quit": 3537,
      "wool": 3538,
      "imagine": 3539,
      "mattress": 3540,
      "grand": 3541,
      "sounded": 3542,
      "radish": 3543,
      "ostrich": 3544,
      "complete": 3545,
      "vendor": 3546,
      "skeleton": 3547,
      "stuffed": 3548,
      "spirit": 3549,
      "gn": 3550,
      "ucet": 3551,
      "igloo": 3552,
      "kayak": 3553,
      "chim": 3554,
      "chimney": 3555,
      "aper": 3556,
      "faucet": 3557,
      "powder": 3558,
      "noon": 3559,
      "nods": 3560,
      "pas": 3561,
      "fisher": 3562,
      "imagin": 3563,
      "crawling": 3564,
      "aged": 3565,
      "cooler": 3566,
      "cobweb": 3567,
      "sandcastle": 3568,
      "excitedly": 3569,
      "buttons": 3570,
      "scope": 3571,
      "chanic": 3572,
      "towers": 3573,
      "spotted": 3574,
      "medal": 3575,
      "angar": 3576,
      "mixer": 3577,
      "zipper": 3578,
      "bury": 3579,
      "umbers": 3580,
      "Un": 3581,
      "pointing": 3582,
      "iling": 3583,
      "chor": 3584,
      "fixing": 3585,
      "fireplace": 3586,
      "edy": 3587,
      "lter": 3588,
      "lightning": 3589,
      "burn": 3590,
      "newsp": 3591,
      "anda": 3592,
      "shelter": 3593,
      "telephone": 3594,
      "homes": 3595,
      "kangar": 3596,
      "arry": 3597,
      "mechanic": 3598,
      "ext": 3599,
      "reco": 3600,
      "hock": 3601,
      "unpack": 3602,
      "against": 3603,
      "planes": 3604,
      "reef": 3605,
      "Spike": 3606,
      "sisted": 3607,
      "goal": 3608,
      "tap": 3609,
      "fisherman": 3610,
      "managed": 3611,
      "sub": 3612,
      "veil": 3613,
      "hockey": 3614,
      "Next": 3615,
      "laser": 3616,
      "Is": 3617,
      "refused": 3618,
      "recogn": 3619,
      "root": 3620,
      "cardboard": 3621,
      "microscope": 3622,
      "mas": 3623,
      "weather": 3624,
      "tear": 3625,
      "missile": 3626,
      "hall": 3627,
      "switch": 3628,
      "anchor": 3629,
      "cable": 3630,
      "mined": 3631,
      "temple": 3632,
      "weep": 3633,
      "keeping": 3634,
      "determined": 3635,
      "swung": 3636,
      "shrink": 3637,
      "weigh": 3638,
      "slides": 3639,
      "hoping": 3640,
      "prune": 3641,
      "Ro": 3642,
      "Sunny": 3643,
      "opera": 3644,
      "accidents": 3645,
      "tion": 3646,
      "pine": 3647,
      "numbers": 3648,
      "wishes": 3649,
      "cheer": 3650,
      "htray": 3651,
      "tornado": 3652,
      "sne": 3653,
      "bears": 3654,
      "porch": 3655,
      "sla": 3656,
      "axe": 3657,
      "Bye": 3658,
      "sity": 3659,
      "Yay": 3660,
      "wipe": 3661,
      "admired": 3662,
      "passport": 3663,
      "fog": 3664,
      "sunset": 3665,
      "jokes": 3666,
      "ival": 3667,
      "rained": 3668,
      "gling": 3669,
      "bathe": 3670,
      "melt": 3671,
      "blackboard": 3672,
      "planned": 3673,
      "staff": 3674,
      "blouse": 3675,
      "circles": 3676,
      "auto": 3677,
      "Mummy": 3678,
      "Poppy": 3679,
      "grill": 3680,
      "kangaroo": 3681,
      "short": 3682,
      "bookshelf": 3683,
      "ilet": 3684,
      "ashtray": 3685,
      "rolling": 3686,
      "bookcase": 3687,
      "inking": 3688,
      "gym": 3689,
      "edge": 3690,
      "erc": 3691,
      "jewelry": 3692,
      "lend": 3693,
      "mob": 3694,
      "tol": 3695,
      "toilet": 3696,
      "ately": 3697,
      "spear": 3698,
      "dancer": 3699,
      "winter": 3700,
      "ience": 3701,
      "peeked": 3702,
      "castles": 3703,
      "istol": 3704,
      "poo": 3705,
      "essie": 3706,
      "freezer": 3707,
      "improve": 3708,
      "automob": 3709,
      "fastest": 3710,
      "miner": 3711,
      "backpack": 3712,
      "cabinet": 3713,
      "Pa": 3714,
      "magazine": 3715,
      "oil": 3716,
      "shrug": 3717,
      "palace": 3718,
      "discover": 3719,
      "sneeze": 3720,
      "exerc": 3721,
      "zor": 3722,
      "soil": 3723,
      "picks": 3724,
      "newspaper": 3725,
      "twis": 3726,
      "ense": 3727,
      "pistol": 3728,
      "bill": 3729,
      "tutor": 3730,
      "cherries": 3731,
      "aced": 3732,
      "silver": 3733,
      "strugg": 3734,
      "creek": 3735,
      "father": 3736,
      "separate": 3737,
      "shocked": 3738,
      "flame": 3739,
      "meeting": 3740,
      "vision": 3741,
      "explain": 3742,
      "sham": 3743,
      "subway": 3744,
      "wigg": 3745,
      "painter": 3746,
      "shampoo": 3747,
      "spoke": 3748,
      "disappear": 3749,
      "beef": 3750,
      "ceiling": 3751,
      "five": 3752,
      "wardrobe": 3753,
      "cards": 3754,
      "theater": 3755,
      "whist": 3756,
      "sadly": 3757,
      "suff": 3758,
      "complain": 3759,
      "Spark": 3760,
      "Sus": 3761,
      "panda": 3762,
      "Carl": 3763,
      "Pandy": 3764,
      "television": 3765,
      "marble": 3766,
      "imagined": 3767,
      "uage": 3768,
      "anguage": 3769,
      "disturb": 3770,
      "bathrobe": 3771,
      "fro": 3772,
      "language": 3773,
      "Frog": 3774,
      "ribb": 3775,
      "fingers": 3776,
      "Ho": 3777,
      "display": 3778,
      "hic": 3779,
      "stirred": 3780,
      "novel": 3781,
      "mustache": 3782,
      "drain": 3783,
      "rake": 3784,
      "taller": 3785,
      "shower": 3786,
      "vehic": 3787,
      "meowed": 3788,
      "Pipp": 3789,
      "delay": 3790,
      "fest": 3791,
      "These": 3792,
      "neat": 3793,
      "perfume": 3794,
      "swamp": 3795,
      "choice": 3796,
      "pastry": 3797,
      "cell": 3798,
      "dear": 3799,
      "steps": 3800,
      "Pip": 3801,
      "oak": 3802,
      "saving": 3803,
      "attach": 3804,
      "Floppy": 3805,
      "reverse": 3806,
      "washing": 3807,
      "Sque": 3808,
      "task": 3809,
      "birdcage": 3810,
      "happier": 3811,
      "letting": 3812,
      "allowed": 3813,
      "festival": 3814,
      "sym": 3815,
      "snuggled": 3816,
      "hut": 3817,
      "terin": 3818,
      "fuel": 3819,
      "asis": 3820,
      "warning": 3821,
      "trail": 3822,
      "terinarian": 3823,
      "chance": 3824,
      "iction": 3825,
      "veterinarian": 3826,
      "knows": 3827,
      "lawy": 3828,
      "yield": 3829,
      "shaking": 3830,
      "starting": 3831,
      "hanger": 3832,
      "ictionary": 3833,
      "oasis": 3834,
      "invite": 3835,
      "automobile": 3836,
      "reve": 3837,
      "cuss": 3838,
      "bol": 3839,
      "meas": 3840,
      "prepare": 3841,
      "introd": 3842,
      "trains": 3843,
      "raining": 3844,
      "lemonade": 3845,
      "symbol": 3846,
      "problems": 3847,
      "offic": 3848,
      "reveal": 3849,
      "fishing": 3850,
      "struggling": 3851,
      "discuss": 3852,
      "nobody": 3853,
      "float": 3854,
      "regret": 3855,
      "uckily": 3856,
      "recomm": 3857,
      "lawn": 3858,
      "calend": 3859,
      "Joey": 3860,
      "classroom": 3861,
      "human": 3862,
      "Dan": 3863,
      "cups": 3864,
      "friger": 3865,
      "frigerator": 3866,
      "socks": 3867,
      "Eventually": 3868,
      "refrigerator": 3869,
      "sty": 3870,
      "easily": 3871,
      "chickens": 3872,
      "danger": 3873,
      "strawberries": 3874,
      "razor": 3875,
      "airplane": 3876,
      "insisted": 3877,
      "ured": 3878,
      "dictionary": 3879,
      "lawyer": 3880,
      "uniform": 3881,
      "appla": 3882,
      "calendar": 3883,
      "lumber": 3884,
      "Wa": 3885,
      "mitten": 3886,
      "enter": 3887,
      "marched": 3888,
      "crib": 3889,
      "visited": 3890,
      "People": 3891,
      "Dolly": 3892,
      "buried": 3893,
      "sandbox": 3894,
      "breathe": 3895,
      "lions": 3896,
      "belongs": 3897,
      "cliff": 3898,
      "remove": 3899,
      "replace": 3900,
      "creatures": 3901,
      "nit": 3902,
      "niture": 3903,
      "Sad": 3904,
      "trade": 3905,
      "handed": 3906,
      "billboard": 3907,
      "lab": 3908,
      "supply": 3909,
      "lic": 3910,
      "furniture": 3911,
      "searching": 3912,
      "stickers": 3913,
      "Before": 3914,
      "trusted": 3915,
      "cted": 3916,
      "counter": 3917,
      "tease": 3918,
      "Lo": 3919,
      "alarm": 3920,
      "letters": 3921,
      "Co": 3922,
      "dar": 3923,
      "content": 3924,
      "surre": 3925,
      "nce": 3926,
      "prevent": 3927,
      "dresses": 3928,
      "file": 3929,
      "pinch": 3930,
      "roared": 3931,
      "Wait": 3932,
      "waste": 3933,
      "windows": 3934,
      "pressed": 3935,
      "stared": 3936,
      "during": 3937,
      "panic": 3938,
      "bet": 3939,
      "hood": 3940,
      "blowing": 3941,
      "collection": 3942,
      "holes": 3943,
      "aches": 3944,
      "knob": 3945,
      "junk": 3946,
      "quiz": 3947,
      "apr": 3948,
      "ignore": 3949,
      "patiently": 3950,
      "sneezed": 3951,
      "surf": 3952,
      "poon": 3953,
      "player": 3954,
      "Bessie": 3955,
      "tuna": 3956,
      "applaud": 3957,
      "bits": 3958,
      "Rob": 3959,
      "rail": 3960,
      "whip": 3961,
      "snap": 3962,
      "country": 3963,
      "bove": 3964,
      "perfectly": 3965,
      "papers": 3966,
      "pastel": 3967,
      "difference": 3968,
      "ween": 3969,
      "ire": 3970,
      "given": 3971,
      "above": 3972,
      "request": 3973,
      "ium": 3974,
      "feelings": 3975,
      "stretched": 3976,
      "ighter": 3977,
      "stable": 3978,
      "sprayed": 3979,
      "iggy": 3980,
      "leaned": 3981,
      "argue": 3982,
      "unite": 3983,
      "accept": 3984,
      "burned": 3985,
      "protec": 3986,
      "hate": 3987,
      "rules": 3988,
      "Birdy": 3989,
      "model": 3990,
      "respons": 3991,
      "bumped": 3992,
      "teaspoon": 3993,
      "cartoon": 3994,
      "baked": 3995,
      "Alice": 3996,
      "seeing": 3997,
      "chose": 3998,
      "scratch": 3999,
      "shoulder": 4000,
      "peek": 4001,
      "mist": 4002,
      "buckle": 4003,
      "wea": 4004,
      "cared": 4005,
      "Sun": 4006,
      "yucky": 4007,
      "Ex": 4008,
      "ricane": 4009,
      "license": 4010,
      "incre": 4011,
      "reci": 4012,
      "happens": 4013,
      "ison": 4014,
      "destroyed": 4015,
      "apron": 4016,
      "gear": 4017,
      "jail": 4018,
      "appreci": 4019,
      "oxy": 4020,
      "Quack": 4021,
      "spr": 4022,
      "bikes": 4023,
      "admi": 4024,
      "Lul": 4025,
      "structure": 4026,
      "weapon": 4027,
      "doors": 4028,
      "throwing": 4029,
      "beg": 4030,
      "poked": 4031,
      "cond": 4032,
      "attent": 4033,
      "inked": 4034,
      "admire": 4035,
      "kneel": 4036,
      "fought": 4037,
      "suffer": 4038,
      "Harry": 4039,
      "tub": 4040,
      "dem": 4041,
      "expec": 4042,
      "eor": 4043,
      "eter": 4044,
      "wine": 4045,
      "Sadly": 4046,
      "adium": 4047,
      "demand": 4048,
      "stadium": 4049,
      "Lulu": 4050,
      "attention": 4051,
      "restore": 4052,
      "cation": 4053,
      "ummer": 4054,
      "ahead": 4055,
      "hurricane": 4056,
      "proudly": 4057,
      "caring": 4058,
      "iest": 4059,
      "falls": 4060,
      "laughs": 4061,
      "Geor": 4062,
      "igi": 4063,
      "digg": 4064,
      "valley": 4065,
      "Luckily": 4066,
      "ranch": 4067,
      "digging": 4068,
      "Susie": 4069,
      "Gigi": 4070,
      "shone": 4071,
      "worth": 4072,
      "perm": 4073,
      "ugga": 4074,
      "vehicle": 4075,
      "pancakes": 4076,
      "news": 4077,
      "rang": 4078,
      "Hop": 4079,
      "rush": 4080,
      "toe": 4081,
      "sof": 4082,
      "lands": 4083,
      "Squeaky": 4084,
      "shrugged": 4085,
      "known": 4086,
      "older": 4087,
      "thumb": 4088,
      "raise": 4089,
      "Because": 4090,
      "mall": 4091,
      "mystery": 4092,
      "blinked": 4093,
      "winning": 4094,
      "summer": 4095,
      "fields": 4096,
      "mineral": 4097,
      "George": 4098,
      "myself": 4099,
      "spade": 4100,
      "Char": 4101,
      "Have": 4102,
      "mm": 4103,
      "inf": 4104,
      "guy": 4105,
      "closely": 4106,
      "quietly": 4107,
      "Mick": 4108,
      "watered": 4109,
      "uggage": 4110,
      "Hoppy": 4111,
      "twirled": 4112,
      "mention": 4113,
      "Tina": 4114,
      "Binky": 4115,
      "flood": 4116,
      "sting": 4117,
      "beep": 4118,
      "vroom": 4119,
      "Pippin": 4120,
      "luggage": 4121,
      "ues": 4122,
      "fetch": 4123,
      "skill": 4124,
      "brothers": 4125,
      "provide": 4126,
      "Remember": 4127,
      "sunrise": 4128,
      "grape": 4129,
      ",”": 4130,
      "comp": 4131,
      "permit": 4132,
      "exercise": 4133,
      "poppy": 4134,
      "matches": 4135,
      "mission": 4136,
      "enny": 4137,
      "oats": 4138,
      "freeze": 4139,
      "officer": 4140,
      "squeeze": 4141,
      "repeat": 4142,
      "label": 4143,
      "cartoons": 4144,
      "zag": 4145,
      "Mar": 4146,
      "marbles": 4147,
      "peanuts": 4148,
      "?\".": 4149,
      "plastic": 4150,
      "hurting": 4151,
      "Exc": 4152,
      "Mickey": 4153,
      "evening": 4154,
      "rabbits": 4155,
      "splashing": 4156,
      "claw": 4157,
      "ina": 4158,
      "invest": 4159,
      "Betty": 4160,
      "chamber": 4161,
      "Buzzy": 4162,
      "expect": 4163,
      "investig": 4164,
      "rested": 4165,
      "ase": 4166,
      "igzag": 4167,
      "quake": 4168,
      "cus": 4169,
      "encouraged": 4170,
      "vacation": 4171,
      "zoomed": 4172,
      "afternoon": 4173,
      "harbor": 4174,
      "sniffed": 4175,
      "investigate": 4176,
      "kinds": 4177,
      "gers": 4178,
      "poison": 4179,
      "earthquake": 4180,
      "horses": 4181,
      "pages": 4182,
      "surrender": 4183,
      "lest": 4184,
      "mometer": 4185,
      "steam": 4186,
      "holid": 4187,
      "beauty": 4188,
      "holiday": 4189,
      "ups": 4190,
      "squeezed": 4191,
      "slipper": 4192,
      "fireworks": 4193,
      "oped": 4194,
      "leak": 4195,
      "menu": 4196,
      "shivering": 4197,
      "slippery": 4198,
      "Ru": 4199,
      "placed": 4200,
      "ribbon": 4201,
      "sparkled": 4202,
      "aked": 4203,
      "icorn": 4204,
      "unicorn": 4205,
      "tip": 4206,
      "muscle": 4207,
      "Toby": 4208,
      "Wel": 4209,
      "ement": 4210,
      "captain": 4211,
      "Welcome": 4212,
      "ason": 4213,
      "chir": 4214,
      "beans": 4215,
      "daisy": 4216,
      "bling": 4217,
      "chirped": 4218,
      "thermometer": 4219,
      "sailing": 4220,
      "examine": 4221,
      "rooms": 4222,
      "believed": 4223,
      "Kim": 4224,
      "tour": 4225,
      "shovel": 4226,
      "Zip": 4227,
      "Johnson": 4228,
      "names": 4229,
      "Pinky": 4230,
      "sorts": 4231,
      "brain": 4232,
      "served": 4233,
      "acorns": 4234,
      "infant": 4235,
      "score": 4236,
      "vy": 4237,
      "ener": 4238,
      "treasures": 4239,
      "flavor": 4240,
      "recei": 4241,
      "waving": 4242,
      "spending": 4243,
      "atched": 4244,
      "event": 4245,
      "ris": 4246,
      "paid": 4247,
      "imagination": 4248,
      "frogs": 4249,
      "proper": 4250,
      "invit": 4251,
      "universe": 4252,
      "Boun": 4253,
      "wre": 4254,
      "copper": 4255,
      "tug": 4256,
      "massage": 4257,
      "poss": 4258,
      "settle": 4259,
      "uture": 4260,
      "upstairs": 4261,
      "future": 4262,
      "oranges": 4263,
      "Hoot": 4264,
      "flapped": 4265,
      "brick": 4266,
      "Charlie": 4267,
      "tremble": 4268,
      "Sn": 4269,
      "crow": 4270,
      "realised": 4271,
      "offer": 4272,
      "following": 4273,
      "selling": 4274,
      "wed": 4275,
      "equ": 4276,
      "opens": 4277,
      "safet": 4278,
      "safety": 4279,
      "chairs": 4280,
      "rhy": 4281,
      "yawned": 4282,
      "pup": 4283,
      "sprink": 4284,
      "tore": 4285,
      "Whe": 4286,
      "explored": 4287,
      "scold": 4288,
      "prayed": 4289,
      "safar": 4290,
      "planted": 4291,
      "shot": 4292,
      "Finn": 4293,
      "plates": 4294,
      "ffic": 4295,
      "received": 4296,
      "respectful": 4297,
      "ik": 4298,
      "oper": 4299,
      "pushing": 4300,
      "sticker": 4301,
      "versity": 4302,
      "pigs": 4303,
      "neighborhood": 4304,
      "thm": 4305,
      "stops": 4306,
      "holds": 4307,
      "university": 4308,
      "urge": 4309,
      "icing": 4310,
      "bricks": 4311,
      "receive": 4312,
      "Bluey": 4313,
      "apart": 4314,
      "sticky": 4315,
      "observe": 4316,
      "exper": 4317,
      "oking": 4318,
      "claws": 4319,
      "Day": 4320,
      "writing": 4321,
      "cherry": 4322,
      "uggles": 4323,
      "gasped": 4324,
      "ib": 4325,
      "ordered": 4326,
      "safari": 4327,
      "somewhere": 4328,
      "stomach": 4329,
      "Everywhere": 4330,
      "inch": 4331,
      "crashed": 4332,
      "minute": 4333,
      "twisted": 4334,
      "possible": 4335,
      "Snuggles": 4336,
      "navy": 4337,
      "buzz": 4338,
      "However": 4339,
      "worse": 4340,
      "ignored": 4341,
      "rhythm": 4342,
      "punish": 4343,
      "thanks": 4344,
      "Mmm": 4345,
      "alive": 4346,
      "bother": 4347,
      "vanished": 4348,
      "slip": 4349,
      "Always": 4350,
      "dressed": 4351,
      "drinking": 4352,
      "aking": 4353,
      "candles": 4354,
      "between": 4355,
      "jazz": 4356,
      "shooting": 4357,
      "oh": 4358,
      "scattered": 4359,
      "catching": 4360,
      "streng": 4361,
      "bouncing": 4362,
      "dare": 4363,
      "grocery": 4364,
      "palm": 4365,
      "solved": 4366,
      "strength": 4367,
      "bak": 4368,
      "Sha": 4369,
      "colour": 4370,
      "Dave": 4371,
      "mummy": 4372,
      "cutting": 4373,
      "Lucky": 4374,
      "luck": 4375,
      "energy": 4376,
      "smells": 4377,
      "chip": 4378,
      "Lilly": 4379,
      "weight": 4380,
      "includ": 4381,
      "traffic": 4382,
      "soak": 4383,
      "chirp": 4384,
      "Big": 4385,
      "growl": 4386,
      "crash": 4387,
      "include": 4388,
      "forgotten": 4389,
      "nes": 4390,
      "ghter": 4391,
      "brighter": 4392,
      "crossed": 4393,
      "sofa": 4394,
      "printer": 4395,
      "spots": 4396,
      "ince": 4397,
      "responsible": 4398,
      "teaching": 4399,
      "kingdom": 4400,
      "jewels": 4401,
      "parts": 4402,
      "steel": 4403,
      "remain": 4404,
      "waffles": 4405,
      "skills": 4406,
      "Mandy": 4407,
      "ipment": 4408,
      "Not": 4409,
      "clapping": 4410,
      "nation": 4411,
      "history": 4412,
      "equipment": 4413,
      "image": 4414,
      "lip": 4415,
      "tide": 4416,
      "trapped": 4417,
      "presents": 4418,
      "hers": 4419,
      "lemons": 4420,
      "Goodbye": 4421,
      "Froggy": 4422,
      "release": 4423,
      "Or": 4424,
      "nightma": 4425,
      "ding": 4426,
      "frowned": 4427,
      "perfor": 4428,
      "appreciate": 4429,
      "During": 4430,
      "married": 4431,
      "sters": 4432,
      "!\".": 4433,
      "strangers": 4434,
      "wagging": 4435,
      "giggle": 4436,
      "jumps": 4437,
      "chewed": 4438,
      "brightly": 4439,
      "bouncy": 4440,
      "chore": 4441,
      "Days": 4442,
      "collected": 4443,
      "worms": 4444,
      "operation": 4445,
      "tonight": 4446,
      "folded": 4447,
      "pirates": 4448,
      "recommend": 4449,
      "prepar": 4450,
      "second": 4451,
      "dared": 4452,
      "Chick": 4453,
      "Spe": 4454,
      "fortun": 4455,
      "potatoes": 4456,
      "wandered": 4457,
      "leather": 4458,
      "Happ": 4459,
      "lec": 4460,
      "burrow": 4461,
      "sidewalk": 4462,
      "Jazz": 4463,
      "lecture": 4464,
      "sip": 4465,
      "Pat": 4466,
      "entered": 4467,
      "yawn": 4468,
      "marching": 4469,
      "stra": 4470,
      "breaks": 4471,
      "chores": 4472,
      "oph": 4473,
      "deeper": 4474,
      "circus": 4475,
      "utter": 4476,
      "ady": 4477,
      "mailman": 4478,
      "Happy": 4479,
      "racing": 4480,
      "Soph": 4481,
      "strip": 4482,
      "jogging": 4483,
      "pitch": 4484,
      "begged": 4485,
      "softly": 4486,
      "growled": 4487,
      "tomatoes": 4488,
      "pleased": 4489,
      "omed": 4490,
      "jogged": 4491,
      "blueberry": 4492,
      "petted": 4493,
      "puzzles": 4494,
      "slice": 4495,
      "Bow": 4496,
      "network": 4497,
      "ali": 4498,
      "floating": 4499,
      "underground": 4500,
      "spaceship": 4501,
      "Coco": 4502,
      "fortunately": 4503,
      "heat": 4504,
      "wisdom": 4505,
      "encourage": 4506,
      "starts": 4507,
      "cheek": 4508,
      "rescu": 4509,
      "nies": 4510,
      "tracks": 4511,
      "Gre": 4512,
      "emer": 4513,
      "price": 4514,
      "measured": 4515,
      "moves": 4516,
      "iki": 4517,
      "budge": 4518,
      "increase": 4519,
      "Wo": 4520,
      "mice": 4521,
      "bent": 4522,
      "memory": 4523,
      "seag": 4524,
      "lick": 4525,
      "seagull": 4526,
      "iers": 4527,
      "vour": 4528,
      "quack": 4529,
      "manage": 4530,
      "invitation": 4531,
      "oxygen": 4532,
      "heel": 4533,
      "stole": 4534,
      "scolded": 4535,
      "elephants": 4536,
      "memories": 4537,
      "pulling": 4538,
      "fighter": 4539,
      "Bill": 4540,
      "kitty": 4541,
      "spill": 4542,
      "Wed": 4543,
      "Wednes": 4544,
      "appro": 4545,
      "spike": 4546,
      "heads": 4547,
      "easier": 4548,
      "Mil": 4549,
      "rect": 4550,
      "hadn": 4551,
      "velvet": 4552,
      "soldiers": 4553,
      "straight": 4554,
      "zigzag": 4555,
      "raised": 4556,
      "introduce": 4557,
      "bones": 4558,
      "Lee": 4559,
      "Yum": 4560,
      "Owl": 4561,
      "anytime": 4562,
      "petals": 4563,
      "swo": 4564,
      "omeday": 4565,
      "finds": 4566,
      "Yuck": 4567,
      "mentioned": 4568,
      "choo": 4569,
      "Kiki": 4570,
      "blankets": 4571,
      "bend": 4572,
      "Speedy": 4573,
      "wreck": 4574,
      "sterday": 4575,
      "mot": 4576,
      "gloves": 4577,
      "pedal": 4578,
      "ix": 4579,
      "someday": 4580,
      "permission": 4581,
      "Sunday": 4582,
      "weeks": 4583,
      "dried": 4584,
      "hoo": 4585,
      "muffins": 4586,
      "lex": 4587,
      "..": 4588,
      "unhappy": 4589,
      "breaking": 4590,
      "favour": 4591,
      "Sparky": 4592,
      "recognize": 4593,
      "unlocked": 4594,
      "ucked": 4595,
      "disagreed": 4596,
      "Olive": 4597,
      "pted": 4598,
      "isn": 4599,
      "ourselves": 4600,
      "firefighter": 4601,
      "printed": 4602,
      "shouting": 4603,
      "Under": 4604,
      "lu": 4605,
      "below": 4606,
      "collecting": 4607,
      "Tues": 4608,
      "shouts": 4609,
      "Ready": 4610,
      "hi": 4611,
      "doctors": 4612,
      "favourite": 4613,
      "Grace": 4614,
      "landscape": 4615,
      "Ke": 4616,
      "wink": 4617,
      "solut": 4618,
      "sir": 4619,
      "toes": 4620,
      "ipping": 4621,
      "Boo": 4622,
      "died": 4623,
      "ides": 4624,
      "Lola": 4625,
      "greedy": 4626,
      "succeeded": 4627,
      "strike": 4628,
      "Ba": 4629,
      "reeze": 4630,
      "rust": 4631,
      "beha": 4632,
      "hills": 4633,
      "foods": 4634,
      "ashion": 4635,
      "Mike": 4636,
      "remained": 4637,
      "points": 4638,
      "nightmare": 4639,
      "Ye": 4640,
      "llen": 4641,
      "attached": 4642,
      "practicing": 4643,
      "Paul": 4644,
      "muscles": 4645,
      "Follow": 4646,
      "padd": 4647,
      "peaches": 4648,
      "company": 4649,
      "further": 4650,
      "gazed": 4651,
      "style": 4652,
      "punished": 4653,
      "ladybug": 4654,
      "drinks": 4655,
      "fashion": 4656,
      "owned": 4657,
      "comed": 4658,
      "snail": 4659,
      "sigh": 4660,
      "teasing": 4661,
      "grocer": 4662,
      "Wednesday": 4663,
      "courage": 4664,
      "welcomed": 4665,
      "snapped": 4666,
      "grant": 4667,
      "pears": 4668,
      "First": 4669,
      "waist": 4670,
      "struggled": 4671,
      "surround": 4672,
      "Squ": 4673,
      "floated": 4674,
      "guys": 4675,
      "gran": 4676,
      "groceries": 4677,
      "Bug": 4678,
      "sudden": 4679,
      "Sharing": 4680,
      "prunes": 4681,
      "ruin": 4682,
      "whistled": 4683,
      "Finny": 4684,
      "seats": 4685,
      "mama": 4686,
      "Alex": 4687,
      "Uncle": 4688,
      "Dog": 4689,
      "emergen": 4690,
      "urged": 4691,
      "blink": 4692,
      "grabs": 4693,
      "season": 4694,
      "lily": 4695,
      "ishes": 4696,
      "die": 4697,
      "hesit": 4698,
      "west": 4699,
      "Woof": 4700,
      "ents": 4701,
      "Crab": 4702,
      "igned": 4703,
      "coats": 4704,
      "Mo": 4705,
      "Danny": 4706,
      "xu": 4707,
      "properly": 4708,
      "muddy": 4709,
      "exit": 4710,
      "accepted": 4711,
      "Penny": 4712,
      "Fox": 4713,
      "laughter": 4714,
      "zipped": 4715,
      "ighted": 4716,
      "hearts": 4717,
      "simp": 4718,
      "laid": 4719,
      "mittens": 4720,
      "izing": 4721,
      "candies": 4722,
      "situ": 4723,
      "ory": 4724,
      "bing": 4725,
      "ings": 4726,
      "delight": 4727,
      "luxu": 4728,
      "ah": 4729,
      "pies": 4730,
      "God": 4731,
      "ins": 4732,
      "nect": 4733,
      "esca": 4734,
      "lung": 4735,
      "slap": 4736,
      "chewing": 4737,
      "recognized": 4738,
      "pinched": 4739,
      "demanded": 4740,
      "olives": 4741,
      "bey": 4742,
      "shakes": 4743,
      "granted": 4744,
      "delighted": 4745,
      "lap": 4746,
      "paused": 4747,
      "pulls": 4748,
      "protected": 4749,
      "decorations": 4750,
      "setting": 4751,
      "escaped": 4752,
      "struggle": 4753,
      "wiggle": 4754,
      "revealed": 4755,
      "gained": 4756,
      "contest": 4757,
      "Baa": 4758,
      "doggy": 4759,
      "Bee": 4760,
      "mixing": 4761,
      "Zoomy": 4762,
      "bun": 4763,
      "struck": 4764,
      "colourful": 4765,
      "breeze": 4766,
      "ony": 4767,
      "Bounce": 4768,
      "amb": 4769,
      "shoulders": 4770,
      "rides": 4771,
      "Tuesday": 4772,
      "Whenever": 4773,
      "hon": 4774,
      "Keep": 4775,
      "stitch": 4776,
      "Annie": 4777,
      "bank": 4778,
      "osed": 4779,
      "peel": 4780,
      "supposed": 4781,
      "slapped": 4782,
      "barks": 4783,
      "pupil": 4784,
      "Sur": 4785,
      "piggy": 4786,
      "melted": 4787,
      "luxury": 4788,
      "turning": 4789,
      "bringing": 4790,
      "Cl": 4791,
      "Sophie": 4792,
      "Ew": 4793,
      "warn": 4794,
      "emergency": 4795,
      "recor": 4796,
      "pets": 4797,
      "flat": 4798,
      "skipping": 4799,
      "simple": 4800,
      "apologize": 4801,
      "sausages": 4802,
      "olive": 4803,
      "conf": 4804,
      "ideas": 4805,
      "tastes": 4806,
      "umes": 4807,
      "pause": 4808,
      "waiter": 4809,
      "drops": 4810,
      "created": 4811,
      "keys": 4812,
      "spiders": 4813,
      "burning": 4814,
      "golden": 4815,
      "Sk": 4816,
      "Someone": 4817,
      "izes": 4818,
      "scoop": 4819,
      "cuddled": 4820,
      "gued": 4821,
      "shopping": 4822,
      "tongue": 4823,
      "sprinkles": 4824,
      "disagree": 4825,
      "Ruby": 4826,
      "stealing": 4827,
      "Excuse": 4828,
      "brings": 4829,
      "bang": 4830,
      "solution": 4831,
      "vanish": 4832,
      "angled": 4833,
      "opin": 4834,
      "Rab": 4835,
      "pushes": 4836,
      "disturbed": 4837,
      "celebrated": 4838,
      "costumes": 4839,
      "experience": 4840,
      "scaring": 4841,
      "passing": 4842,
      "sliding": 4843,
      "sorting": 4844,
      "prepared": 4845,
      "acted": 4846,
      "eagerly": 4847,
      "united": 4848,
      "aren": 4849,
      "singer": 4850,
      "chirping": 4851,
      "famil": 4852,
      "End": 4853,
      "ging": 4854,
      "vies": 4855,
      "pillows": 4856,
      "Tuna": 4857,
      "joyed": 4858,
      "movies": 4859,
      "aby": 4860,
      "overjoyed": 4861,
      "ethe": 4862,
      "approached": 4863,
      "etheart": 4864,
      "gifts": 4865,
      "decis": 4866,
      "Rabbit": 4867,
      "ago": 4868,
      "rescued": 4869,
      "vic": 4870,
      "bleed": 4871,
      "ringing": 4872,
      "Dory": 4873,
      "shopkeeper": 4874,
      "scratched": 4875,
      "bravely": 4876,
      "stamps": 4877,
      "ripped": 4878,
      "Hen": 4879,
      "Robby": 4880,
      "lly": 4881,
      "Tilly": 4882,
      "monsters": 4883,
      "herbs": 4884,
      "pearl": 4885,
      "radishes": 4886,
      "Rock": 4887,
      "swooped": 4888,
      "hunt": 4889,
      "studied": 4890,
      "gotten": 4891,
      "sett": 4892,
      "winner": 4893,
      "sweetheart": 4894,
      "trol": 4895,
      "frosting": 4896,
      "guessed": 4897,
      "Baby": 4898,
      "crumb": 4899,
      "nails": 4900,
      "riage": 4901,
      "chips": 4902,
      "blo": 4903,
      "alien": 4904,
      "twigs": 4905,
      "east": 4906,
      "mountains": 4907,
      "relaxed": 4908,
      "Mag": 4909,
      "continue": 4910,
      "Ra": 4911,
      "signs": 4912,
      "dinosaurs": 4913,
      "Henry": 4914,
      "Watch": 4915,
      "sandcastles": 4916,
      "control": 4917,
      "studying": 4918,
      "zookeeper": 4919,
      "prints": 4920,
      "touching": 4921,
      "tex": 4922,
      "cupcakes": 4923,
      "camping": 4924,
      "Everything": 4925,
      "Choo": 4926,
      "babies": 4927,
      "result": 4928,
      "wedding": 4929,
      "texture": 4930,
      "Unfortunately": 4931,
      "bloomed": 4932,
      "whistling": 4933,
      "Su": 4934,
      "Surpr": 4935,
      "achie": 4936,
      "neighbors": 4937,
      "none": 4938,
      "Sh": 4939,
      "throws": 4940,
      "nectar": 4941,
      "rul": 4942,
      "victory": 4943,
      "Zara": 4944,
      "beam": 4945,
      "rac": 4946,
      "lollipops": 4947,
      "ising": 4948,
      "sneak": 4949,
      "understanding": 4950,
      "comforted": 4951,
      "Bubba": 4952,
      "realize": 4953,
      "loose": 4954,
      "flap": 4955,
      "brand": 4956,
      "idey": 4957,
      "homework": 4958,
      "videos": 4959,
      "Papa": 4960,
      "Spidey": 4961,
      "Wigg": 4962,
      "quite": 4963,
      "eagle": 4964,
      "settled": 4965,
      "acting": 4966,
      "purred": 4967,
      "sorted": 4968,
      "recorded": 4969,
      "weeping": 4970,
      "bunch": 4971,
      "buzzing": 4972,
      "aff": 4973,
      "San": 4974,
      "matched": 4975,
      "trave": 4976,
      "tucked": 4977,
      "awe": 4978,
      "threat": 4979,
      "Tony": 4980,
      "importance": 4981,
      "marriage": 4982,
      "lined": 4983,
      "paints": 4984,
      "sizes": 4985,
      "plays": 4986,
      "markers": 4987,
      "flutter": 4988,
      "Santa": 4989,
      "compl": 4990,
      "faraway": 4991,
      "decorated": 4992,
      "ented": 4993,
      "calls": 4994,
      "Squirrel": 4995,
      "introduc": 4996,
      "lines": 4997,
      "youth": 4998,
      "ends": 4999,
      "wanting": 5000,
      "zero": 5001,
      "ino": 5002,
      "direct": 5003,
      "allo": 5004,
      "hated": 5005,
      "tune": 5006,
      "weighed": 5007,
      "machines": 5008,
      "pouring": 5009,
      "lips": 5010,
      "ifi": 5011,
      "actions": 5012,
      "sore": 5013,
      "removed": 5014,
      "shined": 5015,
      "headed": 5016,
      "Surprise": 5017,
      "blood": 5018,
      "learnt": 5019,
      "tickle": 5020,
      "Meow": 5021,
      "playtime": 5022,
      "ination": 5023,
      "confli": 5024,
      "melting": 5025,
      "Ste": 5026,
      "neighb": 5027,
      "beat": 5028,
      "Kate": 5029,
      "buildings": 5030,
      "competition": 5031,
      "amazement": 5032,
      "Aunt": 5033,
      "conc": 5034,
      "worker": 5035,
      "dent": 5036,
      "parties": 5037,
      "zing": 5038,
      "izard": 5039,
      "conflict": 5040,
      "expected": 5041,
      "roots": 5042,
      "ranny": 5043,
      "twink": 5044,
      "gie": 5045,
      "weren": 5046,
      "naps": 5047,
      "measuring": 5048,
      "creation": 5049,
      "curtains": 5050,
      "Fifi": 5051,
      "cuddle": 5052,
      "crumbs": 5053,
      "broom": 5054,
      "patterns": 5055,
      "magician": 5056,
      "kisses": 5057,
      "Our": 5058,
      "follows": 5059,
      "organizing": 5060,
      "Out": 5061,
      "kicking": 5062,
      "yelling": 5063,
      "oatmeal": 5064,
      "silence": 5065,
      "bowed": 5066,
      "cones": 5067,
      "admir": 5068,
      "hopes": 5069,
      "guns": 5070,
      "situation": 5071,
      "bunnies": 5072,
      "kneeled": 5073,
      "Po": 5074,
      "stripes": 5075,
      "regretted": 5076,
      "Elly": 5077,
      "Slow": 5078,
      "soaked": 5079,
      "challen": 5080,
      "Maria": 5081,
      "runch": 5082,
      "Pr": 5083,
      "Bon": 5084,
      "staying": 5085,
      "sneaky": 5086,
      "destination": 5087,
      "Granny": 5088,
      "rele": 5089,
      "sew": 5090,
      "healed": 5091,
      "wherever": 5092,
      "Yummy": 5093,
      "sniff": 5094,
      "Quackers": 5095,
      "Che": 5096,
      "staring": 5097,
      "Ha": 5098,
      "argued": 5099,
      "weed": 5100,
      "folding": 5101,
      "stirring": 5102,
      "Millie": 5103,
      "duckling": 5104,
      "seems": 5105,
      "freshed": 5106,
      "refreshed": 5107,
      "soared": 5108,
      "tangled": 5109,
      "uses": 5110,
      "pupp": 5111,
      "agreement": 5112,
      "Really": 5113,
      "brushed": 5114,
      "May": 5115,
      "observed": 5116,
      "treehouse": 5117,
      "James": 5118,
      "rops": 5119,
      "Mor": 5120,
      "arrive": 5121,
      "paintings": 5122,
      "losing": 5123,
      "bites": 5124,
      "Ear": 5125,
      "twisty": 5126,
      "introduced": 5127,
      "ruler": 5128,
      "applauded": 5129,
      "works": 5130,
      "belly": 5131,
      "wizard": 5132,
      "Fri": 5133,
      "wags": 5134,
      "since": 5135,
      "King": 5136,
      "rist": 5137,
      "Christ": 5138,
      "chat": 5139,
      "pastries": 5140,
      "piles": 5141,
      "Each": 5142,
      "nie": 5143,
      "workers": 5144,
      "opinion": 5145,
      "attack": 5146,
      "decision": 5147,
      "Moral": 5148,
      "Wally": 5149,
      "girls": 5150,
      "released": 5151,
      "\",": 5152,
      "Those": 5153,
      "aded": 5154,
      "keeps": 5155,
      "hest": 5156,
      "Bl": 5157,
      "dragons": 5158,
      "Stay": 5159,
      "zen": 5160,
      "shadows": 5161,
      "fears": 5162,
      "itchy": 5163,
      "repeated": 5164,
      "Crabby": 5165,
      "completed": 5166,
      "firefighters": 5167,
      "fy": 5168,
      "Pepper": 5169,
      "tickets": 5170,
      "artist": 5171,
      "reaches": 5172,
      "dentist": 5173,
      "hurried": 5174,
      "bumpy": 5175,
      "Christmas": 5176,
      "spoons": 5177,
      "obey": 5178,
      "Sandy": 5179,
      "thr": 5180,
      "mister": 5181,
      "Fe": 5182,
      "frozen": 5183,
      "Earth": 5184,
      "six": 5185,
      "antly": 5186,
      "crunch": 5187,
      "area": 5188,
      "teased": 5189,
      "bakery": 5190,
      "ppers": 5191,
      "caused": 5192,
      "protecting": 5193,
      "fer": 5194,
      "Woo": 5195,
      "kindly": 5196,
      "medi": 5197,
      "rr": 5198,
      "shock": 5199,
      "answers": 5200,
      "zooming": 5201,
      "Lizzy": 5202,
      "goodnight": 5203,
      "lets": 5204,
      "mediately": 5205,
      "firemen": 5206,
      "chef": 5207,
      "planets": 5208,
      "dama": 5209,
      "bbled": 5210,
      "ancing": 5211,
      "examined": 5212,
      "grin": 5213,
      "beds": 5214,
      "sits": 5215,
      "bedtime": 5216,
      "cin": 5217,
      "baths": 5218,
      "recipe": 5219,
      "moments": 5220,
      "licks": 5221,
      "wallow": 5222,
      "ranger": 5223,
      "highest": 5224,
      "requested": 5225,
      "aster": 5226,
      "exact": 5227,
      "len": 5228,
      "rubbing": 5229,
      "swallow": 5230,
      "pebbles": 5231,
      "motion": 5232,
      "potion": 5233,
      "praised": 5234,
      "glowed": 5235,
      "neighbour": 5236,
      "ford": 5237,
      "Dino": 5238,
      "warmth": 5239,
      "yesterday": 5240,
      "desert": 5241,
      "tiest": 5242,
      "princesses": 5243,
      "jamas": 5244,
      "cough": 5245,
      "wid": 5246,
      "imy": 5247,
      "prettiest": 5248,
      "powers": 5249,
      "achieve": 5250,
      "ots": 5251,
      "talent": 5252,
      "marked": 5253,
      "Wooly": 5254,
      "hitting": 5255,
      "rip": 5256,
      "admiring": 5257,
      "afford": 5258,
      "curled": 5259,
      "pride": 5260,
      "Mon": 5261,
      "Rocky": 5262,
      "marks": 5263,
      "Snowball": 5264,
      "gar": 5265,
      "stom": 5266,
      "bleeding": 5267,
      "ities": 5268,
      "prov": 5269,
      "cracked": 5270,
      "buying": 5271,
      "gathering": 5272,
      "raincoat": 5273,
      "Excited": 5274,
      "stored": 5275,
      "behaved": 5276,
      "gaze": 5277,
      "confident": 5278,
      "Liz": 5279,
      "dd": 5280,
      "pajamas": 5281,
      "parked": 5282,
      "spraying": 5283,
      "secrets": 5284,
      "happiest": 5285,
      "snowball": 5286,
      "uddles": 5287,
      "smal": 5288,
      "promises": 5289,
      "photos": 5290,
      "hits": 5291,
      "wrist": 5292,
      "baker": 5293,
      "smallest": 5294,
      "recommended": 5295,
      "nicer": 5296,
      "bers": 5297,
      "signed": 5298,
      "comfy": 5299,
      "stolen": 5300,
      "sunlight": 5301,
      "tallest": 5302,
      "iren": 5303,
      "concert": 5304,
      "Cla": 5305,
      "siren": 5306,
      "climbs": 5307,
      "mouths": 5308,
      "Wiggly": 5309,
      "Clara": 5310,
      "ef": 5311,
      "bravery": 5312,
      "voices": 5313,
      "Birdie": 5314,
      "challenge": 5315,
      "warnings": 5316,
      "dies": 5317,
      "beside": 5318,
      "included": 5319,
      "sparkles": 5320,
      "vity": 5321,
      "cubes": 5322,
      "guest": 5323,
      "urry": 5324,
      "poems": 5325,
      "fas": 5326,
      "sisters": 5327,
      "librarian": 5328,
      "Bongo": 5329,
      "deser": 5330,
      "Ok": 5331,
      "Its": 5332,
      "trembling": 5333,
      "onions": 5334,
      "beard": 5335,
      "visiting": 5336,
      "Dr": 5337,
      "coloring": 5338,
      "exactly": 5339,
      "bars": 5340,
      "Chicky": 5341,
      "sparkle": 5342,
      "ms": 5343,
      "pedals": 5344,
      "strings": 5345,
      "loaded": 5346,
      "downstairs": 5347,
      "seashell": 5348,
      "loving": 5349,
      "cash": 5350,
      "trips": 5351,
      "mbers": 5352,
      "laying": 5353,
      "Suzy": 5354,
      "Like": 5355,
      "tions": 5356,
      "rusty": 5357,
      "contain": 5358,
      "Star": 5359,
      "choices": 5360,
      "fascin": 5361,
      "grey": 5362,
      "distra": 5363,
      "polished": 5364,
      "tricked": 5365,
      "lied": 5366,
      "indy": 5367,
      "Beep": 5368,
      "Slowly": 5369,
      "Both": 5370,
      "immediately": 5371,
      "health": 5372,
      "including": 5373,
      "traveled": 5374,
      "goals": 5375,
      "slimy": 5376,
      "Hootie": 5377,
      "precious": 5378,
      "Kat": 5379,
      "charac": 5380,
      "pencils": 5381,
      "Great": 5382,
      "character": 5383,
      "packing": 5384,
      "theirs": 5385,
      "dolphins": 5386,
      "affes": 5387,
      "avo": 5388,
      "brushes": 5389,
      "ados": 5390,
      "grandmother": 5391,
      "families": 5392,
      "bby": 5393,
      "shelves": 5394,
      "scra": 5395,
      "giraffes": 5396,
      "Maggie": 5397,
      "napping": 5398,
      "hesitant": 5399,
      "sticking": 5400,
      "ility": 5401,
      "Yeah": 5402,
      "balancing": 5403,
      "Buggy": 5404,
      "members": 5405,
      "knights": 5406,
      "skunk": 5407,
      "polishing": 5408,
      "lored": 5409,
      "matching": 5410,
      "eight": 5411,
      "avocados": 5412,
      "Steve": 5413,
      "poking": 5414,
      "colored": 5415,
      "effort": 5416,
      "Oink": 5417,
      "snowballs": 5418,
      "wooden": 5419,
      "crunchy": 5420,
      "cashier": 5421,
      "woof": 5422,
      "marker": 5423,
      "Uh": 5424,
      "chie": 5425,
      "tablet": 5426,
      "snuck": 5427,
      "scrubbed": 5428,
      "usually": 5429,
      "ks": 5430,
      "becoming": 5431,
      "scooped": 5432,
      "leader": 5433,
      "ornaments": 5434,
      "sides": 5435,
      "cous": 5436,
      "accompl": 5437,
      "delivered": 5438,
      "ads": 5439,
      "boom": 5440,
      "hardly": 5441,
      "Quick": 5442,
      "For": 5443,
      "prayer": 5444,
      "Something": 5445,
      "opening": 5446,
      "snatched": 5447,
      "Friends": 5448,
      "alright": 5449,
      "sequ": 5450,
      "ppa": 5451,
      "uct": 5452,
      "shaped": 5453,
      "safer": 5454,
      "stare": 5455,
      "clowns": 5456,
      "beamed": 5457,
      "tier": 5458,
      "giggling": 5459,
      "ences": 5460,
      "wrapping": 5461,
      "fever": 5462,
      "talented": 5463,
      "pockets": 5464,
      "soaring": 5465,
      "Fl": 5466,
      "curly": 5467,
      "pastels": 5468,
      "ware": 5469,
      "consequ": 5470,
      "dollhouse": 5471,
      "strum": 5472,
      "surrounded": 5473,
      "batteries": 5474,
      "rainbows": 5475,
      "instruc": 5476,
      "iggie": 5477,
      "growling": 5478,
      "fairies": 5479,
      "knelt": 5480,
      "hugging": 5481,
      "crabs": 5482,
      "praying": 5483,
      "conv": 5484,
      "replaced": 5485,
      "consequences": 5486,
      "tles": 5487,
      "chop": 5488,
      "raind": 5489,
      "temper": 5490,
      "cot": 5491,
      "scor": 5492,
      "ishy": 5493,
      "disco": 5494,
      "Moo": 5495,
      "Peppa": 5496,
      "heartbroken": 5497,
      "Water": 5498,
      "dusty": 5499,
      "Dav": 5500,
      "smar": 5501,
      "watches": 5502,
      "complet": 5503,
      "fascinated": 5504,
      "screaming": 5505,
      "blocking": 5506,
      "Put": 5507,
      "fault": 5508,
      "fied": 5509,
      "poin": 5510,
      "Toto": 5511,
      "screams": 5512,
      "Hold": 5513,
      "anced": 5514,
      "Being": 5515,
      "paying": 5516,
      "Hope": 5517,
      "Thom": 5518,
      "wiggled": 5519,
      "discovery": 5520,
      "colours": 5521,
      "snakes": 5522,
      "towels": 5523,
      "perched": 5524,
      "instructions": 5525,
      "limes": 5526,
      "grat": 5527,
      "least": 5528,
      "insects": 5529,
      "Ziggy": 5530,
      "itches": 5531,
      "BunBun": 5532,
      "wondering": 5533,
      "avoid": 5534,
      "Je": 5535,
      "thorn": 5536,
      "seesaw": 5537,
      "bage": 5538,
      "darker": 5539,
      "project": 5540,
      "bridges": 5541,
      "stretching": 5542,
      "ners": 5543,
      "bodies": 5544,
      "!\",": 5545,
      "blooming": 5546,
      "Thomas": 5547,
      "Foxy": 5548,
      "overcome": 5549,
      "tuce": 5550,
      "mane": 5551,
      "lettuce": 5552,
      "David": 5553,
      "Milly": 5554,
      "ids": 5555,
      "Prin": 5556,
      "neath": 5557,
      "wandering": 5558,
      "reply": 5559,
      "shirts": 5560,
      "horns": 5561,
      "garbage": 5562,
      "crackers": 5563,
      "temperature": 5564,
      "Achoo": 5565,
      "improved": 5566,
      "heroes": 5567,
      "adult": 5568,
      "remembering": 5569,
      "whatever": 5570,
      "Chickie": 5571,
      "isten": 5572,
      "En": 5573,
      "isies": 5574,
      "steep": 5575,
      "Listen": 5576,
      "tigers": 5577,
      "guing": 5578,
      "sparkling": 5579,
      "Green": 5580,
      "tim": 5581,
      "seashells": 5582,
      "Get": 5583,
      "Mouse": 5584,
      "daisies": 5585,
      "surface": 5586,
      "pots": 5587,
      "Zoe": 5588,
      "complained": 5589,
      "orted": 5590,
      "patience": 5591,
      "Goodnight": 5592,
      "Ray": 5593,
      "Rac": 5594,
      "smiley": 5595,
      "quacked": 5596,
      "Time": 5597,
      "mushrooms": 5598,
      "waits": 5599,
      "sadness": 5600,
      "defe": 5601,
      "decorating": 5602,
      "arguing": 5603,
      "clearing": 5604,
      "Princess": 5605,
      "sale": 5606,
      "Any": 5607,
      "bottles": 5608,
      "beehive": 5609,
      "toss": 5610,
      "caut": 5611,
      "filling": 5612,
      "ref": 5613,
      "sweets": 5614,
      "penguins": 5615,
      "dipped": 5616,
      "matters": 5617,
      "ribbons": 5618,
      "!'": 5619,
      "uctantly": 5620,
      "raindrops": 5621,
      "fits": 5622,
      "ais": 5623,
      "eats": 5624,
      "watering": 5625,
      "pumpkins": 5626,
      "snowmen": 5627,
      "inviting": 5628,
      "drums": 5629,
      "creating": 5630,
      "scales": 5631,
      "quarreling": 5632,
      "recording": 5633,
      "thrilled": 5634,
      "Afterwards": 5635,
      "Frank": 5636,
      "writ": 5637,
      "leaning": 5638,
      "flown": 5639,
      "sled": 5640,
      "Nan": 5641,
      "diving": 5642,
      "peppers": 5643,
      "dads": 5644,
      "delivering": 5645,
      "oline": 5646,
      "Flop": 5647,
      "adding": 5648,
      "char": 5649,
      "separated": 5650,
      "Nice": 5651,
      "aut": 5652,
      "awake": 5653,
      "helpers": 5654,
      "Yesterday": 5655,
      "Lion": 5656,
      "atty": 5657,
      "suffering": 5658,
      "rocked": 5659,
      "scored": 5660,
      "Bad": 5661,
      "mints": 5662,
      "lamb": 5663,
      "prettier": 5664,
      "reluctantly": 5665,
      "reminder": 5666,
      "roses": 5667,
      "osity": 5668,
      "stung": 5669,
      "stem": 5670,
      "tugged": 5671,
      "responsib": 5672,
      "itely": 5673,
      "glitter": 5674,
      "finishing": 5675,
      "swept": 5676,
      "sewed": 5677,
      "swallowed": 5678,
      "forgetting": 5679,
      "Joy": 5680,
      "Behind": 5681,
      "Silly": 5682,
      "ambi": 5683,
      "Bambi": 5684,
      "eling": 5685,
      "sings": 5686,
      "flavors": 5687,
      "picnics": 5688,
      "Rachel": 5689,
      "Twink": 5690,
      "aud": 5691,
      "underneath": 5692,
      "meals": 5693,
      "cuddly": 5694,
      "mischie": 5695,
      "Sky": 5696,
      "beads": 5697,
      "firefly": 5698,
      "performed": 5699,
      "balanced": 5700,
      "cheering": 5701,
      "sneaked": 5702,
      "sports": 5703,
      "logs": 5704,
      "sal": 5705,
      "flames": 5706,
      "Flopsy": 5707,
      "remembers": 5708,
      "roaring": 5709,
      "ippy": 5710,
      "sway": 5711,
      "wound": 5712,
      "thro": 5713,
      "ops": 5714,
      "throat": 5715,
      "peeking": 5716,
      "wonders": 5717,
      "crossing": 5718,
      "Bouncy": 5719,
      "wadd": 5720,
      "provided": 5721,
      "fabri": 5722,
      "dreamt": 5723,
      "fabric": 5724,
      "By": 5725,
      "bare": 5726,
      "ky": 5727,
      "shivered": 5728,
      "explorer": 5729,
      "paddled": 5730,
      "villag": 5731,
      "insist": 5732,
      "Katie": 5733,
      "Feeling": 5734,
      "Spr": 5735,
      "cousin": 5736,
      "hissed": 5737,
      "surroundings": 5738,
      "gears": 5739,
      "acti": 5740,
      "ction": 5741,
      "genie": 5742,
      "crowd": 5743,
      "Hallo": 5744,
      "complaining": 5745,
      "Ju": 5746,
      "stumble": 5747,
      "Leave": 5748,
      "Halloween": 5749,
      "third": 5750,
      "marsh": 5751,
      "imagining": 5752,
      "indeed": 5753,
      "audience": 5754,
      "mallow": 5755,
      "ron": 5756,
      "valued": 5757,
      "curiosity": 5758,
      "youn": 5759,
      "itor": 5760,
      "udy": 5761,
      "supplies": 5762,
      "Spl": 5763,
      "marshmallow": 5764,
      "tails": 5765,
      "buckets": 5766,
      "cans": 5767,
      "wins": 5768,
      "anger": 5769,
      "ys": 5770,
      "tramp": 5771,
      "sation": 5772,
      "behavi": 5773,
      "'.": 5774,
      "gross": 5775,
      "copy": 5776,
      "sneezing": 5777,
      "Twinkle": 5778,
      "Abig": 5779,
      "Take": 5780,
      "paddle": 5781,
      "kes": 5782,
      "sweat": 5783,
      "Abigail": 5784,
      "restored": 5785,
      "splashes": 5786,
      "villagers": 5787,
      "Spring": 5788,
      "anna": 5789,
      "stain": 5790,
      "peacefully": 5791,
      "gems": 5792,
      "rocking": 5793,
      "screwdriver": 5794,
      "superheroes": 5795,
      "celebrating": 5796,
      "tickled": 5797,
      "minerals": 5798,
      "trampoline": 5799,
      "Ava": 5800,
      "tasks": 5801,
      "rainy": 5802,
      "untie": 5803,
      "winked": 5804,
      "kites": 5805,
      "million": 5806,
      "De": 5807,
      "grinned": 5808,
      "needles": 5809,
      "ledge": 5810,
      "seaweed": 5811,
      "serving": 5812,
      "feeding": 5813,
      "Rudolph": 5814,
      "refle": 5815,
      "serv": 5816,
      "reunited": 5817,
      "umper": 5818,
      "satis": 5819,
      "arrows": 5820,
      "Fro": 5821,
      "mies": 5822,
      "pointy": 5823,
      "rup": 5824,
      "basement": 5825,
      "Splash": 5826,
      "ivity": 5827,
      "sewing": 5828,
      "Oops": 5829,
      "zes": 5830,
      "Love": 5831,
      "Vel": 5832,
      "ker": 5833,
      "gues": 5834,
      "bows": 5835,
      "Duck": 5836,
      "Fire": 5837,
      "faced": 5838,
      "wrink": 5839,
      "rising": 5840,
      "spikes": 5841,
      "Zero": 5842,
      "enty": 5843,
      "burger": 5844,
      "mischievous": 5845,
      "Velvet": 5846,
      "Ma": 5847,
      "reaching": 5848,
      "granddaughter": 5849,
      "feast": 5850,
      "issue": 5851,
      "widened": 5852,
      "Dare": 5853,
      "scarecrow": 5854,
      "cobwebs": 5855,
      "igning": 5856,
      "Cindy": 5857,
      "Ratty": 5858,
      "creativity": 5859,
      "Mid": 5860,
      "Zigzag": 5861,
      "Pinch": 5862,
      "plenty": 5863,
      "Midnight": 5864,
      "steady": 5865,
      "Frosty": 5866,
      "rings": 5867,
      "timer": 5868,
      "Bree": 5869,
      "objects": 5870,
      "direction": 5871,
      "tissue": 5872,
      "bras": 5873,
      "visitor": 5874,
      "roads": 5875,
      "knowledge": 5876,
      "Thumper": 5877,
      "Jam": 5878,
      "speaking": 5879,
      "Poor": 5880,
      "joking": 5881,
      "cub": 5882,
      "seas": 5883,
      "planting": 5884,
      "ripe": 5885,
      "decides": 5886,
      "loading": 5887,
      "vanilla": 5888,
      "Olly": 5889,
      "freed": 5890,
      "rule": 5891,
      "zebras": 5892,
      "pennies": 5893,
      "sen": 5894,
      "untied": 5895,
      "Kids": 5896,
      "pigeons": 5897,
      "hike": 5898,
      "purr": 5899,
      "Mir": 5900,
      "masks": 5901,
      "froze": 5902,
      "Oli": 5903,
      "delivery": 5904,
      "Two": 5905,
      "forks": 5906,
      "patted": 5907,
      "scur": 5908,
      "pops": 5909,
      "tunnels": 5910,
      "Birthday": 5911,
      "loe": 5912,
      "stro": 5913,
      "chuck": 5914,
      "hearing": 5915,
      "lifting": 5916,
      "iles": 5917,
      "remot": 5918,
      "wires": 5919,
      "...": 5920,
      "leading": 5921,
      "scurried": 5922,
      "refuse": 5923,
      "remote": 5924,
      "moo": 5925,
      "causing": 5926,
      "draws": 5927,
      "sights": 5928,
      "responsibility": 5929,
      "cuts": 5930,
      "unpacked": 5931,
      "windy": 5932,
      "drives": 5933,
      "Jump": 5934,
      "Want": 5935,
      "peck": 5936,
      "Freddie": 5937,
      "guests": 5938,
      "onge": 5939,
      "Chloe": 5940,
      "rockets": 5941,
      "Wil": 5942,
      "vegg": 5943,
      "sponge": 5944,
      "icky": 5945,
      "Ed": 5946,
      "Enjoy": 5947,
      "marshmallows": 5948,
      "instrum": 5949,
      "eath": 5950,
      "bie": 5951,
      "claps": 5952,
      "damage": 5953,
      "biting": 5954,
      "sweeties": 5955,
      "ateri": 5956,
      "bbly": 5957,
      "discovering": 5958,
      "materi": 5959,
      "runk": 5960,
      "cautious": 5961,
      "deal": 5962,
      "Pinchy": 5963,
      "designed": 5964,
      "begin": 5965,
      "behaving": 5966,
      "ount": 5967,
      "wasted": 5968,
      "forgiven": 5969,
      "waddled": 5970,
      "Mis": 5971,
      "squares": 5972,
      "inst": 5973,
      "helmets": 5974,
      "fluttering": 5975,
      "Abby": 5976,
      "completely": 5977,
      "veggies": 5978,
      "mailed": 5979,
      "puppies": 5980,
      "changing": 5981,
      "performing": 5982,
      "catches": 5983,
      "conver": 5984,
      "discussed": 5985,
      "inter": 5986,
      "action": 5987,
      "Stitch": 5988,
      "dresser": 5989,
      "rotten": 5990,
      "twirling": 5991,
      "handsome": 5992,
      "interested": 5993,
      "tered": 5994,
      "birdhouse": 5995,
      "borrowed": 5996,
      "flags": 5997,
      "dropping": 5998,
      "tractor": 5999,
      "scraped": 6000,
      "surfing": 6001,
      "written": 6002,
      "tricky": 6003,
      "dam": 6004,
      "worries": 6005,
      "willing": 6006,
      "printing": 6007,
      "toaster": 6008,
      "outfit": 6009,
      "tru": 6010,
      "fully": 6011,
      "meatballs": 6012,
      "Catty": 6013,
      "Pippa": 6014,
      "sadder": 6015,
      "barely": 6016,
      "truly": 6017,
      "sunflowers": 6018,
      "tables": 6019,
      "Gogo": 6020,
      "Ally": 6021,
      "snuggle": 6022,
      "othing": 6023,
      ".'": 6024,
      "bowls": 6025,
      "Sparkles": 6026,
      "chuckled": 6027,
      "ades": 6028,
      "peered": 6029,
      "Everyday": 6030,
      "cro": 6031,
      "yum": 6032,
      "Beth": 6033,
      "flight": 6034,
      "lending": 6035,
      "dancers": 6036,
      "stays": 6037,
      "countryside": 6038,
      "rushing": 6039,
      "tires": 6040,
      "knocking": 6041,
      "distracted": 6042,
      "tran": 6043,
      "magnets": 6044,
      "Josh": 6045,
      "Blink": 6046,
      "accomplish": 6047,
      "Run": 6048,
      "rumble": 6049,
      "rever": 6050,
      "repa": 6051,
      "traded": 6052,
      "rains": 6053,
      "napkins": 6054,
      "haven": 6055,
      "shoo": 6056,
      "partment": 6057,
      "Wis": 6058,
      "atur": 6059,
      "players": 6060,
      "stacked": 6061,
      "writes": 6062,
      "aimed": 6063,
      "delayed": 6064,
      "Wisdom": 6065,
      "Try": 6066,
      "beloved": 6067,
      "lighter": 6068,
      "Biggie": 6069,
      "Lou": 6070,
      "iding": 6071,
      "repaired": 6072,
      "baller": 6073,
      "crept": 6074,
      "ounced": 6075,
      "burnt": 6076,
      "Fu": 6077,
      "thrown": 6078,
      "wobble": 6079,
      "triangles": 6080,
      "Puddles": 6081,
      "seven": 6082,
      "birdy": 6083,
      "glued": 6084,
      "Jess": 6085,
      "wishing": 6086,
      "sailors": 6087,
      "Jamie": 6088,
      "”.": 6089,
      "playroom": 6090,
      "pecked": 6091,
      "suitcase": 6092,
      "backwards": 6093,
      "polar": 6094,
      "increased": 6095,
      "slither": 6096,
      "wiping": 6097,
      "speeding": 6098,
      "directions": 6099,
      "attacked": 6100,
      "Patch": 6101,
      "sank": 6102,
      "teaches": 6103,
      "rustling": 6104,
      "Lu": 6105,
      "teamwork": 6106,
      "characters": 6107,
      "atches": 6108,
      "grows": 6109,
      "pleasure": 6110,
      "astron": 6111,
      "vive": 6112,
      "dragged": 6113,
      "beneath": 6114,
      "astronaut": 6115,
      "ler": 6116,
      "behavior": 6117,
      "items": 6118,
      "survive": 6119,
      "aeroplanes": 6120,
      "rotting": 6121,
      "ballerina": 6122,
      "rance": 6123,
      "gratul": 6124,
      "ese": 6125,
      "starfish": 6126,
      "spreading": 6127,
      "afar": 6128,
      "vines": 6129,
      "watermelon": 6130,
      "puppet": 6131,
      "Fine": 6132,
      "oni": 6133,
      "badge": 6134,
      "learns": 6135,
      "irm": 6136,
      "fact": 6137,
      "Jenna": 6138,
      "cotton": 6139,
      "Anytime": 6140,
      "hog": 6141,
      "dollars": 6142,
      "politely": 6143,
      "covers": 6144,
      "tempt": 6145,
      "neither": 6146,
      "shrunk": 6147,
      "lungs": 6148,
      "deserve": 6149,
      "reflection": 6150,
      "racco": 6151,
      "mance": 6152,
      "paintbrush": 6153,
      "grandparents": 6154,
      "Dot": 6155,
      "chases": 6156,
      "pans": 6157,
      "Chew": 6158,
      "Stri": 6159,
      "rum": 6160,
      "vehicles": 6161,
      "pad": 6162,
      "supported": 6163,
      "performance": 6164,
      "itched": 6165,
      "Butter": 6166,
      "surfboard": 6167,
      "ition": 6168,
      "amount": 6169,
      "rious": 6170,
      "pretends": 6171,
      "satisfied": 6172,
      "peas": 6173,
      "Hippy": 6174,
      "brushing": 6175,
      "mosquitoes": 6176,
      "ouch": 6177,
      "spice": 6178,
      "ientist": 6179,
      "salty": 6180,
      "plain": 6181,
      "colder": 6182,
      "drif": 6183,
      "cocoon": 6184,
      "Hopper": 6185,
      "aisle": 6186,
      "angle": 6187,
      "Tree": 6188,
      "disturbing": 6189,
      "risks": 6190,
      "Con": 6191,
      "Bop": 6192,
      "noses": 6193,
      "whose": 6194,
      "questioned": 6195,
      "hedgehog": 6196,
      "twinkle": 6197,
      "scientist": 6198,
      "bracelets": 6199,
      "sighs": 6200,
      "Kay": 6201,
      "unfortunately": 6202,
      "Milo": 6203,
      "opp": 6204,
      "lies": 6205,
      "elace": 6206,
      "shoelace": 6207,
      "Julie": 6208,
      "Jilly": 6209,
      "blows": 6210,
      "surrend": 6211,
      "inda": 6212,
      "pose": 6213,
      "panick": 6214,
      "conversation": 6215,
      "surrendered": 6216,
      "Ah": 6217,
      "permitted": 6218,
      "Auntie": 6219,
      "Flutter": 6220,
      "cope": 6221,
      "ected": 6222,
      "steer": 6223,
      "flapping": 6224,
      "bbed": 6225,
      "onwards": 6226,
      "stron": 6227,
      "raccoon": 6228,
      "swans": 6229,
      "honk": 6230,
      "reason": 6231,
      "ships": 6232,
      "Excitedly": 6233,
      "strongest": 6234,
      "blown": 6235,
      "stool": 6236,
      "wiggly": 6237,
      "darling": 6238,
      "races": 6239,
      "Rover": 6240,
      "sending": 6241,
      "suffered": 6242,
      "Mira": 6243,
      "iled": 6244,
      "ropes": 6245,
      "forehead": 6246,
      "drowned": 6247,
      "master": 6248,
      "smarter": 6249,
      "hus": 6250,
      "prick": 6251,
      "honked": 6252,
      "neatly": 6253,
      "dots": 6254,
      "munch": 6255,
      "iar": 6256,
      "Claire": 6257,
      "plans": 6258,
      "officers": 6259,
      "farther": 6260,
      "storekeeper": 6261,
      "knees": 6262,
      "familiar": 6263,
      "Rain": 6264,
      "Hanna": 6265,
      "plug": 6266,
      "Jeff": 6267,
      "Mi": 6268,
      "afterwards": 6269,
      "mination": 6270,
      "determination": 6271,
      "warmer": 6272,
      "burst": 6273,
      "solving": 6274,
      "ruining": 6275,
      "wow": 6276,
      "policeman": 6277,
      "awesome": 6278,
      "Ping": 6279,
      "amboo": 6280,
      "10": 6281,
      "meowing": 6282,
      "Pu": 6283,
      "sunscreen": 6284,
      "jackets": 6285,
      "Fid": 6286,
      "crew": 6287,
      "bravest": 6288,
      "celebration": 6289,
      "Shh": 6290,
      "husband": 6291,
      "Bang": 6292,
      "Jones": 6293,
      "forgiving": 6294,
      "Trust": 6295,
      "Skip": 6296,
      "vities": 6297,
      "department": 6298,
      "slam": 6299,
      "Ele": 6300,
      "ena": 6301,
      "planning": 6302,
      "bamboo": 6303,
      "entrance": 6304,
      "fuzzy": 6305,
      "Susan": 6306,
      "blu": 6307,
      "Whee": 6308,
      "Vroom": 6309,
      "assur": 6310,
      "outdoors": 6311,
      "smelling": 6312,
      "pens": 6313,
      "ives": 6314,
      "bothering": 6315,
      "Farm": 6316,
      "Henny": 6317,
      "Nothing": 6318,
      "merma": 6319,
      "gracefully": 6320,
      "haird": 6321,
      "owners": 6322,
      "aws": 6323,
      "scratching": 6324,
      "Fido": 6325,
      "Nina": 6326,
      "lower": 6327,
      "Ja": 6328,
      "cloudy": 6329,
      "cused": 6330,
      "rout": 6331,
      "exploded": 6332,
      "blocked": 6333,
      "necklaces": 6334,
      "passports": 6335,
      "servant": 6336,
      "haw": 6337,
      "heavier": 6338,
      "calmed": 6339,
      "Roar": 6340,
      "Mix": 6341,
      "sense": 6342,
      "itude": 6343,
      "Only": 6344,
      "slowed": 6345,
      "gardener": 6346,
      "formed": 6347,
      "tapped": 6348,
      "si": 6349,
      "rubs": 6350,
      "guessing": 6351,
      "ann": 6352,
      "Which": 6353,
      "drawn": 6354,
      "wobbled": 6355,
      "sibling": 6356,
      "date": 6357,
      "nood": 6358,
      "worrying": 6359,
      "ponies": 6360,
      "surprising": 6361,
      "poster": 6362,
      "fires": 6363,
      "Without": 6364,
      "hesitated": 6365,
      "Mikey": 6366,
      "month": 6367,
      "stern": 6368,
      "younger": 6369,
      "ooky": 6370,
      "dryer": 6371,
      "windowsill": 6372,
      "agrees": 6373,
      "films": 6374,
      "Elephant": 6375,
      "Farmer": 6376,
      "misses": 6377,
      "melons": 6378,
      "toed": 6379,
      "rolls": 6380,
      "respon": 6381,
      "Along": 6382,
      "swords": 6383,
      "stitches": 6384,
      "nests": 6385,
      "humans": 6386,
      "Ac": 6387,
      "Jon": 6388,
      "entire": 6389,
      "floors": 6390,
      "Nana": 6391,
      "aware": 6392,
      "ibble": 6393,
      "ene": 6394,
      "fleas": 6395,
      "shrinking": 6396,
      "aliens": 6397,
      "hairdress": 6398,
      "oysters": 6399,
      "preparing": 6400,
      "tying": 6401,
      "wears": 6402,
      "Adam": 6403,
      "Gu": 6404,
      "nib": 6405,
      "weekend": 6406,
      "conduc": 6407,
      "hairdresser": 6408,
      "Fish": 6409,
      "coral": 6410,
      "convin": 6411,
      "forgiveness": 6412,
      "resisted": 6413,
      "conductor": 6414,
      "Isn": 6415,
      "hunters": 6416,
      "drifted": 6417,
      "squishy": 6418,
      "buzzed": 6419,
      "spooky": 6420,
      "cheeks": 6421,
      "fishy": 6422,
      "closes": 6423,
      "Eddie": 6424,
      "Gina": 6425,
      "frowning": 6426,
      "tar": 6427,
      "creations": 6428,
      "listens": 6429,
      "cidents": 6430,
      "relief": 6431,
      "wobbly": 6432,
      "slower": 6433,
      "breathed": 6434,
      "dived": 6435,
      "Accidents": 6436,
      "Mous": 6437,
      "impossible": 6438,
      "soaking": 6439,
      "seatbelt": 6440,
      "Oliver": 6441,
      "nine": 6442,
      "wept": 6443,
      "spoonful": 6444,
      "ironment": 6445,
      "Hannah": 6446,
      "Jacob": 6447,
      "thud": 6448,
      "clues": 6449,
      "environment": 6450,
      "cles": 6451,
      "Fuzzy": 6452,
      "firm": 6453,
      "yielded": 6454,
      "smoking": 6455,
      "manag": 6456,
      "bumps": 6457,
      "Cu": 6458,
      "Jay": 6459,
      "belongings": 6460,
      "scratches": 6461,
      "Snap": 6462,
      "floats": 6463,
      "Linda": 6464,
      "blinking": 6465,
      "Dizzy": 6466,
      "focused": 6467,
      "deed": 6468,
      "dances": 6469,
      "bably": 6470,
      "probably": 6471,
      "figured": 6472,
      "Does": 6473,
      "Mousy": 6474,
      "burying": 6475,
      "...\"": 6476,
      "aside": 6477,
      "decoration": 6478,
      "breathing": 6479,
      "ramp": 6480,
      "aller": 6481,
      "overheard": 6482,
      "athy": 6483,
      "flipped": 6484,
      "activities": 6485,
      "cowboy": 6486,
      "among": 6487,
      "source": 6488,
      "tiptoed": 6489,
      "prickly": 6490,
      "fins": 6491,
      "kicks": 6492,
      "pupils": 6493,
      "notes": 6494,
      "Grumpy": 6495,
      "startled": 6496,
      "suits": 6497,
      "Mine": 6498,
      "beyond": 6499,
      "mermaid": 6500,
      "Jessie": 6501,
      "assm": 6502,
      "grabbing": 6503,
      "syrup": 6504,
      "mattered": 6505,
      "sprinkled": 6506,
      "twinkling": 6507,
      "grip": 6508,
      "ider": 6509,
      "sobbed": 6510,
      "cleaner": 6511,
      "seeker": 6512,
      "displayed": 6513,
      "airplanes": 6514,
      "Crusty": 6515,
      "lent": 6516,
      "puck": 6517,
      "waking": 6518,
      "airy": 6519,
      "treated": 6520,
      "wrinkled": 6521,
      "Dara": 6522,
      "Make": 6523,
      "bitten": 6524,
      "seconds": 6525,
      "stomped": 6526,
      "focus": 6527,
      "Anne": 6528,
      "sweetest": 6529,
      "magazines": 6530,
      "damaged": 6531,
      "Rib": 6532,
      "mate": 6533,
      "aled": 6534,
      "Claus": 6535,
      "Ribbit": 6536,
      "Cuddles": 6537,
      "merry": 6538,
      "dressing": 6539,
      "bully": 6540,
      "Dee": 6541,
      "joked": 6542,
      "Copper": 6543,
      "convinced": 6544,
      "tested": 6545,
      "pins": 6546,
      "site": 6547,
      "liqu": 6548,
      "scarves": 6549,
      "encouragement": 6550,
      "ying": 6551,
      "correct": 6552,
      "robots": 6553,
      "Willy": 6554,
      "det": 6555,
      "handing": 6556,
      "softer": 6557,
      "trans": 6558,
      "Rolly": 6559,
      "jars": 6560,
      "eted": 6561,
      "ignoring": 6562,
      "rrr": 6563,
      "pouted": 6564,
      "sprang": 6565,
      "stopping": 6566,
      "burgers": 6567,
      "streamers": 6568,
      "Lots": 6569,
      "asing": 6570,
      "reminding": 6571,
      "defeated": 6572,
      "pant": 6573,
      "dod": 6574,
      "thoughts": 6575,
      "jets": 6576,
      "figures": 6577,
      "rescuing": 6578,
      "neighbourhood": 6579,
      "instruments": 6580,
      "twisting": 6581,
      "licking": 6582,
      "reversed": 6583,
      "siblings": 6584,
      "luckily": 6585,
      "anno": 6586,
      "argum": 6587,
      "backed": 6588,
      "lipstick": 6589,
      "assured": 6590,
      "knots": 6591,
      "Juli": 6592,
      "ading": 6593,
      "yourselves": 6594,
      "cupcake": 6595,
      "Honey": 6596,
      "rier": 6597,
      "earn": 6598,
      "popsic": 6599,
      "hides": 6600,
      "raging": 6601,
      "secure": 6602,
      "hum": 6603,
      "thest": 6604,
      "geese": 6605,
      "bert": 6606,
      "haircuts": 6607,
      "sheets": 6608,
      "images": 6609,
      "shoelaces": 6610,
      "vow": 6611,
      "worn": 6612,
      "beautifully": 6613,
      "bathing": 6614,
      "postman": 6615,
      "handful": 6616,
      "snowfla": 6617,
      "packages": 6618,
      "ica": 6619,
      "craft": 6620,
      "click": 6621,
      "weeds": 6622,
      "Hor": 6623,
      "ortun": 6624,
      "lessons": 6625,
      "hallway": 6626,
      "Squeak": 6627,
      "hider": 6628,
      "hotter": 6629,
      "crashing": 6630,
      "hawk": 6631,
      "lan": 6632,
      "angels": 6633,
      "rewarded": 6634,
      "Ball": 6635,
      "tighter": 6636,
      "refresh": 6637,
      "beaver": 6638,
      "jobs": 6639,
      "insp": 6640,
      "twice": 6641,
      "tipped": 6642,
      "Sparkle": 6643,
      "Izzy": 6644,
      "Sleep": 6645,
      "nibble": 6646,
      "recess": 6647,
      "however": 6648,
      "trembled": 6649,
      "allerg": 6650,
      "Sim": 6651,
      "reads": 6652,
      "streets": 6653,
      "cept": 6654,
      "poisonous": 6655,
      "slices": 6656,
      "manners": 6657,
      "noodles": 6658,
      "refreshing": 6659,
      "shat": 6660,
      "rivers": 6661,
      "Near": 6662,
      "Other": 6663,
      "shines": 6664,
      "guide": 6665,
      "roller": 6666,
      "encou": 6667,
      "covering": 6668,
      "explorers": 6669,
      "Luke": 6670,
      "Ske": 6671,
      "Raven": 6672,
      "Skelly": 6673,
      "Ash": 6674,
      "situations": 6675,
      "Monkey": 6676,
      "loops": 6677,
      "batch": 6678,
      "beeped": 6679,
      "encouraging": 6680,
      "kittens": 6681,
      "everyday": 6682,
      "wisely": 6683,
      "Playing": 6684,
      "greeted": 6685,
      "Nobody": 6686,
      "darkness": 6687,
      "Cow": 6688,
      "tum": 6689,
      "toolbox": 6690,
      "students": 6691,
      "sharks": 6692,
      "ease": 6693,
      "tuck": 6694,
      "wipes": 6695,
      "labels": 6696,
      "Hurry": 6697,
      "Rudy": 6698,
      "plot": 6699,
      "counts": 6700,
      "slipping": 6701,
      "yells": 6702,
      "groups": 6703,
      "Sophia": 6704,
      "posit": 6705,
      "Peep": 6706,
      "screws": 6707,
      "Que": 6708,
      "ties": 6709,
      "rather": 6710,
      "routine": 6711,
      "pound": 6712,
      "talents": 6713,
      "silent": 6714,
      "bulbs": 6715,
      "convince": 6716,
      "thorns": 6717,
      "liquid": 6718,
      "heading": 6719,
      "Abb": 6720,
      "center": 6721,
      "creamy": 6722,
      "cushions": 6723,
      "appreciated": 6724,
      "doorbell": 6725,
      "sailboat": 6726,
      "partic": 6727,
      "ments": 6728,
      "Whistle": 6729,
      "Robo": 6730,
      "argument": 6731,
      "dangers": 6732,
      "knives": 6733,
      "?\",": 6734,
      "inchworm": 6735,
      "Wilbur": 6736,
      "blast": 6737,
      "haust": 6738,
      "paths": 6739,
      "soundly": 6740,
      "Stella": 6741,
      "spices": 6742,
      "rie": 6743,
      "Cathy": 6744,
      "artwork": 6745,
      "designs": 6746,
      "Lena": 6747,
      "appearance": 6748,
      "mixture": 6749,
      "teapot": 6750,
      "Kayla": 6751,
      "amed": 6752,
      "odd": 6753,
      "cts": 6754,
      "Wink": 6755,
      "designing": 6756,
      "Stripe": 6757,
      "Zee": 6758,
      "nug": 6759,
      "cons": 6760,
      "exhaust": 6761,
      "ighty": 6762,
      "farthest": 6763,
      "rowed": 6764,
      "slammed": 6765,
      "dot": 6766,
      "hadow": 6767,
      "stalk": 6768,
      "panicked": 6769,
      "height": 6770,
      "ply": 6771,
      "quarreled": 6772,
      "tossed": 6773,
      "charge": 6774,
      "Queen": 6775,
      "Open": 6776,
      "buddy": 6777,
      "kings": 6778,
      "sweep": 6779,
      "spells": 6780,
      "Ant": 6781,
      "Mic": 6782,
      "squished": 6783,
      "phones": 6784,
      "tricycle": 6785,
      "talks": 6786,
      "shattered": 6787,
      "Larry": 6788,
      "bber": 6789,
      "exercises": 6790,
      "opinions": 6791,
      "crops": 6792,
      "maker": 6793,
      "waterfall": 6794,
      "seagulls": 6795,
      "immer": 6796,
      "ipes": 6797,
      "Mighty": 6798,
      "Paws": 6799,
      "vil": 6800,
      "tage": 6801,
      "swimmer": 6802,
      "Tara": 6803,
      "classm": 6804,
      "flowing": 6805,
      "swims": 6806,
      "knocks": 6807,
      "cautiously": 6808,
      "Years": 6809,
      "except": 6810,
      "storms": 6811,
      "motorcycles": 6812,
      "imaginary": 6813,
      "pedaled": 6814,
      "instin": 6815,
      "Ice": 6816,
      "pea": 6817,
      "ventured": 6818,
      "judges": 6819,
      "nuggets": 6820,
      "rent": 6821,
      "wance": 6822,
      "vented": 6823,
      "swimsuit": 6824,
      "rats": 6825,
      "Magic": 6826,
      "allowance": 6827,
      "Se": 6828,
      "destroying": 6829,
      "correctly": 6830,
      "Julia": 6831,
      "sprout": 6832,
      "seals": 6833,
      "quie": 6834,
      "pered": 6835,
      "weapons": 6836,
      "Mu": 6837,
      "Shar": 6838,
      "ghosts": 6839,
      "beginning": 6840,
      "Wake": 6841,
      "ilder": 6842,
      "acts": 6843,
      "Bones": 6844,
      "buses": 6845,
      "ining": 6846,
      "seller": 6847,
      "business": 6848,
      "Chuck": 6849,
      "pays": 6850,
      "campfire": 6851,
      "Sweet": 6852,
      "tweet": 6853,
      "prevented": 6854,
      "flashing": 6855,
      "daring": 6856,
      "unsure": 6857,
      "cutter": 6858,
      "allergic": 6859,
      "exhausted": 6860,
      "Fairy": 6861,
      "dou": 6862,
      "magically": 6863,
      "instincts": 6864,
      "sie": 6865,
      "testing": 6866,
      "hopeful": 6867,
      "cky": 6868,
      "languages": 6869,
      "Pingu": 6870,
      "reassured": 6871,
      "hatched": 6872,
      "force": 6873,
      "retrie": 6874,
      "chosen": 6875,
      "leads": 6876,
      "quieter": 6877,
      "chilly": 6878,
      "raking": 6879,
      "camel": 6880,
      "traveling": 6881,
      "distract": 6882,
      "healthier": 6883,
      "seasons": 6884,
      "salon": 6885,
      "roast": 6886,
      "bells": 6887,
      "unicorns": 6888,
      "travell": 6889,
      "defeat": 6890,
      "Abbie": 6891,
      "Mel": 6892,
      "Shelly": 6893,
      "messes": 6894,
      "guarding": 6895,
      "playhouse": 6896,
      "scattering": 6897,
      "flooded": 6898,
      "Puppy": 6899,
      "ppies": 6900,
      "fries": 6901,
      "robber": 6902,
      "single": 6903,
      "unpacking": 6904,
      "vowed": 6905,
      "hatch": 6906,
      "shown": 6907,
      "Dodo": 6908,
      "collap": 6909,
      "sails": 6910,
      "Sundays": 6911,
      "visitors": 6912,
      "Missy": 6913,
      "zie": 6914,
      "abra": 6915,
      "thanking": 6916,
      "Doctor": 6917,
      "container": 6918,
      "sweaty": 6919,
      "combed": 6920,
      "Too": 6921,
      "Lizz": 6922,
      "dip": 6923,
      "creams": 6924,
      "cig": 6925,
      "evil": 6926,
      "overhead": 6927,
      "Lizzie": 6928,
      "adabra": 6929,
      "poses": 6930,
      "whispers": 6931,
      "Pup": 6932,
      "Tig": 6933,
      "Turt": 6934,
      "honesty": 6935,
      "sparks": 6936,
      "touches": 6937,
      "fluttered": 6938,
      "wraps": 6939,
      "diamonds": 6940,
      "sniffing": 6941,
      "Bark": 6942,
      "dump": 6943,
      "udged": 6944,
      "breaths": 6945,
      "hael": 6946,
      "aret": 6947,
      "returning": 6948,
      "grandson": 6949,
      "Robert": 6950,
      "cigaret": 6951,
      "Dear": 6952,
      "Gold": 6953,
      "Pret": 6954,
      "turtles": 6955,
      "flip": 6956,
      "yan": 6957,
      "asers": 6958,
      "gobbled": 6959,
      "Curious": 6960,
      "Ostrich": 6961,
      "Pam": 6962,
      "usty": 6963,
      "puff": 6964,
      "decisions": 6965,
      "aven": 6966,
      "ulp": 6967,
      "singers": 6968,
      "buckled": 6969,
      "chefs": 6970,
      "manager": 6971,
      "Gary": 6972,
      "spat": 6973,
      "spare": 6974,
      "prove": 6975,
      "Karen": 6976,
      "plumber": 6977,
      "forgets": 6978,
      "reminds": 6979,
      "freezing": 6980,
      "particular": 6981,
      "Satur": 6982,
      "shor": 6983,
      "pancake": 6984,
      "respected": 6985,
      "teams": 6986,
      "materials": 6987,
      "tummies": 6988,
      "ammy": 6989,
      "leaking": 6990,
      "runner": 6991,
      "drawers": 6992,
      "Lau": 6993,
      "Stre": 6994,
      "ping": 6995,
      "rin": 6996,
      "xy": 6997,
      "playdate": 6998,
      "express": 6999,
      "minded": 7000,
      "drivers": 7001,
      "calmly": 7002,
      "chocolates": 7003,
      "zipping": 7004,
      "growls": 7005,
      "Bless": 7006,
      "heaven": 7007,
      "coach": 7008,
      "stroked": 7009,
      "gle": 7010,
      "purpose": 7011,
      "shops": 7012,
      "wakes": 7013,
      "classmates": 7014,
      "Gerry": 7015,
      "Up": 7016,
      "Very": 7017,
      "Wor": 7018,
      "Suzie": 7019,
      "gratulations": 7020,
      "announced": 7021,
      "positive": 7022,
      "Michael": 7023,
      "June": 7024,
      "Never": 7025,
      "chopped": 7026,
      "Guess": 7027,
      "upside": 7028,
      "beanstalk": 7029,
      "bicycles": 7030,
      "taped": 7031,
      "closing": 7032,
      "Laura": 7033,
      "Bloom": 7034,
      "rely": 7035,
      "Another": 7036,
      "squeezing": 7037,
      "popsicle": 7038,
      "poppies": 7039,
      "friendships": 7040,
      "Fishy": 7041,
      "Ot": 7042,
      "Ral": 7043,
      "Dove": 7044,
      "coolest": 7045,
      "complim": 7046,
      "obeyed": 7047,
      "Man": 7048,
      "rigued": 7049,
      "braver": 7050,
      "Mabel": 7051,
      "swirl": 7052,
      "cleared": 7053,
      "disappoint": 7054,
      "belts": 7055,
      "?'": 7056,
      "Say": 7057,
      "acles": 7058,
      "quet": 7059,
      "foxes": 7060,
      "blushed": 7061,
      "Min": 7062,
      "accomplished": 7063,
      "Ralph": 7064,
      "neare": 7065,
      "cock": 7066,
      "Peanut": 7067,
      "months": 7068,
      "shorter": 7069,
      "Rol": 7070,
      "shady": 7071,
      "gazing": 7072,
      "peeled": 7073,
      "stals": 7074,
      "Gray": 7075,
      "Jessica": 7076,
      "bou": 7077,
      "grassy": 7078,
      "corners": 7079,
      "Chris": 7080,
      "Zippy": 7081,
      "echo": 7082,
      "tock": 7083,
      "gras": 7084,
      "crystals": 7085,
      "battle": 7086,
      "scooters": 7087,
      "bouquet": 7088,
      "presses": 7089,
      "untangled": 7090,
      "traps": 7091,
      "Snowman": 7092,
      "nightmares": 7093,
      "shave": 7094,
      "wasting": 7095,
      "backward": 7096,
      "stands": 7097,
      "squealed": 7098,
      "certain": 7099,
      "potty": 7100,
      "hoops": 7101,
      "bandages": 7102,
      "grandchild": 7103,
      "invitations": 7104,
      "Show": 7105,
      "Wise": 7106,
      "endy": 7107,
      "Congratulations": 7108,
      "dred": 7109,
      "nif": 7110,
      "rewards": 7111,
      "builder": 7112,
      "healing": 7113,
      "shovels": 7114,
      "Boys": 7115,
      "stores": 7116,
      "spins": 7117,
      "communi": 7118,
      "encounter": 7119,
      "skate": 7120,
      "Toys": 7121,
      "horiz": 7122,
      "Whoever": 7123,
      "Moon": 7124,
      "Matt": 7125,
      "cas": 7126,
      "whoever": 7127,
      "scri": 7128,
      "inspired": 7129,
      "hour": 7130,
      "Pretty": 7131,
      "horizon": 7132,
      "Ar": 7133,
      "Bru": 7134,
      "couple": 7135,
      "novels": 7136,
      "experiences": 7137,
      "moat": 7138,
      "yelped": 7139,
      "tentacles": 7140,
      "stinky": 7141,
      "sped": 7142,
      "gesture": 7143,
      "auntie": 7144,
      "offering": 7145,
      "target": 7146,
      "Mad": 7147,
      "everybody": 7148,
      "germs": 7149,
      "pres": 7150,
      "minds": 7151,
      "engers": 7152,
      "Robbie": 7153,
      "spilling": 7154,
      "pantry": 7155,
      "curiously": 7156,
      "joining": 7157,
      "hundred": 7158,
      "symbols": 7159,
      "Quacky": 7160,
      "swollen": 7161,
      "necess": 7162,
      "teles": 7163,
      "squaw": 7164,
      "queens": 7165,
      "erup": 7166,
      "goo": 7167,
      "lifeguard": 7168,
      "response": 7169,
      "Ryan": 7170,
      "nu": 7171,
      "rigg": 7172,
      "cheaper": 7173,
      "inju": 7174,
      "sometime": 7175,
      "passengers": 7176,
      "footprints": 7177,
      "Davey": 7178,
      "Prince": 7179,
      "munching": 7180,
      "Turtle": 7181,
      "Piggie": 7182,
      "beating": 7183,
      "actor": 7184,
      "Beaky": 7185,
      "telescope": 7186,
      "iciest": 7187,
      "hangers": 7188,
      "changes": 7189,
      "nuzz": 7190,
      "pills": 7191,
      "iti": 7192,
      "active": 7193,
      "weaker": 7194,
      "cherish": 7195,
      "mooed": 7196,
      "Ring": 7197,
      "sim": 7198,
      "ilities": 7199,
      "footsteps": 7200,
      "stacking": 7201,
      "weighs": 7202,
      "Black": 7203,
      "Cara": 7204,
      "bolt": 7205,
      "earned": 7206,
      "occas": 7207,
      "results": 7208,
      "accomplishment": 7209,
      "Saturday": 7210,
      "Rollie": 7211,
      "Oxy": 7212,
      "Use": 7213,
      "utu": 7214,
      "bats": 7215,
      "answering": 7216,
      "journeys": 7217,
      "necessary": 7218,
      "Rich": 7219,
      "ias": 7220,
      "switched": 7221,
      "kayaking": 7222,
      "scurry": 7223,
      "rays": 7224,
      "admit": 7225,
      "hunting": 7226,
      "opportun": 7227,
      "Find": 7228,
      "nch": 7229,
      "ilted": 7230,
      "olves": 7231,
      "donkey": 7232,
      "Jackie": 7233,
      "rows": 7234,
      "suggestion": 7235,
      "material": 7236,
      "Lenny": 7237,
      "stepping": 7238,
      "dripping": 7239,
      "believing": 7240,
      "increasing": 7241,
      "freedom": 7242,
      "double": 7243,
      "?!\"": 7244,
      "Close": 7245,
      "lever": 7246,
      "untangle": 7247,
      "nurses": 7248,
      "pinching": 7249,
      "otch": 7250,
      "chug": 7251,
      "birdies": 7252,
      "somebody": 7253,
      "whipped": 7254,
      "scotch": 7255,
      "Although": 7256,
      "tearing": 7257,
      "honking": 7258,
      "transformed": 7259,
      "Fight": 7260,
      "cheat": 7261,
      "student": 7262,
      "squeak": 7263,
      "mesmer": 7264,
      "slithered": 7265,
      "Fla": 7266,
      "sou": 7267,
      "wrigg": 7268,
      "toise": 7269,
      "lia": 7270,
      "hops": 7271,
      "Zoey": 7272,
      "edges": 7273,
      "snowflakes": 7274,
      "Wolf": 7275,
      "signing": 7276,
      "lava": 7277,
      "tasting": 7278,
      "hopscotch": 7279,
      "lifts": 7280,
      "forts": 7281,
      "enthusias": 7282,
      "enthusiasm": 7283,
      "Laser": 7284,
      "Smo": 7285,
      "bec": 7286,
      "clearly": 7287,
      "whispering": 7288,
      "Univer": 7289,
      "nibbled": 7290,
      "consider": 7291,
      "ashes": 7292,
      "prizes": 7293,
      "Mother": 7294,
      "Sup": 7295,
      "bi": 7296,
      "py": 7297,
      "idence": 7298,
      "Momma": 7299,
      "squir": 7300,
      "doorstep": 7301,
      "miles": 7302,
      "Zog": 7303,
      "repairman": 7304,
      "communicate": 7305,
      "Abra": 7306,
      "Piggy": 7307,
      "pours": 7308,
      "tutu": 7309,
      "punishment": 7310,
      "Shr": 7311,
      "Maya": 7312,
      "lunchtime": 7313,
      "flick": 7314,
      "tubes": 7315,
      "adults": 7316,
      "Simon": 7317,
      "Sna": 7318,
      "andas": 7319,
      "obsta": 7320,
      "checkout": 7321,
      "repeating": 7322,
      "collapsed": 7323,
      "Lia": 7324,
      "Tre": 7325,
      "lers": 7326,
      "hew": 7327,
      "item": 7328,
      "checking": 7329,
      "springing": 7330,
      "experim": 7331,
      "Eww": 7332,
      "achieved": 7333,
      "Stret": 7334,
      "grumbled": 7335,
      "tortoise": 7336,
      "petting": 7337,
      "crowns": 7338,
      "supplied": 7339,
      "uniforms": 7340,
      "plugged": 7341,
      "Eat": 7342,
      "arran": 7343,
      "intrigued": 7344,
      "slips": 7345,
      "exercising": 7346,
      "'.\"": 7347,
      "coop": 7348,
      "relaxing": 7349,
      "shorts": 7350,
      "appreciation": 7351,
      "robb": 7352,
      "wrecked": 7353,
      "spills": 7354,
      "exhi": 7355,
      "type": 7356,
      "longest": 7357,
      "cells": 7358,
      "--": 7359,
      "Barry": 7360,
      "Sl": 7361,
      "elect": 7362,
      "Mean": 7363,
      "bothered": 7364,
      "choosing": 7365,
      "Bugs": 7366,
      "robbers": 7367,
      "Ana": 7368,
      "llow": 7369,
      "tapping": 7370,
      "clue": 7371,
      "gratitude": 7372,
      "temptation": 7373,
      "Fighting": 7374,
      "Stretch": 7375,
      "Wendy": 7376,
      "mow": 7377,
      "sitter": 7378,
      "dollar": 7379,
      "pepperoni": 7380,
      "insisting": 7381,
      "Sa": 7382,
      "Shadow": 7383,
      "cadabra": 7384,
      "tant": 7385,
      "vac": 7386,
      "ric": 7387,
      "examining": 7388,
      "Razor": 7389,
      "coughing": 7390,
      "Pl": 7391,
      "wolves": 7392,
      "roars": 7393,
      "nervously": 7394,
      "tours": 7395,
      "sirens": 7396,
      "lul": 7397,
      "landing": 7398,
      "statues": 7399,
      "sniffs": 7400,
      "tantrum": 7401,
      "Gus": 7402,
      "shinier": 7403,
      "clip": 7404,
      "Bruce": 7405,
      "Bumpy": 7406,
      "Ron": 7407,
      "Rusty": 7408,
      "failed": 7409,
      "locks": 7410,
      "benches": 7411,
      "Oak": 7412,
      "cour": 7413,
      "marking": 7414,
      "driveway": 7415,
      "freely": 7416,
      "Otto": 7417,
      "Abracadabra": 7418,
      "onna": 7419,
      "otion": 7420,
      "iley": 7421,
      "messed": 7422,
      "kneeling": 7423,
      "Imag": 7424,
      "aboard": 7425,
      "elf": 7426,
      "Super": 7427,
      "Ali": 7428,
      "bud": 7429,
      "Thunder": 7430,
      "fights": 7431,
      "giggles": 7432,
      "orders": 7433,
      "helicopters": 7434,
      "conne": 7435,
      "sculp": 7436,
      "countries": 7437,
      "Mat": 7438,
      "lody": 7439,
      "homeless": 7440,
      "tops": 7441,
      "Janie": 7442,
      "borrowing": 7443,
      "connected": 7444,
      "sculpture": 7445,
      "Pig": 7446,
      "Tia": 7447,
      "ently": 7448,
      "engines": 7449,
      "Dani": 7450,
      "Stripey": 7451,
      "gro": 7452,
      "foggy": 7453,
      "Toot": 7454,
      "supporting": 7455,
      "Meanwhile": 7456,
      "pandas": 7457,
      "sipped": 7458,
      "section": 7459,
      "peacock": 7460,
      "Claw": 7461,
      "Sof": 7462,
      "Win": 7463,
      "within": 7464,
      "custom": 7465,
      "ashed": 7466,
      "todd": 7467,
      "juiciest": 7468,
      "comforting": 7469,
      "yawning": 7470,
      "massages": 7471,
      "providing": 7472,
      "customers": 7473,
      "oken": 7474,
      "listener": 7475,
      "magnif": 7476,
      "scares": 7477,
      "campsite": 7478,
      "Sadie": 7479,
      "Share": 7480,
      "pipes": 7481,
      "stur": 7482,
      "laby": 7483,
      "nodding": 7484,
      "babysitter": 7485,
      "!”.": 7486,
      "twists": 7487,
      "Muffin": 7488,
      "lullaby": 7489,
      "Mint": 7490,
      "Nick": 7491,
      "bbling": 7492,
      "ien": 7493,
      "litter": 7494,
      "napped": 7495,
      "thicker": 7496,
      "wider": 7497,
      "Cap": 7498,
      "habit": 7499,
      "raising": 7500,
      "connect": 7501,
      "fireflies": 7502,
      "Emmy": 7503,
      "current": 7504,
      "deserved": 7505,
      "Mart": 7506,
      "ingo": 7507,
      "orrow": 7508,
      "bride": 7509,
      "coloured": 7510,
      "drying": 7511,
      "Helping": 7512,
      "Meg": 7513,
      "Martha": 7514,
      "antha": 7515,
      "Samantha": 7516,
      "sicker": 7517,
      "microwave": 7518,
      "hooks": 7519,
      "backpacks": 7520,
      "Flappy": 7521,
      "pounced": 7522,
      "ream": 7523,
      "antic": 7524,
      "squish": 7525,
      "confidence": 7526,
      "Light": 7527,
      "Titi": 7528,
      "Yo": 7529,
      "natur": 7530,
      "sever": 7531,
      "chopping": 7532,
      "whales": 7533,
      "stubbed": 7534,
      "springtime": 7535,
      "cottage": 7536,
      "exhibit": 7537,
      "whim": 7538,
      "topping": 7539,
      "shopper": 7540,
      "avy": 7541,
      "Sc": 7542,
      "Since": 7543,
      "exchange": 7544,
      "moderation": 7545,
      "messages": 7546,
      "discussing": 7547,
      "Outside": 7548,
      "Imagine": 7549,
      "dia": 7550,
      "preschool": 7551,
      "flips": 7552,
      "fills": 7553,
      "Stan": 7554,
      "Nancy": 7555,
      "glee": 7556,
      "Ruth": 7557,
      "clicked": 7558,
      "osh": 7559,
      "mommies": 7560,
      "llas": 7561,
      "brellas": 7562,
      "vast": 7563,
      "prayers": 7564,
      "Captain": 7565,
      "Mindy": 7566,
      "throughout": 7567,
      "teachers": 7568,
      "costs": 7569,
      "scratchy": 7570,
      "Ms": 7571,
      "aim": 7572,
      "mun": 7573,
      "insepar": 7574,
      "alley": 7575,
      "cracks": 7576,
      "firmly": 7577,
      "cigarette": 7578,
      "inseparable": 7579,
      "Judy": 7580,
      "Spir": 7581,
      "Taking": 7582,
      "cent": 7583,
      "endant": 7584,
      "ketch": 7585,
      "Roger": 7586,
      "belli": 7587,
      "address": 7588,
      "umbrellas": 7589,
      "angrier": 7590,
      "conut": 7591,
      "lunchbox": 7592,
      "Mixy": 7593,
      "Jonny": 7594,
      "Todd": 7595,
      "popping": 7596,
      "rowing": 7597,
      "baskets": 7598,
      "wrapper": 7599,
      "tests": 7600,
      "nearest": 7601,
      "Spirit": 7602,
      "understands": 7603,
      "observing": 7604,
      "erase": 7605,
      "wiggling": 7606,
      "annoy": 7607,
      "Desp": 7608,
      "Hug": 7609,
      "Hmm": 7610,
      "apers": 7611,
      "coconut": 7612,
      "Jacky": 7613,
      "weighing": 7614,
      "condition": 7615,
      "Maddy": 7616,
      "Despite": 7617,
      "noticing": 7618,
      "lotte": 7619,
      "ankle": 7620,
      "headache": 7621,
      "sweeter": 7622,
      "toothbrush": 7623,
      "Charlotte": 7624,
      "grasshopper": 7625,
      "bellies": 7626,
      "showers": 7627,
      "smoothly": 7628,
      "shortcut": 7629,
      "Barky": 7630,
      "scurrying": 7631,
      "tickling": 7632,
      "crickets": 7633,
      "slapping": 7634,
      "models": 7635,
      "experien": 7636,
      "approach": 7637,
      "Jelly": 7638,
      "Kelly": 7639,
      "More": 7640,
      "swat": 7641,
      "ats": 7642,
      "sess": 7643,
      "hoot": 7644,
      "lowered": 7645,
      "Everybody": 7646,
      "sandy": 7647,
      "cooled": 7648,
      "scent": 7649,
      "terrified": 7650,
      "Truck": 7651,
      "frowns": 7652,
      "Cook": 7653,
      "Holly": 7654,
      "Nor": 7655,
      "gonna": 7656,
      "becomes": 7657,
      "prank": 7658,
      "flu": 7659,
      "slee": 7660,
      "Drag": 7661,
      "plucked": 7662,
      "Tomorrow": 7663,
      "backs": 7664,
      "stuffing": 7665,
      "sneezes": 7666,
      "Birds": 7667,
      "repairing": 7668,
      "Clim": 7669,
      "Jolly": 7670,
      "shrank": 7671,
      "newfound": 7672,
      "pickles": 7673,
      "scam": 7674,
      "trusting": 7675,
      "newspapers": 7676,
      "paddling": 7677,
      "smartest": 7678,
      "Tiger": 7679,
      "Goldie": 7680,
      "University": 7681,
      "groan": 7682,
      "Bar": 7683,
      "gummy": 7684,
      "roo": 7685,
      "Chess": 7686,
      "wounds": 7687,
      "Daniel": 7688,
      "erk": 7689,
      "nightstand": 7690,
      "snowy": 7691,
      "tidying": 7692,
      "squeaked": 7693,
      "Alright": 7694,
      "burns": 7695,
      "automobiles": 7696,
      "immering": 7697,
      "echoed": 7698,
      "Kip": 7699,
      "Sw": 7700,
      "Spin": 7701,
      "Unt": 7702,
      "reappeared": 7703,
      "congratul": 7704,
      "awn": 7705,
      "stamped": 7706,
      "travels": 7707,
      "Monster": 7708,
      "ketchup": 7709,
      "Judge": 7710,
      "Pop": 7711,
      "Yet": 7712,
      "undone": 7713,
      "gardens": 7714,
      "goats": 7715,
      "grandfather": 7716,
      "sturdy": 7717,
      "Until": 7718,
      "Abi": 7719,
      "Right": 7720,
      "faded": 7721,
      "erosity": 7722,
      "beetles": 7723,
      "detail": 7724,
      "munched": 7725,
      "Candy": 7726,
      "limp": 7727,
      "ula": 7728,
      "Ange": 7729,
      "puzzled": 7730,
      "scoops": 7731,
      "Ame": 7732,
      "Kit": 7733,
      "ounce": 7734,
      "tastiest": 7735,
      "emerged": 7736,
      "Dina": 7737,
      "Oscar": 7738,
      "Pur": 7739,
      "storing": 7740,
      "kinder": 7741,
      "Jojo": 7742,
      "generosity": 7743,
      "spoiling": 7744,
      "ugging": 7745,
      "wealth": 7746,
      "juggling": 7747,
      "applauding": 7748,
      "Marie": 7749,
      "toddler": 7750,
      "unable": 7751,
      "urity": 7752,
      "spears": 7753,
      "facing": 7754,
      "lookout": 7755,
      "otters": 7756,
      "youngest": 7757,
      "sweaters": 7758,
      "Minnie": 7759,
      "birdseed": 7760,
      "blank": 7761,
      "cheated": 7762,
      "duckie": 7763,
      "security": 7764,
      "oscope": 7765,
      "regularly": 7766,
      "guards": 7767,
      "Should": 7768,
      "concent": 7769,
      "activity": 7770,
      "Maisy": 7771,
      "Nur": 7772,
      "glo": 7773,
      "whined": 7774,
      "trading": 7775,
      "steth": 7776,
      "winners": 7777,
      "matey": 7778,
      "toppings": 7779,
      "inches": 7780,
      "format": 7781,
      "ody": 7782,
      "realizing": 7783,
      "joyful": 7784,
      "snug": 7785,
      "twinkled": 7786,
      "completing": 7787,
      "considerate": 7788,
      "Play": 7789,
      "hudd": 7790,
      "pout": 7791,
      "ability": 7792,
      "types": 7793,
      "envelopes": 7794,
      "efforts": 7795,
      "Nurse": 7796,
      "Sis": 7797,
      "hil": 7798,
      "spy": 7799,
      "pleaded": 7800,
      "Becky": 7801,
      "scrub": 7802,
      "necks": 7803,
      "Eliz": 7804,
      "via": 7805,
      "flowed": 7806,
      "enjoyable": 7807,
      "cowboys": 7808,
      "mugs": 7809,
      "natural": 7810,
      "annoyed": 7811,
      "Eliza": 7812,
      "Bess": 7813,
      "Navy": 7814,
      "groom": 7815,
      "cafe": 7816,
      "mac": 7817,
      "forests": 7818,
      "swayed": 7819,
      "astronauts": 7820,
      "nuzzled": 7821,
      "sly": 7822,
      "lope": 7823,
      "carn": 7824,
      "chatted": 7825,
      "stethoscope": 7826,
      "Am": 7827,
      "hiss": 7828,
      "spies": 7829,
      "movements": 7830,
      "osite": 7831,
      "Chewy": 7832,
      "crafts": 7833,
      "carnival": 7834,
      "miest": 7835,
      "iff": 7836,
      "wiser": 7837,
      "attitude": 7838,
      "demanding": 7839,
      "swaying": 7840,
      "yummiest": 7841,
      "opposite": 7842,
      "encountered": 7843,
      "experienced": 7844,
      "formation": 7845,
      "Back": 7846,
      "Tur": 7847,
      "suck": 7848,
      "carve": 7849,
      "files": 7850,
      "webs": 7851,
      "pounds": 7852,
      "Jax": 7853,
      "La": 7854,
      "loses": 7855,
      "unstuck": 7856,
      "owning": 7857,
      "antlers": 7858,
      "Deal": 7859,
      "inj": 7860,
      "whoosh": 7861,
      "mood": 7862,
      "ilda": 7863,
      "warmly": 7864,
      "Tooth": 7865,
      "belle": 7866,
      "banged": 7867,
      "Wiggles": 7868,
      "electri": 7869,
      "court": 7870,
      "App": 7871,
      "stall": 7872,
      "cheating": 7873,
      "knit": 7874,
      "caterpillars": 7875,
      "posters": 7876,
      "cuddles": 7877,
      "Friend": 7878,
      "congratulated": 7879,
      "Din": 7880,
      "vin": 7881,
      "momma": 7882,
      "clerk": 7883,
      "thunderstorm": 7884,
      "sprinkle": 7885,
      "sternly": 7886,
      "concentr": 7887,
      "Brrr": 7888,
      "Math": 7889,
      "bly": 7890,
      "hy": 7891,
      "killed": 7892,
      "sooner": 7893,
      "structures": 7894,
      "recorder": 7895,
      "Feli": 7896,
      "iscu": 7897,
      "outfits": 7898,
      "sets": 7899,
      "scen": 7900,
      "stomp": 7901,
      "steering": 7902,
      "CD": 7903,
      "Herb": 7904,
      "conqu": 7905,
      "cages": 7906,
      "crowded": 7907,
      "iky": 7908,
      "weights": 7909,
      "opportunity": 7910,
      "mesmerized": 7911,
      "sill": 7912,
      "tumbled": 7913,
      "parted": 7914,
      "mold": 7915,
      "minding": 7916,
      "bushy": 7917,
      "tidied": 7918,
      "disappearing": 7919,
      "scampered": 7920,
      "huddled": 7921,
      "Must": 7922,
      "Te": 7923,
      "greet": 7924,
      "Boom": 7925,
      "nights": 7926,
      "flaps": 7927,
      "Still": 7928,
      "alligators": 7929,
      "skirts": 7930,
      "expert": 7931,
      "quacking": 7932,
      "Roo": 7933,
      "rior": 7934,
      "smashed": 7935,
      "cheers": 7936,
      "ective": 7937,
      "riverbank": 7938,
      "warrior": 7939,
      "spelling": 7940,
      "travelled": 7941,
      "electricity": 7942,
      "enem": 7943,
      "boiling": 7944,
      "coaster": 7945,
      "Beware": 7946,
      "Loop": 7947,
      "affect": 7948,
      "enemies": 7949,
      "jugg": 7950,
      "venir": 7951,
      "compar": 7952,
      "doorway": 7953,
      "differently": 7954,
      "fris": 7955,
      "compete": 7956,
      "dodged": 7957,
      "souvenir": 7958,
      "Arrr": 7959,
      "vas": 7960,
      "welcoming": 7961,
      "rails": 7962,
      "Danger": 7963,
      "cine": 7964,
      "gger": 7965,
      "canvas": 7966,
      "desp": 7967,
      "curl": 7968,
      "Start": 7969,
      "expecting": 7970,
      "wrench": 7971,
      "Bingo": 7972,
      "elbow": 7973,
      "soapy": 7974,
      "whistles": 7975,
      "interrup": 7976,
      "Dotty": 7977,
      "retrieved": 7978,
      "arranged": 7979,
      "Yoga": 7980,
      "despite": 7981,
      "Per": 7982,
      "sinking": 7983,
      "abby": 7984,
      "final": 7985,
      "Looks": 7986,
      "trigger": 7987,
      "exams": 7988,
      "computers": 7989,
      "comets": 7990,
      "styles": 7991,
      "fashionable": 7992,
      "challenged": 7993,
      "actors": 7994,
      "Amelia": 7995,
      "Mustache": 7996,
      "toward": 7997,
      "melody": 7998,
      "spits": 7999,
      "defin": 8000,
      "smoothie": 8001,
      "ita": 8002,
      "spiky": 8003,
      "stains": 8004,
      "darlings": 8005,
      "erasers": 8006,
      "keepers": 8007,
      "desper": 8008,
      "Tuesdays": 8009,
      "Bri": 8010,
      "Bally": 8011,
      "Fly": 8012,
      "Grac": 8013,
      "Tell": 8014,
      "birth": 8015,
      "scaredy": 8016,
      "blades": 8017,
      "trot": 8018,
      "warmed": 8019,
      "Megan": 8020,
      "instrument": 8021,
      "Life": 8022,
      "wig": 8023,
      "descri": 8024,
      "Peace": 8025,
      "zooms": 8026,
      "fishes": 8027,
      "neighbours": 8028,
      "Gracie": 8029,
      "Tri": 8030,
      "caps": 8031,
      "visits": 8032,
      "commotion": 8033,
      "explaining": 8034,
      "differences": 8035,
      "brains": 8036,
      "shooed": 8037,
      "rumbling": 8038,
      "Got": 8039,
      "Ria": 8040,
      "ghed": 8041,
      "ial": 8042,
      "rell": 8043,
      "boil": 8044,
      "bless": 8045,
      "cares": 8046,
      "custo": 8047,
      "tripping": 8048,
      "fanc": 8049,
      "interest": 8050,
      "troubles": 8051,
      "beaks": 8052,
      "lantern": 8053,
      "Dragon": 8054,
      "frisbee": 8055,
      "Ruff": 8056,
      "lur": 8057,
      "uing": 8058,
      "ands": 8059,
      "robin": 8060,
      "endings": 8061,
      "tilted": 8062,
      "caroni": 8063,
      "compromise": 8064,
      "Micro": 8065,
      "omb": 8066,
      "macaroni": 8067,
      "loudest": 8068,
      "boards": 8069,
      "crocodiles": 8070,
      "Missile": 8071,
      "discoveries": 8072,
      "chatting": 8073,
      "injured": 8074,
      "Fion": 8075,
      "Wha": 8076,
      "sacks": 8077,
      "chin": 8078,
      "trusty": 8079,
      "vacu": 8080,
      "Fiona": 8081,
      "Jason": 8082,
      "Rino": 8083,
      "Ricky": 8084,
      "paste": 8085,
      "waitress": 8086,
      "coughed": 8087,
      "quarrell": 8088,
      "simply": 8089,
      "cinema": 8090,
      "laces": 8091,
      "dolly": 8092,
      "obediently": 8093,
      "pressing": 8094,
      "pilots": 8095,
      "masterpiece": 8096,
      "nibbling": 8097,
      "bomb": 8098,
      "rebuild": 8099,
      "unwrapped": 8100,
      "soda": 8101,
      "etah": 8102,
      "taco": 8103,
      "flyer": 8104,
      "badger": 8105,
      "meaning": 8106,
      "bumping": 8107,
      "Moley": 8108,
      "scrape": 8109,
      "definitely": 8110,
      "Sing": 8111,
      "Spic": 8112,
      "onward": 8113,
      "wenty": 8114,
      "anyways": 8115,
      "pollen": 8116,
      "cursed": 8117,
      "chalks": 8118,
      "miller": 8119,
      "tiptoes": 8120,
      "risk": 8121,
      "Spicy": 8122,
      "Sil": 8123,
      "passes": 8124,
      "pouch": 8125,
      "mashed": 8126,
      "cheetah": 8127,
      "Bobbie": 8128,
      "visible": 8129,
      "mailing": 8130,
      "fans": 8131,
      "Elle": 8132,
      "performers": 8133,
      "Mole": 8134,
      "charged": 8135,
      "anticip": 8136,
      "scenery": 8137,
      "Lina": 8138,
      "rib": 8139,
      "booth": 8140,
      "goodness": 8141,
      "jumper": 8142,
      "construc": 8143,
      "heavily": 8144,
      "cops": 8145,
      "throne": 8146,
      "pecking": 8147,
      "Phew": 8148,
      "Yawn": 8149,
      "ridge": 8150,
      "wist": 8151,
      "ening": 8152,
      "hunger": 8153,
      "whether": 8154,
      "spaces": 8155,
      "explains": 8156,
      "complimented": 8157,
      "Felix": 8158,
      "customer": 8159,
      "Pink": 8160,
      "Sir": 8161,
      "faint": 8162,
      "nightlight": 8163,
      "riddle": 8164,
      "cousins": 8165,
      "annoying": 8166,
      "Park": 8167,
      "fus": 8168,
      "ana": 8169,
      "dock": 8170,
      "compan": 8171,
      "ruff": 8172,
      "joins": 8173,
      "ordering": 8174,
      "allowing": 8175,
      "crawls": 8176,
      "expression": 8177,
      "presented": 8178,
      "vacuum": 8179,
      "Care": 8180,
      "reaction": 8181,
      "range": 8182,
      "service": 8183,
      "harvest": 8184,
      "Cho": 8185,
      "rumbled": 8186,
      "swap": 8187,
      "glitt": 8188,
      "rods": 8189,
      ".'\"": 8190,
      "Angel": 8191,
      "AB": 8192,
      "jing": 8193,
      "ative": 8194,
      "faith": 8195,
      "nets": 8196,
      "ocular": 8197,
      "addie": 8198,
      "rewarding": 8199,
      "Rufus": 8200,
      "recommendation": 8201,
      "purrs": 8202,
      "magnifying": 8203,
      "Lightning": 8204,
      "oculars": 8205,
      "Over": 8206,
      "Rita": 8207,
      "crushed": 8208,
      "umbling": 8209,
      "hardest": 8210,
      "binoculars": 8211,
      "example": 8212,
      "Step": 8213,
      "challenges": 8214,
      "humming": 8215,
      "ipper": 8216,
      "mered": 8217,
      "embarrassing": 8218,
      "harmful": 8219,
      "Oxygen": 8220,
      "Crocod": 8221,
      "Jumpy": 8222,
      "Moppy": 8223,
      "leapt": 8224,
      "nasty": 8225,
      "owls": 8226,
      "Bea": 8227,
      "Seeing": 8228,
      "bathed": 8229,
      "Katy": 8230,
      "ABC": 8231,
      "Biggy": 8232,
      "washes": 8233,
      "cleans": 8234,
      "improving": 8235,
      "aprons": 8236,
      "writer": 8237,
      "responded": 8238,
      "Swim": 8239,
      "lurking": 8240,
      "Clucky": 8241,
      "Grow": 8242,
      "Rub": 8243,
      "Yel": 8244,
      "lim": 8245,
      "army": 8246,
      "hoy": 8247,
      "forgives": 8248,
      "Elsa": 8249,
      "sneaking": 8250,
      "ibi": 8251,
      "stroke": 8252,
      "occasion": 8253,
      "pace": 8254,
      "floppy": 8255,
      "process": 8256,
      "drip": 8257,
      "speaker": 8258,
      "holidays": 8259,
      "Olivia": 8260,
      "Louise": 8261,
      "birthdays": 8262,
      "Sal": 8263,
      "twenty": 8264,
      "gap": 8265,
      "rightful": 8266,
      "Maddie": 8267,
      "raincoats": 8268,
      "baa": 8269,
      "thieves": 8270,
      "Plus": 8271,
      "Ahoy": 8272,
      "Gilly": 8273,
      "ites": 8274,
      "inger": 8275,
      "carries": 8276,
      "sickness": 8277,
      "tickles": 8278,
      "tanks": 8279,
      "admiration": 8280,
      "gooey": 8281,
      "compared": 8282,
      "anticipation": 8283,
      "Gi": 8284,
      "Pene": 8285,
      "Race": 8286,
      "online": 8287,
      "acing": 8288,
      "devast": 8289,
      "prod": 8290,
      "stretches": 8291,
      "apologised": 8292,
      "meows": 8293,
      "desserts": 8294,
      "scolds": 8295,
      "Blinky": 8296,
      "groaned": 8297,
      "Penelope": 8298,
      "devastated": 8299,
      "Phil": 8300,
      "reappear": 8301,
      "Three": 8302,
      "common": 8303,
      "checks": 8304,
      "science": 8305,
      "disagreeing": 8306,
      "Shrink": 8307,
      "Yellow": 8308,
      "Eva": 8309,
      "Eating": 8310,
      "Mam": 8311,
      "bond": 8312,
      "ousel": 8313,
      "byes": 8314,
      "quizz": 8315,
      "Book": 8316,
      "nearly": 8317,
      "mysteries": 8318,
      "extraordinary": 8319,
      "details": 8320,
      "iscuit": 8321,
      "Bibi": 8322,
      "Cloud": 8323,
      "Flick": 8324,
      "Ty": 8325,
      "Vicky": 8326,
      "neighed": 8327,
      "rick": 8328,
      "carousel": 8329,
      "tale": 8330,
      "goodbyes": 8331,
      "shallow": 8332,
      "dripped": 8333,
      "gasp": 8334,
      "clubs": 8335,
      "imaginations": 8336,
      "sensation": 8337,
      "Rainbow": 8338,
      "prun": 8339,
      "surfed": 8340,
      "runny": 8341,
      "stew": 8342,
      "sandpit": 8343,
      "pitcher": 8344,
      "heels": 8345,
      "construction": 8346,
      "oos": 8347,
      "attempt": 8348,
      "underwater": 8349,
      "shares": 8350,
      "brightest": 8351,
      "Janey": 8352,
      "laptop": 8353,
      "aisles": 8354,
      "Frankie": 8355,
      "rooster": 8356,
      "Dis": 8357,
      "awoke": 8358,
      "level": 8359,
      "pled": 8360,
      "pred": 8361,
      "foam": 8362,
      "bounces": 8363,
      "revealing": 8364,
      "lumberjack": 8365,
      "tips": 8366,
      "Dogs": 8367,
      "broomstick": 8368,
      "sniffled": 8369,
      "skateboard": 8370,
      "rey": 8371,
      "reel": 8372,
      "iri": 8373,
      "Animal": 8374,
      "duckies": 8375,
      "cloths": 8376,
      "ribbit": 8377,
      "quizzes": 8378,
      "Free": 8379,
      "Pick": 8380,
      "medals": 8381,
      "guitars": 8382,
      "carts": 8383,
      "lizards": 8384,
      "snaps": 8385,
      "Ashley": 8386,
      "Smoke": 8387,
      "several": 8388,
      "juggle": 8389,
      "Startled": 8390,
      "companion": 8391,
      "hula": 8392,
      "ality": 8393,
      "stroller": 8394,
      "owns": 8395,
      "grily": 8396,
      "shall": 8397,
      "rocky": 8398,
      "bait": 8399,
      "flashed": 8400,
      "Lemon": 8401,
      "Oc": 8402,
      "cuc": 8403,
      "dears": 8404,
      "intment": 8405,
      "disobey": 8406,
      "continuing": 8407,
      "zookeepers": 8408,
      "Bonnie": 8409,
      "pointer": 8410,
      "Brian": 8411,
      "Fer": 8412,
      "Pine": 8413,
      "Worm": 8414,
      "although": 8415,
      "Heli": 8416,
      "parades": 8417,
      "declar": 8418,
      "drift": 8419,
      "ruled": 8420,
      "niece": 8421,
      "declared": 8422,
      "Bra": 8423,
      "Riri": 8424,
      "whine": 8425,
      "deck": 8426,
      "realizes": 8427,
      "brakes": 8428,
      "pinec": 8429,
      "awful": 8430,
      "Flora": 8431,
      "spelled": 8432,
      "ironing": 8433,
      "Wednesdays": 8434,
      "deserves": 8435,
      "Amber": 8436,
      "Eric": 8437,
      "toot": 8438,
      "isher": 8439,
      "sax": 8440,
      "unity": 8441,
      "doggie": 8442,
      "def": 8443,
      "beast": 8444,
      "promising": 8445,
      "chains": 8446,
      "protector": 8447,
      "hooves": 8448,
      "beaming": 8449,
      "Dinner": 8450,
      "Cars": 8451,
      "Freeze": 8452,
      "Prom": 8453,
      "mindful": 8454,
      "protection": 8455,
      "strips": 8456,
      "skinny": 8457,
      "Tippy": 8458,
      "tone": 8459,
      "raked": 8460,
      "Annabelle": 8461,
      "surely": 8462,
      "cris": 8463,
      "based": 8464,
      "painful": 8465,
      "seriously": 8466,
      "unlocking": 8467,
      "Mister": 8468,
      "Butterfly": 8469,
      "Otherwise": 8470,
      "Crocodile": 8471,
      "Vi": 8472,
      "caf": 8473,
      "cases": 8474,
      "disagreement": 8475,
      "farmers": 8476,
      "training": 8477,
      "bandaid": 8478,
      "tents": 8479,
      "rider": 8480,
      "cheerfully": 8481,
      "sleigh": 8482,
      "injuries": 8483,
      "trotted": 8484,
      "',": 8485,
      "Bucky": 8486,
      "Orange": 8487,
      "Tammy": 8488,
      "judged": 8489,
      "dragonfly": 8490,
      "frustration": 8491,
      "separating": 8492,
      "applause": 8493,
      "Speed": 8494,
      "Patty": 8495,
      "slithering": 8496,
      "diaper": 8497,
      "Promise": 8498,
      "café": 8499,
      "Ky": 8500,
      "Match": 8501,
      "bending": 8502,
      "bubbly": 8503,
      "lighting": 8504,
      "treating": 8505,
      "eggy": 8506,
      "ticking": 8507,
      "aids": 8508,
      "Horse": 8509,
      "Crane": 8510,
      "Jet": 8511,
      "Twist": 8512,
      "carefree": 8513,
      "snor": 8514,
      "chili": 8515,
      "moonlight": 8516,
      "thumbs": 8517,
      "events": 8518,
      "invites": 8519,
      "Patrick": 8520,
      "Mona": 8521,
      "scribbled": 8522,
      "Mus": 8523,
      "Peggy": 8524,
      "fif": 8525,
      "ka": 8526,
      "render": 8527,
      "unless": 8528,
      "acro": 8529,
      "susp": 8530,
      "apology": 8531,
      "Surrender": 8532,
      "servants": 8533,
      "Whale": 8534,
      "Mina": 8535,
      "lil": 8536,
      "ssess": 8537,
      "possess": 8538,
      "Bozo": 8539,
      "concer": 8540,
      "snorted": 8541,
      "Bees": 8542,
      "Bunbun": 8543,
      "kangaroos": 8544,
      "Butterflies": 8545,
      "flicker": 8546,
      "Mind": 8547,
      "Puff": 8548,
      "newly": 8549,
      "ophone": 8550,
      "moons": 8551,
      "handy": 8552,
      "glows": 8553,
      "sprays": 8554,
      "hippos": 8555,
      "panicking": 8556,
      "obstacle": 8557,
      "Im": 8558,
      "trusts": 8559,
      "scram": 8560,
      "Robin": 8561,
      "solutions": 8562,
      "Quickly": 8563,
      "Snake": 8564,
      "whimpered": 8565,
      "Silver": 8566,
      "saxophone": 8567,
      "Vivi": 8568,
      "Gabby": 8569,
      "Puffy": 8570,
      "unfair": 8571,
      "cooper": 8572,
      "funn": 8573,
      "grumble": 8574,
      "waters": 8575,
      "adventurer": 8576,
      "tastic": 8577,
      "sharpen": 8578,
      ",'": 8579,
      "Set": 8580,
      "pads": 8581,
      "invisible": 8582,
      "resolved": 8583,
      "adop": 8584,
      "rack": 8585,
      "couraged": 8586,
      "Spider": 8587,
      "intelligence": 8588,
      "Giant": 8589,
      "Ze": 8590,
      "troll": 8591,
      "rop": 8592,
      "ssy": 8593,
      "ballet": 8594,
      "combing": 8595,
      "property": 8596,
      "Bal": 8597,
      "Broc": 8598,
      "Com": 8599,
      "Du": 8600,
      "fade": 8601,
      "lish": 8602,
      "nations": 8603,
      "mats": 8604,
      "addition": 8605,
      "successfully": 8606,
      "desks": 8607,
      "retrieve": 8608,
      "ABCs": 8609,
      "stitched": 8610,
      "tightrope": 8611,
      "capture": 8612,
      "cooed": 8613,
      "bbing": 8614,
      "threads": 8615,
      "blush": 8616,
      "Duke": 8617,
      "Mop": 8618,
      "idy": 8619,
      "fail": 8620,
      "abilities": 8621,
      "patches": 8622,
      "conflicts": 8623,
      "lilies": 8624,
      "Girl": 8625,
      "plow": 8626,
      "witches": 8627,
      "carton": 8628,
      "bluebird": 8629,
      "barbec": 8630,
      "snapping": 8631,
      "tippy": 8632,
      "Catch": 8633,
      "striches": 8634,
      "cracker": 8635,
      "equally": 8636,
      "includes": 8637,
      "Kevin": 8638,
      "reversing": 8639,
      "Sale": 8640,
      "barbecue": 8641,
      "Cir": 8642,
      "Cream": 8643,
      "Zipper": 8644,
      "workshop": 8645,
      "stretchy": 8646,
      "dusted": 8647,
      "Thanksgiving": 8648,
      "Coal": 8649,
      "croaked": 8650,
      "disappointment": 8651,
      "woken": 8652,
      "thump": 8653,
      "god": 8654,
      "somehow": 8655,
      "cosy": 8656,
      "foreshadow": 8657,
      "poop": 8658,
      "assist": 8659,
      "discouraged": 8660,
      "woodcutter": 8661,
      "textures": 8662,
      "sincere": 8663,
      "chatter": 8664,
      "Clown": 8665,
      "sion": 8666,
      "aling": 8667,
      "cluck": 8668,
      "trim": 8669,
      "jesty": 8670,
      "seahorse": 8671,
      "calf": 8672,
      "cords": 8673,
      "tempted": 8674,
      "mayor": 8675,
      "sleds": 8676,
      "Purple": 8677,
      "Turn": 8678,
      "Furry": 8679,
      "Old": 8680,
      "ech": 8681,
      "liking": 8682,
      "chill": 8683,
      "misty": 8684,
      "boarded": 8685,
      "scene": 8686,
      "portal": 8687,
      "Robot": 8688,
      "risky": 8689,
      "introducing": 8690,
      "11": 8691,
      "information": 8692,
      "worst": 8693,
      "sline": 8694,
      "emma": 8695,
      "clothesline": 8696,
      "chews": 8697,
      "guarded": 8698,
      "caution": 8699,
      "behaviour": 8700,
      "sleeve": 8701,
      "scrambled": 8702,
      "Ginger": 8703,
      "Ind": 8704,
      "Jas": 8705,
      "Lady": 8706,
      "Won": 8707,
      "boiled": 8708,
      "royal": 8709,
      "grump": 8710,
      "surger": 8711,
      "rung": 8712,
      "Afterward": 8713,
      "choke": 8714,
      "Janet": 8715,
      "Reddy": 8716,
      "Cats": 8717,
      "delaying": 8718,
      "instantly": 8719,
      "scientists": 8720,
      "dodge": 8721,
      "Climb": 8722,
      "surgery": 8723,
      "Cluck": 8724,
      "Cleaning": 8725,
      "Span": 8726,
      "pendant": 8727,
      "enger": 8728,
      "mest": 8729,
      "poles": 8730,
      "fixer": 8731,
      "Joan": 8732,
      "sleepover": 8733,
      "swimsuits": 8734,
      "bowing": 8735,
      "stacks": 8736,
      "cuddling": 8737,
      "supplying": 8738,
      "lectures": 8739,
      "Woolly": 8740,
      "travelling": 8741,
      "injury": 8742,
      "Spanish": 8743,
      "mp": 8744,
      "halves": 8745,
      "coli": 8746,
      "parking": 8747,
      "seeking": 8748,
      "peep": 8749,
      "softened": 8750,
      "fantastic": 8751,
      "stained": 8752,
      "accepting": 8753,
      "hesitation": 8754,
      "Mae": 8755,
      "levers": 8756,
      "Matilda": 8757,
      "Broccoli": 8758,
      "Fun": 8759,
      "Gill": 8760,
      "Res": 8761,
      "Val": 8762,
      "Wal": 8763,
      "acle": 8764,
      "waggy": 8765,
      "aring": 8766,
      "rips": 8767,
      "lowers": 8768,
      "Grump": 8769,
      "toothpaste": 8770,
      "Stand": 8771,
      "March": 8772,
      "Drink": 8773,
      "puppets": 8774,
      "chugged": 8775,
      "Mamma": 8776,
      "Tyler": 8777,
      "Cic": 8778,
      "Fo": 8779,
      "Flex": 8780,
      "mers": 8781,
      "ics": 8782,
      "snowing": 8783,
      "freeing": 8784,
      "Rebec": 8785,
      "honeycomb": 8786,
      "adds": 8787,
      "chattered": 8788,
      "Horsie": 8789,
      "mower": 8790,
      "quarrelling": 8791,
      "Animals": 8792,
      "Cici": 8793,
      "Rebecca": 8794,
      "Zack": 8795,
      "flock": 8796,
      "stard": 8797,
      "Joke": 8798,
      "ips": 8799,
      "disobeyed": 8800,
      "ection": 8801,
      "bruises": 8802,
      "maps": 8803,
      "cherished": 8804,
      "striking": 8805,
      "snowflake": 8806,
      "911": 8807,
      "Money": 8808,
      "Sy": 8809,
      "Sit": 8810,
      "Terry": 8811,
      "rash": 8812,
      "angrily": 8813,
      "iny": 8814,
      "ellie": 8815,
      "shyly": 8816,
      "pizzas": 8817,
      "matchbox": 8818,
      "halfway": 8819,
      "musicians": 8820,
      "trailer": 8821,
      "zigzags": 8822,
      "cubs": 8823,
      "jigg": 8824,
      "sizz": 8825,
      "tugging": 8826,
      "local": 8827,
      "stor": 8828,
      "getic": 8829,
      "uster": 8830,
      "finishes": 8831,
      "winding": 8832,
      "gardening": 8833,
      "disgu": 8834,
      "Grand": 8835,
      "Elsie": 8836,
      "Stinky": 8837,
      "Cari": 8838,
      "melts": 8839,
      "Scissors": 8840,
      "Er": 8841,
      "Pot": 8842,
      "Sasha": 8843,
      "yuck": 8844,
      "unnecessary": 8845,
      "asy": 8846,
      "Thankfully": 8847,
      "intently": 8848,
      "warmest": 8849,
      "feathered": 8850,
      "knitting": 8851,
      "curse": 8852,
      "numbered": 8853,
      "attaching": 8854,
      "luckiest": 8855,
      "performer": 8856,
      "experiments": 8857,
      "Softy": 8858,
      "acrobats": 8859,
      "Cammy": 8860,
      "Rh": 8861,
      "lump": 8862,
      "rises": 8863,
      "ared": 8864,
      "issa": 8865,
      "wee": 8866,
      "canes": 8867,
      "catcher": 8868,
      "blamed": 8869,
      "Things": 8870,
      "brag": 8871,
      "signal": 8872,
      "Reliable": 8873,
      "Leopard": 8874,
      "silverware": 8875,
      "Lost": 8876,
      "Cheese": 8877,
      "crispy": 8878,
      "DV": 8879,
      "Har": 8880,
      "Jody": 8881,
      "Ly": 8882,
      "lasers": 8883,
      "armor": 8884,
      "hisses": 8885,
      "dirtier": 8886,
      "droop": 8887,
      "horri": 8888,
      "chicks": 8889,
      "laws": 8890,
      "community": 8891,
      "resisting": 8892,
      "exercised": 8893,
      "enemy": 8894,
      "DVD": 8895,
      "Rosa": 8896,
      "narrow": 8897,
      "lef": 8898,
      "adjust": 8899,
      "carved": 8900,
      "mustard": 8901,
      "sunburn": 8902,
      "liest": 8903,
      "pleas": 8904,
      "shoots": 8905,
      "knobs": 8906,
      "experiment": 8907,
      "concentrate": 8908,
      "suspic": 8909,
      "Waf": 8910,
      "sucked": 8911,
      "tover": 8912,
      "creep": 8913,
      "climber": 8914,
      "importantly": 8915,
      "fluff": 8916,
      "passion": 8917,
      "awk": 8918,
      "fuss": 8919,
      "Stripes": 8920,
      "pruning": 8921,
      "Ferris": 8922,
      "leftover": 8923,
      "Waffle": 8924,
      "Par": 8925,
      "wick": 8926,
      "savor": 8927,
      "hissing": 8928,
      "unzip": 8929,
      "unzipped": 8930,
      "doves": 8931,
      "ift": 8932,
      "teen": 8933,
      "Doll": 8934,
      "displaying": 8935,
      "oceans": 8936,
      "respond": 8937,
      "lasted": 8938,
      "sweating": 8939,
      "studio": 8940,
      "vests": 8941,
      "squeaky": 8942,
      "bends": 8943,
      "affy": 8944,
      "Pingo": 8945,
      "Slinky": 8946,
      "Buster": 8947,
      "Fay": 8948,
      "Fortun": 8949,
      "Mail": 8950,
      "invent": 8951,
      "unwrap": 8952,
      "unfamiliar": 8953,
      "ode": 8954,
      "hoses": 8955,
      "skies": 8956,
      "bubblegum": 8957,
      "gasps": 8958,
      "restaurants": 8959,
      "Marley": 8960,
      "scores": 8961,
      "Greeny": 8962,
      "wrinkly": 8963,
      "roasted": 8964,
      "Blackie": 8965,
      "sculptures": 8966,
      "Fortunately": 8967,
      "Lung": 8968,
      "Son": 8969,
      "cies": 8970,
      "White": 8971,
      "inting": 8972,
      "dedi": 8973,
      "Belie": 8974,
      "fences": 8975,
      "Uni": 8976,
      "shots": 8977,
      "palms": 8978,
      "Paula": 8979,
      "Shark": 8980,
      "particularly": 8981,
      "rinsed": 8982,
      "Nora": 8983,
      "pinecone": 8984,
      "suspicious": 8985,
      "Bro": 8986,
      "Four": 8987,
      "Willi": 8988,
      "bum": 8989,
      "reck": 8990,
      "onest": 8991,
      "usion": 8992,
      "squashes": 8993,
      "keyhole": 8994,
      "closure": 8995,
      "messier": 8996,
      "Alligator": 8997,
      "guardian": 8998,
      "Books": 8999,
      "William": 9000,
      "Riley": 9001,
      "jaws": 9002,
      "ostriches": 9003,
      "anny": 9004,
      "enclosure": 9005,
      "atest": 9006,
      "papa": 9007,
      "sleeps": 9008,
      "missiles": 9009,
      "copied": 9010,
      "motors": 9011,
      "squeezes": 9012,
      "emergencies": 9013,
      "tossing": 9014,
      "detective": 9015,
      "erupt": 9016,
      "obstacles": 9017,
      "Eve": 9018,
      "Gor": 9019,
      "Ka": 9020,
      "arrested": 9021,
      "oray": 9022,
      "pact": 9023,
      "leap": 9024,
      "fived": 9025,
      "venture": 9026,
      "tablecloth": 9027,
      "storybook": 9028,
      "wrappers": 9029,
      "hangs": 9030,
      "larger": 9031,
      "digs": 9032,
      "loyalty": 9033,
      "facts": 9034,
      "Believe": 9035,
      "Found": 9036,
      "Hank": 9037,
      "Scr": 9038,
      "Winter": 9039,
      "ths": 9040,
      "veled": 9041,
      "cables": 9042,
      "cated": 9043,
      "grade": 9044,
      "kissing": 9045,
      "pistols": 9046,
      "pedaling": 9047,
      "Trees": 9048,
      "Amanda": 9049,
      "Wonder": 9050,
      "Bull": 9051,
      "Swan": 9052,
      "restoring": 9053,
      "choking": 9054,
      "caw": 9055,
      "goodies": 9056,
      "tunes": 9057,
      "wildflowers": 9058,
      "hamster": 9059,
      "clips": 9060,
      "quacks": 9061,
      "Jean": 9062,
      "managing": 9063,
      "Simba": 9064,
      "heights": 9065,
      "Scratch": 9066,
      "Coffee": 9067,
      "Driver": 9068,
      "OO": 9069,
      "chard": 9070,
      "orchard": 9071,
      "hover": 9072,
      "hoof": 9073,
      "deciding": 9074,
      "kindest": 9075,
      "tured": 9076,
      "Johny": 9077,
      "tiara": 9078,
      "miracle": 9079,
      "ippers": 9080,
      "jacks": 9081,
      "flashlights": 9082,
      "persistence": 9083,
      "vinegar": 9084,
      "spirits": 9085,
      "rinse": 9086,
      "Brun": 9087,
      "Fr": 9088,
      "Five": 9089,
      "Sand": 9090,
      "Was": 9091,
      "bish": 9092,
      "gates": 9093,
      "ital": 9094,
      "illas": 9095,
      "invol": 9096,
      "speedy": 9097,
      "speaks": 9098,
      "turkeys": 9099,
      "wriggled": 9100,
      "Jellyfish": 9101,
      "tacos": 9102,
      "Bruno": 9103,
      "Cot": 9104,
      "Pen": 9105,
      "resource": 9106,
      "ecting": 9107,
      "greatest": 9108,
      "quilt": 9109,
      "Boat": 9110,
      "nicest": 9111,
      "donate": 9112,
      "hideout": 9113,
      "glimmering": 9114,
      "rubbish": 9115,
      "piled": 9116,
      "pricked": 9117,
      "leans": 9118,
      "Starry": 9119,
      "razors": 9120,
      "Cool": 9121,
      "infection": 9122,
      "energ": 9123,
      "energetic": 9124,
      "pearls": 9125,
      "Apple": 9126,
      "interrupted": 9127,
      "Li": 9128,
      "cran": 9129,
      "rais": 9130,
      "shh": 9131,
      "otherwise": 9132,
      "pecks": 9133,
      "shaker": 9134,
      "suns": 9135,
      "meetings": 9136,
      "stings": 9137,
      "sneaks": 9138,
      "squawked": 9139,
      "Cher": 9140,
      "Glow": 9141,
      "Offic": 9142,
      "Vio": 9143,
      "lumpy": 9144,
      "impact": 9145,
      "advan": 9146,
      "overflowing": 9147,
      "mony": 9148,
      "rags": 9149,
      "smoother": 9150,
      "alongside": 9151,
      "shields": 9152,
      "skeletons": 9153,
      "Squee": 9154,
      "entering": 9155,
      "softest": 9156,
      "stomachs": 9157,
      "flush": 9158,
      "Cotton": 9159,
      "Officer": 9160,
      "Aw": 9161,
      "Avery": 9162,
      "Alf": 9163,
      "Bel": 9164,
      "Mila": 9165,
      "Sug": 9166,
      "Whose": 9167,
      "spar": 9168,
      "mushy": 9169,
      "blade": 9170,
      "disaster": 9171,
      "ladybugs": 9172,
      "Toy": 9173,
      "meets": 9174,
      "Chil": 9175,
      "bills": 9176,
      "glittering": 9177,
      "Deer": 9178,
      "Again": 9179,
      "Berry": 9180,
      "Ever": 9181,
      "ruck": 9182,
      "whel": 9183,
      "plat": 9184,
      "unted": 9185,
      "earthquakes": 9186,
      "coconuts": 9187,
      "Law": 9188,
      "Number": 9189,
      "Past": 9190,
      "Rep": 9191,
      "Seat": 9192,
      "munk": 9193,
      "paramed": 9194,
      "blurry": 9195,
      "overwhel": 9196,
      "Inch": 9197,
      "Jose": 9198,
      "sells": 9199,
      "lamps": 9200,
      "exploration": 9201,
      "territory": 9202,
      "Whoa": 9203,
      "peels": 9204,
      "avoided": 9205,
      "Ahh": 9206,
      "occasions": 9207,
      "conquered": 9208,
      "snoring": 9209,
      "disguise": 9210,
      "Brad": 9211,
      "Ding": 9212,
      "cere": 9213,
      "racer": 9214,
      "champ": 9215,
      "frames": 9216,
      "snip": 9217,
      "passenger": 9218,
      "New": 9219,
      "calmer": 9220,
      "dialed": 9221,
      "suggesting": 9222,
      "salads": 9223,
      "trumpets": 9224,
      "enthusiastically": 9225,
      "recipes": 9226,
      "pokes": 9227,
      "confusion": 9228,
      "banging": 9229,
      "erupted": 9230,
      "Potato": 9231,
      "soggy": 9232,
      "gaining": 9233,
      "oldest": 9234,
      "hurtful": 9235,
      "fooled": 9236,
      "fetched": 9237,
      "harshly": 9238,
      "taxis": 9239,
      "festivals": 9240,
      "preventing": 9241,
      "possib": 9242,
      "thrill": 9243,
      "Liza": 9244,
      "croak": 9245,
      "Working": 9246,
      "squirted": 9247,
      "fanciest": 9248,
      "Immediately": 9249,
      "wicked": 9250,
      "gal": 9251,
      "gly": 9252,
      "sobbing": 9253,
      "blend": 9254,
      "dee": 9255,
      "Inky": 9256,
      "Looking": 9257,
      "purring": 9258,
      "bullies": 9259,
      "elders": 9260,
      "hammering": 9261,
      "recital": 9262,
      "Shake": 9263,
      "chipmunk": 9264,
      "Club": 9265,
      "squawk": 9266,
      "Children": 9267,
      "Bert": 9268,
      "Hot": 9269,
      "Ten": 9270,
      "ogre": 9271,
      "zippers": 9272,
      "state": 9273,
      "stray": 9274,
      "igner": 9275,
      "uncovered": 9276,
      "learner": 9277,
      "talons": 9278,
      "froggy": 9279,
      "explode": 9280,
      "snowed": 9281,
      "patients": 9282,
      "?”.": 9283,
      "postcard": 9284,
      "gorillas": 9285,
      "fascinating": 9286,
      "Sofia": 9287,
      "limping": 9288,
      "defend": 9289,
      "ceremony": 9290,
      "20": 9291,
      "waded": 9292,
      "prof": 9293,
      "winds": 9294,
      "Helen": 9295,
      "tingle": 9296,
      "wands": 9297,
      "folds": 9298,
      "sends": 9299,
      "grandchildren": 9300,
      "beeping": 9301,
      "Move": 9302,
      "admitted": 9303,
      "cucumbers": 9304,
      "Cha": 9305,
      "leng": 9306,
      "saddle": 9307,
      "blame": 9308,
      "Goose": 9309,
      "hamburger": 9310,
      "tagged": 9311,
      "pastor": 9312,
      "apartment": 9313,
      "Buttercup": 9314,
      "funniest": 9315,
      "galax": 9316,
      "12": 9317,
      "Cut": 9318,
      "Da": 9319,
      "Fix": 9320,
      "Gir": 9321,
      "Icy": 9322,
      "ico": 9323,
      "sipping": 9324,
      "”,": 9325,
      "iter": 9326,
      "halo": 9327,
      "album": 9328,
      "essa": 9329,
      "carriage": 9330,
      "homemade": 9331,
      "unexpectedly": 9332,
      "slur": 9333,
      "crum": 9334,
      "scrunch": 9335,
      "splitting": 9336,
      "collections": 9337,
      "yielding": 9338,
      "Martin": 9339,
      "honks": 9340,
      "Kyle": 9341,
      "cooperate": 9342,
      "Violet": 9343,
      "deeply": 9344,
      "Iron": 9345,
      "Rel": 9346,
      "bound": 9347,
      "lun": 9348,
      "oma": 9349,
      "unlike": 9350,
      "caves": 9351,
      "shimmering": 9352,
      "smel": 9353,
[...]
