{
  "version": "1.0",
  "truncation": null,
  "padding": null,
  "added_tokens": [
    {
      "id": 0,
      "content": "<s>",
      "single_word": false,
      "lstrip": false,
      "rstrip": false,
      "normalized": false,
      "special": true
    },
    {
      "id": 1,
      "content": "<pad>",
      "single_word": false,
      "lstrip": false,
      "rstrip": false,
      "normalized": false,
      "special": true
    },
    {
      "id": 2,
      "content": "</s>",
      "single_word": false,
      "lstrip": false,
      "rstrip": false,
      "normalized": false,
      "special": true
    },
    {
      "id": 3,
      "content": "<unk>",
      "single_word": false,
      "lstrip": false,
      "rstrip": false,
      "normalized": false,
      "special": true
    }
  ],
  "normalizer": null,
  "pre_tokenizer": {
    "type": "Whitespace"
  },
  "post_processor": null,
  "decoder": null,
  "model": {
    "type": "BPE",
    "dropout": null,
    "unk_token": null,
    "continuing_subword_prefix": null,
    "end_of_word_suffix": null,
    "fuse_unk": false,
    "byte_fallback": false,
    "ignore_merges": false,
    "vocab": {
      "<s>": 0,
      "<pad>": 1,
      "</s>": 2,
      "<unk>": 3,
      "!": 4,
      "\"": 5,
      "#": 6,
      "$": 7,
      "%": 8,
      "&": 9,
      "'": 10,
      "(": 11,
      ")": 12,
      "*": 13,
      "+": 14,
      ",": 15,
      "-": 16,
      ".": 17,
      "/": 18,
      "0": 19,
      "1": 20,
      "2": 21,
      "3": 22,
      "4": 23,
      "5": 24,
      "6": 25,
      "7": 26,
      "8": 27,
      "9": 28,
      ":": 29,
      ";": 30,
      "<": 31,
      "=": 32,
      ">": 33,
      "?": 34,
      "@": 35,
      "A": 36,
      "B": 37,
      "C": 38,
      "D": 39,
      "E": 40,
      "F": 41,
      "G": 42,
      "H": 43,
      "I": 44,
      "J": 45,
      "K": 46,
      "L": 47,
      "M": 48,
      "N": 49,
      "O": 50,
      "P": 51,
      "Q": 52,
      "R": 53,
      "S": 54,
      "T": 55,
      "U": 56,
      "V": 57,
      "W": 58,
      "X": 59,
      "Y": 60,
      "Z": 61,
      "[": 62,
      "\\": 63,
      "]": 64,
      "_": 65,
      "`": 66,
      "a": 67,
      "b": 68,
      "c": 69,
      "d": 70,
      "e": 71,
      "f": 72,
      "g": 73,
      "h": 74,
      "i": 75,
      "j": 76,
      "k": 77,
      "l": 78,
      "m": 79,
      "n": 80,
      "o": 81,
      "p": 82,
      "q": 83,
      "r": 84,
      "s": 85,
      "t": 86,
      "u": 87,
      "v": 88,
      "w": 89,
      "x": 90,
      "y": 91,
      "z": 92,
      "|": 93,
      "~": 94,
      "¡": 95,
      "£": 96,
      "­": 97,
      "´": 98,
      "·": 99,
      "ß": 100,
      "à": 101,
      "á": 102,
      "â": 103,
      "è": 104,
      "é": 105,
      "ê": 106,
      "í": 107,
      "ï": 108,
      "ñ": 109,
      "ó": 110,
      "İ": 111,
      "œ": 112,
      "​": 113,
      "‎": 114,
      "‐": 115,
      "–": 116,
      "—": 117,
      "―": 118,
      "‘": 119,
      "’": 120,
      "‚": 121,
      "“": 122,
      "”": 123,
      "…": 124,
      "‪": 125,
      "€": 126,
      "™": 127,
      "─": 128,
      "": 129,
      "﻿": 130,
      "�": 131,
      "he": 132,
      "an": 133,
      "the": 134,
      "ed": 135,
      "to": 136,
      "and": 137,
      "in": 138,
      "it": 139,
      "wa": 140,
      "re": 141,
      "ou": 142,
      "ha": 143,
      "er": 144,
      "was": 145,
      "en": 146,
      "om": 147,
      "im": 148,
      "ay": 149,
      "on": 150,
      "il": 151,
      "The": 152,
      "ar": 153,
      "id": 154,
      "is": 155,
      "sa": 156,
      "ing": 157,
      "le": 158,
      "al": 159,
      "lo": 160,
      "her": 161,
      "st": 162,
      "ily": 163,
      "ne": 164,
      "or": 165,
      "am": 166,
      "ir": 167,
      "Lily": 168,
      "pl": 169,
      "hat": 170,
      "be": 171,
      "at": 172,
      "ut": 173,
      "Tim": 174,
      "ri": 175,
      "day": 176,
      "my": 177,
      "ot": 178,
      "his": 179,
      "ver": 180,
      "ce": 181,
      "se": 182,
      "ith": 183,
      "ig": 184,
      "with": 185,
      "said": 186,
      "play": 187,
      "She": 188,
      "pp": 189,
      "ck": 190,
      "He": 191,
      "They": 192,
      "ld": 193,
      "all": 194,
      "ow": 195,
      "up": 196,
      "ke": 197,
      "th": 198,
      "un": 199,
      "that": 200,
      "she": 201,
      "ked": 202,
      "mom": 203,
      "end": 204,
      "ve": 205,
      "ted": 206,
      "itt": 207,
      "very": 208,
      "we": 209,
      "you": 210,
      "happ": 211,
      "they": 212,
      "of": 213,
      "ad": 214,
      "ime": 215,
      "time": 216,
      "big": 217,
      "li": 218,
      "fri": 219,
      "friend": 220,
      "ittle": 221,
      "little": 222,
      "ome": 223,
      "had": 224,
      "ent": 225,
      "for": 226,
      "ge": 227,
      "as": 228,
      "there": 229,
      "so": 230,
      "One": 231,
      "ch": 232,
      "nd": 233,
      "nam": 234,
      "el": 235,
      "ould": 236,
      "wan": 237,
      "happy": 238,
      "saw": 239,
      "ther": 240,
      "named": 241,
      "ved": 242,
      "On": 243,
      "but": 244,
      "bo": 245,
      "do": 246,
      "Timmy": 247,
      "Once": 248,
      "ly": 249,
      "upon": 250,
      "ro": 251,
      "ound": 252,
      ".\"": 253,
      "not": 254,
      "out": 255,
      "es": 256,
      "go": 257,
      "ok": 258,
      "ter": 259,
      "ide": 260,
      "ca": 261,
      "ht": 262,
      "ra": 263,
      "went": 264,
      "sh": 265,
      "ry": 266,
      "hel": 267,
      "friends": 268,
      "car": 269,
      "help": 270,
      "!\"": 271,
      "were": 272,
      "loved": 273,
      "wanted": 274,
      "It": 275,
      "sm": 276,
      "ird": 277,
      "way": 278,
      "bird": 279,
      "irl": 280,
      "ack": 281,
      "did": 282,
      "girl": 283,
      "toy": 284,
      "some": 285,
      "thing": 286,
      "ma": 287,
      "ul": 288,
      "ug": 289,
      "ind": 290,
      "him": 291,
      "ur": 292,
      "et": 293,
      "ame": 294,
      "Tom": 295,
      "could": 296,
      "rom": 297,
      "od": 298,
      "new": 299,
      "one": 300,
      "hen": 301,
      "ore": 302,
      "gether": 303,
      "fel": 304,
      "But": 305,
      "co": 306,
      "came": 307,
      "ho": 308,
      "ec": 309,
      "together": 310,
      "fun": 311,
      "side": 312,
      "ga": 313,
      "par": 314,
      "ful": 315,
      "can": 316,
      "ue": 317,
      "me": 318,
      "fe": 319,
      "?\"": 320,
      "tre": 321,
      "ax": 322,
      "too": 323,
      "asked": 324,
      "boy": 325,
      "ta": 326,
      "Max": 327,
      "sad": 328,
      "ill": 329,
      "cat": 330,
      "ght": 331,
      "man": 332,
      "back": 333,
      "have": 334,
      "star": 335,
      "felt": 336,
      "ic": 337,
      "them": 338,
      "are": 339,
      "own": 340,
      "found": 341,
      "their": 342,
      "sp": 343,
      "um": 344,
      "dog": 345,
      "park": 346,
      "hed": 347,
      "played": 348,
      "la": 349,
      "loo": 350,
      "sto": 351,
      "fa": 352,
      "gr": 353,
      "ick": 354,
      "looked": 355,
      "pr": 356,
      "smil": 357,
      "ong": 358,
      "now": 359,
      "started": 360,
      "low": 361,
      "other": 362,
      "would": 363,
      "ex": 364,
      "ball": 365,
      "ab": 366,
      "like": 367,
      "ran": 368,
      "tree": 369,
      "mommy": 370,
      "wor": 371,
      "got": 372,
      "use": 373,
      "Ben": 374,
      "ard": 375,
      "what": 376,
      "want": 377,
      "ure": 378,
      "see": 379,
      "didn": 380,
      "make": 381,
      "op": 382,
      "ud": 383,
      "ny": 384,
      "wal": 385,
      "ought": 386,
      "playing": 387,
      "ried": 388,
      "home": 389,
      "scar": 390,
      "ade": 391,
      "ouse": 392,
      "You": 393,
      "no": 394,
      "made": 395,
      "when": 396,
      "away": 397,
      "gain": 398,
      "more": 399,
      "ice": 400,
      "then": 401,
      "smiled": 402,
      "ty": 403,
      "again": 404,
      "every": 405,
      "good": 406,
      "ned": 407,
      "outside": 408,
      "toys": 409,
      "put": 410,
      "find": 411,
      "from": 412,
      "mu": 413,
      "ll": 414,
      "around": 415,
      "ways": 416,
      "ant": 417,
      "ss": 418,
      "Sue": 419,
      "lear": 420,
      "ened": 421,
      ",\"": 422,
      "cause": 423,
      "something": 424,
      "ep": 425,
      "ie": 426,
      "get": 427,
      "if": 428,
      "uck": 429,
      "always": 430,
      "ally": 431,
      "From": 432,
      "because": 433,
      "pe": 434,
      "thought": 435,
      "things": 436,
      "oud": 437,
      "ight": 438,
      "scared": 439,
      "liked": 440,
      "who": 441,
      "udd": 442,
      "Mom": 443,
      "down": 444,
      "ret": 445,
      "Sam": 446,
      "sha": 447,
      "red": 448,
      "Her": 449,
      "king": 450,
      "ol": 451,
      "took": 452,
      "dec": 453,
      "ust": 454,
      "about": 455,
      "know": 456,
      "care": 457,
      "ble": 458,
      "house": 459,
      "eat": 460,
      "pot": 461,
      "ate": 462,
      "your": 463,
      "any": 464,
      "told": 465,
      "ited": 466,
      "fter": 467,
      "knew": 468,
      "gre": 469,
      "small": 470,
      "look": 471,
      "tried": 472,
      "ided": 473,
      "pped": 474,
      "ish": 475,
      "decided": 476,
      "ach": 477,
      "us": 478,
      "by": 479,
      "ite": 480,
      "lot": 481,
      "der": 482,
      "So": 483,
      "say": 484,
      "learned": 485,
      "fore": 486,
      "room": 487,
      "dad": 488,
      "ous": 489,
      "ile": 490,
      "exc": 491,
      "wh": 492,
      "pret": 493,
      "Spot": 494,
      "box": 495,
      "udden": 496,
      "qu": 497,
      "pa": 498,
      "uddenly": 499,
      "lea": 500,
      "When": 501,
      "fly": 502,
      "ise": 503,
      "sun": 504,
      "cle": 505,
      "much": 506,
      "here": 507,
      "laug": 508,
      "ist": 509,
      "feel": 510,
      "nex": 511,
      "fo": 512,
      "lived": 513,
      "ers": 514,
      "will": 515,
      "gave": 516,
      "than": 517,
      "show": 518,
      "ven": 519,
      "ump": 520,
      "na": 521,
      "bot": 522,
      "mo": 523,
      "into": 524,
      "cl": 525,
      "bed": 526,
      "long": 527,
      "ive": 528,
      "clo": 529,
      "Suddenly": 530,
      "take": 531,
      "ac": 532,
      "water": 533,
      "need": 534,
      "excited": 535,
      "uc": 536,
      "tter": 537,
      "inside": 538,
      "As": 539,
      "how": 540,
      "ia": 541,
      "And": 542,
      "hug": 543,
      "bu": 544,
      "jo": 545,
      "sur": 546,
      "pick": 547,
      "couldn": 548,
      "bl": 549,
      "tr": 550,
      "ang": 551,
      "careful": 552,
      "His": 553,
      "many": 554,
      "flow": 555,
      "Let": 556,
      "bro": 557,
      "Mia": 558,
      "dy": 559,
      "dre": 560,
      "come": 561,
      "sw": 562,
      "pretty": 563,
      "run": 564,
      "became": 565,
      "We": 566,
      "over": 567,
      "iz": 568,
      "sk": 569,
      "te": 570,
      "ber": 571,
      "surpr": 572,
      "best": 573,
      "better": 574,
      "bear": 575,
      "shin": 576,
      "our": 577,
      "ink": 578,
      "rd": 579,
      "fi": 580,
      "fast": 581,
      "ised": 582,
      "just": 583,
      "never": 584,
      "kind": 585,
      "urt": 586,
      "ank": 587,
      "ged": 588,
      "lf": 589,
      "br": 590,
      "pla": 591,
      "po": 592,
      "imal": 593,
      "animal": 594,
      "Yes": 595,
      "ort": 596,
      "de": 597,
      "even": 598,
      "Bo": 599,
      "rab": 600,
      "this": 601,
      "clean": 602,
      "laughed": 603,
      "imp": 604,
      "jump": 605,
      "Th": 606,
      "wat": 607,
      "both": 608,
      "fle": 609,
      "list": 610,
      "rock": 611,
      "under": 612,
      "Luc": 613,
      "wo": 614,
      "Lucy": 615,
      "Thank": 616,
      "its": 617,
      "nice": 618,
      "rain": 619,
      "ving": 620,
      "old": 621,
      "After": 622,
      "read": 623,
      "Can": 624,
      "let": 625,
      "com": 626,
      "che": 627,
      "Then": 628,
      "where": 629,
      "says": 630,
      "cre": 631,
      "happened": 632,
      "heard": 633,
      "rong": 634,
      "ion": 635,
      "igh": 636,
      "walked": 637,
      "try": 638,
      "fish": 639,
      "hurt": 640,
      "animals": 641,
      "ground": 642,
      "proud": 643,
      "sor": 644,
      "ied": 645,
      "ara": 646,
      "eci": 647,
      "hand": 648,
      "don": 649,
      "sky": 650,
      "ell": 651,
      "flew": 652,
      "lad": 653,
      "lots": 654,
      "while": 655,
      "safe": 656,
      "fam": 657,
      "self": 658,
      "food": 659,
      "real": 660,
      "bea": 661,
      "unt": 662,
      "gh": 663,
      "nt": 664,
      "per": 665,
      "each": 666,
      "ass": 667,
      "That": 668,
      "ough": 669,
      "picked": 670,
      "pic": 671,
      "sorry": 672,
      "illy": 673,
      "off": 674,
      "repl": 675,
      "shiny": 676,
      "bit": 677,
      "idea": 678,
      "right": 679,
      "bad": 680,
      "app": 681,
      "Sara": 682,
      "fin": 683,
      "replied": 684,
      "Jack": 685,
      "love": 686,
      "What": 687,
      "tur": 688,
      "Benny": 689,
      "share": 690,
      "pu": 691,
      "rm": 692,
      "clim": 693,
      "ear": 694,
      "Bob": 695,
      "ning": 696,
      "Mommy": 697,
      "import": 698,
      "ture": 699,
      "loud": 700,
      "speci": 701,
      "special": 702,
      "anymore": 703,
      "family": 704,
      "An": 705,
      "beaut": 706,
      "lor": 707,
      "give": 708,
      "important": 709,
      "wind": 710,
      "thanked": 711,
      "pec": 712,
      "hugged": 713,
      "still": 714,
      "book": 715,
      "raw": 716,
      "rel": 717,
      "until": 718,
      "surprised": 719,
      "con": 720,
      "keep": 721,
      "ched": 722,
      "iful": 723,
      "beautiful": 724,
      "tal": 725,
      "arden": 726,
      "garden": 727,
      "forest": 728,
      "helped": 729,
      "being": 730,
      "ized": 731,
      "pected": 732,
      "mor": 733,
      "weet": 734,
      "near": 735,
      "walk": 736,
      "ople": 737,
      "nexpected": 738,
      "unexpected": 739,
      "ag": 740,
      "hard": 741,
      "ummy": 742,
      "vor": 743,
      "fell": 744,
      "bug": 745,
      "far": 746,
      "cha": 747,
      "ine": 748,
      "picture": 749,
      "after": 750,
      "In": 751,
      "cake": 752,
      "vent": 753,
      "ff": 754,
      "next": 755,
      "mber": 756,
      "cook": 757,
      "color": 758,
      "store": 759,
      "people": 760,
      "favor": 761,
      "favorite": 762,
      "showed": 763,
      "squ": 764,
      "cry": 765,
      "Wh": 766,
      "high": 767,
      "yes": 768,
      "member": 769,
      "sing": 770,
      "Anna": 771,
      "led": 772,
      "going": 773,
      "unny": 774,
      "ever": 775,
      "should": 776,
      "Amy": 777,
      "ished": 778,
      "listen": 779,
      "call": 780,
      "tow": 781,
      "place": 782,
      "great": 783,
      "Don": 784,
      "mon": 785,
      "lost": 786,
      "stay": 787,
      "ste": 788,
      "tin": 789,
      "remember": 790,
      "ies": 791,
      "bra": 792,
      "dan": 793,
      "set": 794,
      "ak": 795,
      "ru": 796,
      "mag": 797,
      "int": 798,
      "flowers": 799,
      "opened": 800,
      "truck": 801,
      "No": 802,
      "before": 803,
      "used": 804,
      "times": 805,
      "butter": 806,
      "met": 807,
      "strong": 808,
      "door": 809,
      "pt": 810,
      "okay": 811,
      "Every": 812,
      "ook": 813,
      "blue": 814,
      "fix": 815,
      "sl": 816,
      "watch": 817,
      "worry": 818,
      "Do": 819,
      "table": 820,
      "noise": 821,
      "ater": 822,
      "uff": 823,
      "ild": 824,
      "boat": 825,
      "realized": 826,
      "lease": 827,
      "ess": 828,
      "doll": 829,
      "joy": 830,
      "flower": 831,
      "story": 832,
      "ark": 833,
      "magic": 834,
      "night": 835,
      "yummy": 836,
      "advent": 837,
      "Billy": 838,
      "tor": 839,
      "ung": 840,
      "exp": 841,
      "swing": 842,
      "able": 843,
      "ves": 844,
      "work": 845,
      "lie": 846,
      "leep": 847,
      "rest": 848,
      "Jo": 849,
      "happily": 850,
      "bunny": 851,
      "fro": 852,
      "catch": 853,
      "won": 854,
      "lock": 855,
      "wait": 856,
      "uch": 857,
      "cream": 858,
      "mouse": 859,
      "dress": 860,
      "rabbit": 861,
      "irrel": 862,
      "Sally": 863,
      "face": 864,
      "ip": 865,
      "mis": 866,
      "Fin": 867,
      "draw": 868,
      "ner": 869,
      "also": 870,
      "key": 871,
      "ask": 872,
      "cu": 873,
      "stick": 874,
      "This": 875,
      "jumped": 876,
      "clos": 877,
      "stopped": 878,
      "everyone": 879,
      "ens": 880,
      "squirrel": 881,
      "others": 882,
      "owl": 883,
      "ph": 884,
      "oft": 885,
      "sat": 886,
      "brave": 887,
      "irst": 888,
      "called": 889,
      "frog": 890,
      "bar": 891,
      "less": 892,
      "kid": 893,
      "plan": 894,
      "adventure": 895,
      "feeling": 896,
      "ama": 897,
      "kept": 898,
      "game": 899,
      "ious": 900,
      "needed": 901,
      "les": 902,
      "butterfly": 903,
      "soon": 904,
      "ded": 905,
      "nod": 906,
      "din": 907,
      "ired": 908,
      "andma": 909,
      "ring": 910,
      "yard": 911,
      "row": 912,
      "slide": 913,
      "warm": 914,
      "sometimes": 915,
      "walking": 916,
      "ct": 917,
      "sand": 918,
      "Hel": 919,
      "Look": 920,
      "top": 921,
      "having": 922,
      "pie": 923,
      "cho": 924,
      "bor": 925,
      "dif": 926,
      "head": 927,
      "cut": 928,
      "pon": 929,
      "uffy": 930,
      "hear": 931,
      "luffy": 932,
      "ken": 933,
      "angry": 934,
      "ting": 935,
      "remembered": 936,
      "ath": 937,
      "bal": 938,
      "Wow": 939,
      "At": 940,
      "looking": 941,
      "kids": 942,
      "cou": 943,
      "race": 944,
      "tri": 945,
      "dis": 946,
      "ined": 947,
      "zy": 948,
      "sure": 949,
      "ree": 950,
      "open": 951,
      "ft": 952,
      "iced": 953,
      "smile": 954,
      "mean": 955,
      "tired": 956,
      "ued": 957,
      "fire": 958,
      "ster": 959,
      "ppy": 960,
      "buy": 961,
      "soft": 962,
      "kit": 963,
      "ket": 964,
      "prom": 965,
      "ect": 966,
      "brother": 967,
      "birds": 968,
      "flo": 969,
      "climb": 970,
      "first": 971,
      "sleep": 972,
      "enjoy": 973,
      "contin": 974,
      "hole": 975,
      "green": 976,
      "Hi": 977,
      "sound": 978,
      "chen": 979,
      "kitchen": 980,
      "lady": 981,
      "gan": 982,
      "wear": 983,
      "Now": 984,
      "nodded": 985,
      "rot": 986,
      "ught": 987,
      "hands": 988,
      "watched": 989,
      "agre": 990,
      "making": 991,
      "continued": 992,
      "eyes": 993,
      "Mr": 994,
      "party": 995,
      "duck": 996,
      "funny": 997,
      "cold": 998,
      "Hello": 999,
      "fere": 1000,
      "ward": 1001,
      "differe": 1002,
      "ollow": 1003,
      "laugh": 1004,
      "dir": 1005,
      "ident": 1006,
      "town": 1007,
      "shed": 1008,
      "itty": 1009,
      "Fluffy": 1010,
      "bre": 1011,
      "piece": 1012,
      "cand": 1013,
      "tell": 1014,
      "ash": 1015,
      "sho": 1016,
      "broken": 1017,
      "cried": 1018,
      "moral": 1019,
      "ient": 1020,
      "dro": 1021,
      "explo": 1022,
      "que": 1023,
      "two": 1024,
      "cident": 1025,
      "amaz": 1026,
      "pond": 1027,
      "Why": 1028,
      "noticed": 1029,
      "lion": 1030,
      "hid": 1031,
      "worked": 1032,
      "swim": 1033,
      "follow": 1034,
      "accident": 1035,
      "age": 1036,
      "please": 1037,
      "hot": 1038,
      "turned": 1039,
      "farm": 1040,
      "Kitty": 1041,
      "stand": 1042,
      "cool": 1043,
      "rough": 1044,
      "trees": 1045,
      "hind": 1046,
      "light": 1047,
      "bag": 1048,
      "aybe": 1049,
      "different": 1050,
      "cookies": 1051,
      "quick": 1052,
      "river": 1053,
      "hung": 1054,
      "daddy": 1055,
      "oney": 1056,
      "grandma": 1057,
      "talk": 1058,
      "move": 1059,
      "pul": 1060,
      "tra": 1061,
      "stop": 1062,
      "Tweet": 1063,
      "av": 1064,
      "win": 1065,
      "deli": 1066,
      "scary": 1067,
      "behind": 1068,
      "mess": 1069,
      "hair": 1070,
      "wel": 1071,
      "think": 1072,
      "surprise": 1073,
      "explore": 1074,
      "ger": 1075,
      "climbed": 1076,
      "air": 1077,
      "ready": 1078,
      "tall": 1079,
      "agreed": 1080,
      "song": 1081,
      "helping": 1082,
      "Joh": 1083,
      "Later": 1084,
      "John": 1085,
      "ries": 1086,
      "listened": 1087,
      "sweet": 1088,
      "grass": 1089,
      "running": 1090,
      "turn": 1091,
      "wrong": 1092,
      "cr": 1093,
      "coming": 1094,
      "curi": 1095,
      "build": 1096,
      "dark": 1097,
      "gu": 1098,
      "friendly": 1099,
      "owner": 1100,
      "dinner": 1101,
      "cars": 1102,
      "ange": 1103,
      "fr": 1104,
      "vis": 1105,
      "ub": 1106,
      "curious": 1107,
      "shared": 1108,
      "floor": 1109,
      "sed": 1110,
      "learn": 1111,
      "closer": 1112,
      "mar": 1113,
      "dance": 1114,
      "hungry": 1115,
      "quickly": 1116,
      "land": 1117,
      "another": 1118,
      "block": 1119,
      "sn": 1120,
      "dream": 1121,
      "ucky": 1122,
      "Sarah": 1123,
      "oun": 1124,
      "doing": 1125,
      "might": 1126,
      "prin": 1127,
      "ike": 1128,
      "Just": 1129,
      "ign": 1130,
      "accidentally": 1131,
      "teddy": 1132,
      "Dad": 1133,
      "pet": 1134,
      "cast": 1135,
      "forgot": 1136,
      "wet": 1137,
      "broke": 1138,
      "stuck": 1139,
      "leaves": 1140,
      "tail": 1141,
      "ittens": 1142,
      "touch": 1143,
      "rag": 1144,
      "pare": 1145,
      "brought": 1146,
      "grab": 1147,
      "hide": 1148,
      "med": 1149,
      "himself": 1150,
      "bright": 1151,
      "col": 1152,
      "asure": 1153,
      "sit": 1154,
      "herself": 1155,
      "ons": 1156,
      "wood": 1157,
      "bye": 1158,
      "cked": 1159,
      "gone": 1160,
      "dr": 1161,
      "left": 1162,
      "kay": 1163,
      "paper": 1164,
      "paint": 1165,
      "promised": 1166,
      "cor": 1167,
      "why": 1168,
      "ateful": 1169,
      "finished": 1170,
      "grateful": 1171,
      "ered": 1172,
      "fair": 1173,
      "close": 1174,
      "To": 1175,
      "gg": 1176,
      "danc": 1177,
      "pretend": 1178,
      "candy": 1179,
      "icy": 1180,
      "anything": 1181,
      "vo": 1182,
      "tle": 1183,
      "cla": 1184,
      "glad": 1185,
      "voice": 1186,
      "Tommy": 1187,
      "Mittens": 1188,
      "has": 1189,
      "grow": 1190,
      "ride": 1191,
      "hill": 1192,
      "em": 1193,
      "colors": 1194,
      "through": 1195,
      "Finally": 1196,
      "trying": 1197,
      "Oh": 1198,
      "really": 1199,
      "Maybe": 1200,
      "wing": 1201,
      "train": 1202,
      "ield": 1203,
      "tight": 1204,
      "puppy": 1205,
      "ballo": 1206,
      "wished": 1207,
      "fall": 1208,
      "arm": 1209,
      "cess": 1210,
      "sunny": 1211,
      "yel": 1212,
      "oup": 1213,
      "window": 1214,
      "hold": 1215,
      "ba": 1216,
      "wonder": 1217,
      "fru": 1218,
      "snow": 1219,
      "isy": 1220,
      "sis": 1221,
      "began": 1222,
      "full": 1223,
      "yellow": 1224,
      "pink": 1225,
      "parent": 1226,
      "bab": 1227,
      "While": 1228,
      "lue": 1229,
      "world": 1230,
      "word": 1231,
      "been": 1232,
      "pictures": 1233,
      "roll": 1234,
      "ple": 1235,
      "dirty": 1236,
      "seen": 1237,
      "hop": 1238,
      "tast": 1239,
      "everywhere": 1240,
      "someone": 1241,
      "erous": 1242,
      "ary": 1243,
      "eating": 1244,
      "nest": 1245,
      "moment": 1246,
      "flying": 1247,
      "castle": 1248,
      "goodbye": 1249,
      "ached": 1250,
      "bow": 1251,
      "wards": 1252,
      "dry": 1253,
      "thank": 1254,
      "only": 1255,
      "nap": 1256,
      "blocks": 1257,
      "Okay": 1258,
      "does": 1259,
      "olly": 1260,
      "There": 1261,
      "bran": 1262,
      "done": 1263,
      "visit": 1264,
      "break": 1265,
      "ze": 1266,
      "pat": 1267,
      "sear": 1268,
      "whe": 1269,
      "baby": 1270,
      "name": 1271,
      "monkey": 1272,
      "mus": 1273,
      "happen": 1274,
      "Em": 1275,
      "swa": 1276,
      "apple": 1277,
      "spo": 1278,
      "pre": 1279,
      "mi": 1280,
      "thy": 1281,
      "swam": 1282,
      "slow": 1283,
      "waited": 1284,
      "crying": 1285,
      "reached": 1286,
      "colorful": 1287,
      "gent": 1288,
      "wi": 1289,
      "appear": 1290,
      "pen": 1291,
      "pack": 1292,
      "beach": 1293,
      "reach": 1294,
      "heav": 1295,
      "plant": 1296,
      "stead": 1297,
      "held": 1298,
      "clothe": 1299,
      "carrot": 1300,
      "cup": 1301,
      "clothes": 1302,
      "zz": 1303,
      "chair": 1304,
      "stran": 1305,
      "illed": 1306,
      "sister": 1307,
      "parents": 1308,
      "wasn": 1309,
      "Everyone": 1310,
      "Sure": 1311,
      "ation": 1312,
      "wise": 1313,
      "cious": 1314,
      "fight": 1315,
      "upset": 1316,
      "mat": 1317,
      "ames": 1318,
      "pro": 1319,
      "ace": 1320,
      "expla": 1321,
      "heavy": 1322,
      "treasure": 1323,
      "finally": 1324,
      "towards": 1325,
      "enjoyed": 1326,
      "ctor": 1327,
      "getting": 1328,
      "dang": 1329,
      "treat": 1330,
      "wag": 1331,
      "everything": 1332,
      "fl": 1333,
      "Bobo": 1334,
      "monster": 1335,
      "music": 1336,
      "sy": 1337,
      "job": 1338,
      "lesson": 1339,
      "alone": 1340,
      "bike": 1341,
      "bigger": 1342,
      "pur": 1343,
      "delicious": 1344,
      "fur": 1345,
      "af": 1346,
      "sail": 1347,
      "cloud": 1348,
      "ju": 1349,
      "art": 1350,
      "bus": 1351,
      "followed": 1352,
      "woods": 1353,
      "perf": 1354,
      "understand": 1355,
      "Jan": 1356,
      "woke": 1357,
      "doctor": 1358,
      "mix": 1359,
      "arri": 1360,
      "smell": 1361,
      "hopped": 1362,
      "swings": 1363,
      "ele": 1364,
      "books": 1365,
      "money": 1366,
      "tain": 1367,
      "spot": 1368,
      "bath": 1369,
      "All": 1370,
      "je": 1371,
      "Be": 1372,
      "looks": 1373,
      "Jane": 1374,
      "wall": 1375,
      "ton": 1376,
      "games": 1377,
      "ance": 1378,
      "leave": 1379,
      "llie": 1380,
      "without": 1381,
      "zo": 1382,
      "blew": 1383,
      "outh": 1384,
      "tw": 1385,
      "outed": 1386,
      "mouth": 1387,
      "kno": 1388,
      "whis": 1389,
      "thre": 1390,
      "sea": 1391,
      "grabbed": 1392,
      "field": 1393,
      "board": 1394,
      "inted": 1395,
      "gif": 1396,
      "hor": 1397,
      "bite": 1398,
      "balloon": 1399,
      "must": 1400,
      "pulled": 1401,
      "Ted": 1402,
      "snack": 1403,
      "shouted": 1404,
      "caught": 1405,
      "igg": 1406,
      "stre": 1407,
      "heal": 1408,
      "pass": 1409,
      "tower": 1410,
      "ose": 1411,
      "arrived": 1412,
      "pushed": 1413,
      "cover": 1414,
      "shar": 1415,
      "ourse": 1416,
      "explained": 1417,
      "cy": 1418,
      "leg": 1419,
      "Blue": 1420,
      "deep": 1421,
      "tiny": 1422,
      "aisy": 1423,
      "bee": 1424,
      "ely": 1425,
      "pieces": 1426,
      "Go": 1427,
      "stayed": 1428,
      "sc": 1429,
      "dangerous": 1430,
      "dri": 1431,
      "pop": 1432,
      "threw": 1433,
      "waved": 1434,
      "nee": 1435,
      "chool": 1436,
      "free": 1437,
      "school": 1438,
      "mind": 1439,
      "Soon": 1440,
      "hit": 1441,
      "wouldn": 1442,
      "carefully": 1443,
      "bring": 1444,
      "phone": 1445,
      "mother": 1446,
      "elly": 1447,
      "gi": 1448,
      "black": 1449,
      "cket": 1450,
      "silly": 1451,
      "white": 1452,
      "Sammy": 1453,
      "appeared": 1454,
      "perfect": 1455,
      "worried": 1456,
      "Inside": 1457,
      "My": 1458,
      "comfor": 1459,
      "branch": 1460,
      "unch": 1461,
      "clapped": 1462,
      "drag": 1463,
      "hes": 1464,
      "ence": 1465,
      "itting": 1466,
      "else": 1467,
      "iet": 1468,
      "fox": 1469,
      "bowl": 1470,
      "enough": 1471,
      "adventures": 1472,
      "course": 1473,
      "anket": 1474,
      "blanket": 1475,
      "va": 1476,
      "pping": 1477,
      "quiet": 1478,
      "amazed": 1479,
      "ross": 1480,
      "plane": 1481,
      "sna": 1482,
      "ated": 1483,
      "dropped": 1484,
      "ila": 1485,
      "talked": 1486,
      "today": 1487,
      "orange": 1488,
      "farmer": 1489,
      "drink": 1490,
      "sharing": 1491,
      "wish": 1492,
      "well": 1493,
      "sick": 1494,
      "Lila": 1495,
      "soup": 1496,
      "itch": 1497,
      "princess": 1498,
      "amp": 1499,
      "fairy": 1500,
      "Teddy": 1501,
      "phant": 1502,
      "fruit": 1503,
      "pudd": 1504,
      "though": 1505,
      "chee": 1506,
      "instead": 1507,
      "amazing": 1508,
      "danced": 1509,
      "most": 1510,
      "jar": 1511,
      "rocks": 1512,
      "three": 1513,
      "pers": 1514,
      "gl": 1515,
      "storm": 1516,
      "elephant": 1517,
      "dolls": 1518,
      "backyard": 1519,
      "Daisy": 1520,
      "closed": 1521,
      "late": 1522,
      "pow": 1523,
      "bble": 1524,
      "ses": 1525,
      "sees": 1526,
      "morning": 1527,
      "ible": 1528,
      "uddy": 1529,
      "round": 1530,
      "mail": 1531,
      "cray": 1532,
      "sang": 1533,
      "bas": 1534,
      "such": 1535,
      "smart": 1536,
      "sitting": 1537,
      "ap": 1538,
      "join": 1539,
      "dragon": 1540,
      "strange": 1541,
      "year": 1542,
      "neigh": 1543,
      "leaf": 1544,
      "lunch": 1545,
      "searched": 1546,
      "oth": 1547,
      "val": 1548,
      "basket": 1549,
      "Please": 1550,
      "cow": 1551,
      "pes": 1552,
      "ull": 1553,
      "makes": 1554,
      "Of": 1555,
      "letter": 1556,
      "sign": 1557,
      "stood": 1558,
      "few": 1559,
      "Gr": 1560,
      "irt": 1561,
      "ugh": 1562,
      "creat": 1563,
      "\".": 1564,
      "juice": 1565,
      "crab": 1566,
      "cute": 1567,
      "turns": 1568,
      "ship": 1569,
      "sec": 1570,
      "barked": 1571,
      "seek": 1572,
      "belie": 1573,
      "ather": 1574,
      "mud": 1575,
      "neck": 1576,
      "carry": 1577,
      "Emma": 1578,
      "cheese": 1579,
      "fan": 1580,
      "wings": 1581,
      "pper": 1582,
      "mil": 1583,
      "wore": 1584,
      "ray": 1585,
      "coin": 1586,
      "chil": 1587,
      "past": 1588,
      "gift": 1589,
      "itten": 1590,
      "drawing": 1591,
      "egg": 1592,
      "dren": 1593,
      "shine": 1594,
      "pig": 1595,
      "fixed": 1596,
      "unk": 1597,
      "hig": 1598,
      "ben": 1599,
      "secret": 1600,
      "patient": 1601,
      "children": 1602,
      "apples": 1603,
      "purple": 1604,
      "Joe": 1605,
      "belong": 1606,
      "taking": 1607,
      "neighbor": 1608,
      "days": 1609,
      "live": 1610,
      "hiding": 1611,
      "brown": 1612,
      "shoes": 1613,
      "Ducky": 1614,
      "part": 1615,
      "wr": 1616,
      "welcome": 1617,
      "Tweety": 1618,
      "stone": 1619,
      "Buddy": 1620,
      "pil": 1621,
      "faster": 1622,
      "button": 1623,
      "lon": 1624,
      "count": 1625,
      "net": 1626,
      "spl": 1627,
      "ti": 1628,
      "road": 1629,
      "fit": 1630,
      "bottle": 1631,
      "rub": 1632,
      "boun": 1633,
      "uni": 1634,
      "blem": 1635,
      "problem": 1636,
      "throw": 1637,
      "bought": 1638,
      "colle": 1639,
      "smo": 1640,
      "cra": 1641,
      "ser": 1642,
      "singing": 1643,
      "filled": 1644,
      "Re": 1645,
      "dist": 1646,
      "suddenly": 1647,
      "sli": 1648,
      "snake": 1649,
      "shell": 1650,
      "spid": 1651,
      "ises": 1652,
      "band": 1653,
      "sug": 1654,
      "words": 1655,
      "driver": 1656,
      "likes": 1657,
      "pull": 1658,
      "pol": 1659,
      "milk": 1660,
      "bench": 1661,
      "Ne": 1662,
      "ian": 1663,
      "irth": 1664,
      "higher": 1665,
      "helpful": 1666,
      "fla": 1667,
      "wash": 1668,
      "buck": 1669,
      "wagged": 1670,
      "coat": 1671,
      "har": 1672,
      "Fred": 1673,
      "lonely": 1674,
      "craw": 1675,
      "irthday": 1676,
      "rug": 1677,
      "heart": 1678,
      "bat": 1679,
      "fused": 1680,
      "trip": 1681,
      "trou": 1682,
      "oc": 1683,
      "Whis": 1684,
      "berries": 1685,
      "cozy": 1686,
      "pocket": 1687,
      "Nemo": 1688,
      "talking": 1689,
      "cks": 1690,
      "forever": 1691,
      "answ": 1692,
      "Together": 1693,
      "paw": 1694,
      "nose": 1695,
      "start": 1696,
      "Some": 1697,
      "kers": 1698,
      "wand": 1699,
      "cal": 1700,
      "teac": 1701,
      "same": 1702,
      "idge": 1703,
      "Whiskers": 1704,
      "Come": 1705,
      "lake": 1706,
      "birthday": 1707,
      "tu": 1708,
      "erful": 1709,
      "umb": 1710,
      "prot": 1711,
      "tea": 1712,
      "mach": 1713,
      "seed": 1714,
      "rown": 1715,
      "kick": 1716,
      "tasty": 1717,
      "healthy": 1718,
      "eas": 1719,
      "missed": 1720,
      "knocked": 1721,
      "ches": 1722,
      "puddle": 1723,
      "street": 1724,
      "log": 1725,
      "rolled": 1726,
      "shelf": 1727,
      "ountain": 1728,
      "spider": 1729,
      "moved": 1730,
      "des": 1731,
      "drove": 1732,
      "spin": 1733,
      "believe": 1734,
      "teacher": 1735,
      "di": 1736,
      "pra": 1737,
      "honey": 1738,
      "push": 1739,
      "Ellie": 1740,
      "comfortable": 1741,
      "wants": 1742,
      "card": 1743,
      "grew": 1744,
      "orm": 1745,
      "ng": 1746,
      "organ": 1747,
      "Brown": 1748,
      "birdie": 1749,
      "ment": 1750,
      "collect": 1751,
      "spit": 1752,
      "bush": 1753,
      "sent": 1754,
      "gentle": 1755,
      "loom": 1756,
      "ban": 1757,
      "cookie": 1758,
      "shop": 1759,
      "building": 1760,
      "os": 1761,
      "teach": 1762,
      "banan": 1763,
      "landed": 1764,
      "nic": 1765,
      "ier": 1766,
      "shining": 1767,
      "drew": 1768,
      "war": 1769,
      "hero": 1770,
      "ants": 1771,
      "worm": 1772,
      "ize": 1773,
      "later": 1774,
      "ming": 1775,
      "su": 1776,
      "wra": 1777,
      "living": 1778,
      "wich": 1779,
      "sandwich": 1780,
      "nut": 1781,
      "shirt": 1782,
      "magical": 1783,
      "kite": 1784,
      "shy": 1785,
      "ude": 1786,
      "ek": 1787,
      "Le": 1788,
      "mod": 1789,
      "fence": 1790,
      "tent": 1791,
      "Good": 1792,
      "vel": 1793,
      "rainbow": 1794,
      "bur": 1795,
      "corn": 1796,
      "watching": 1797,
      "knee": 1798,
      "feather": 1799,
      "laughing": 1800,
      "sharp": 1801,
      "hu": 1802,
      "longer": 1803,
      "mine": 1804,
      "spital": 1805,
      "suc": 1806,
      "hospital": 1807,
      "ey": 1808,
      "songs": 1809,
      "umpy": 1810,
      "pract": 1811,
      "life": 1812,
      "quest": 1813,
      "pile": 1814,
      "horse": 1815,
      "mad": 1816,
      "mel": 1817,
      "busy": 1818,
      "chick": 1819,
      "rich": 1820,
      "ungle": 1821,
      "ped": 1822,
      "jungle": 1823,
      "gest": 1824,
      "cave": 1825,
      "bread": 1826,
      "ughty": 1827,
      "How": 1828,
      "hang": 1829,
      "onto": 1830,
      "naughty": 1831,
      "Daddy": 1832,
      "sack": 1833,
      "resting": 1834,
      "meet": 1835,
      "crayons": 1836,
      "pan": 1837,
      "raid": 1838,
      "picnic": 1839,
      "afraid": 1840,
      "epend": 1841,
      "fold": 1842,
      "inv": 1843,
      "olf": 1844,
      "spark": 1845,
      "puzz": 1846,
      "carrots": 1847,
      "shad": 1848,
      "along": 1849,
      "mum": 1850,
      "robot": 1851,
      "oven": 1852,
      "wonderful": 1853,
      "kis": 1854,
      "kitten": 1855,
      "esp": 1856,
      "Ch": 1857,
      "chocol": 1858,
      "gently": 1859,
      "chased": 1860,
      "scream": 1861,
      "smiles": 1862,
      "gen": 1863,
      "taste": 1864,
      "jour": 1865,
      "cir": 1866,
      "tomor": 1867,
      "tomorrow": 1868,
      "ular": 1869,
      "erry": 1870,
      "una": 1871,
      "swimming": 1872,
      "lice": 1873,
      "bled": 1874,
      "lemon": 1875,
      "bucket": 1876,
      "meant": 1877,
      "rope": 1878,
      "note": 1879,
      "kin": 1880,
      "uce": 1881,
      "peace": 1882,
      "Grandma": 1883,
      "asleep": 1884,
      "spicy": 1885,
      "wolf": 1886,
      "coun": 1887,
      "thin": 1888,
      "If": 1889,
      "ecially": 1890,
      "especially": 1891,
      "dirt": 1892,
      "sage": 1893,
      "holding": 1894,
      "messy": 1895,
      "foot": 1896,
      "pill": 1897,
      "bugs": 1898,
      "shake": 1899,
      "chocolate": 1900,
      "ced": 1901,
      "ling": 1902,
      "asks": 1903,
      "ert": 1904,
      "vill": 1905,
      "body": 1906,
      "yell": 1907,
      "den": 1908,
      "lucky": 1909,
      "tasted": 1910,
      "zoo": 1911,
      "sol": 1912,
      "cheered": 1913,
      "cean": 1914,
      "ocean": 1915,
      "ney": 1916,
      "save": 1917,
      "touc": 1918,
      "promise": 1919,
      "takes": 1920,
      "sounds": 1921,
      "seat": 1922,
      "vie": 1923,
      "covered": 1924,
      "shook": 1925,
      "slowly": 1926,
      "young": 1927,
      "drive": 1928,
      "miss": 1929,
      "OK": 1930,
      "protect": 1931,
      "fing": 1932,
      "glow": 1933,
      "bin": 1934,
      "inte": 1935,
      "min": 1936,
      "bone": 1937,
      "cage": 1938,
      "nearby": 1939,
      "confused": 1940,
      "sunshine": 1941,
      "Jim": 1942,
      "anyone": 1943,
      "knowing": 1944,
      "spoon": 1945,
      "sco": 1946,
      "ions": 1947,
      "getable": 1948,
      "wild": 1949,
      "touched": 1950,
      "da": 1951,
      "vegetable": 1952,
      "finish": 1953,
      "smelled": 1954,
      "umber": 1955,
      "turt": 1956,
      "ob": 1957,
      "wave": 1958,
      "ress": 1959,
      "splash": 1960,
      "Tweetie": 1961,
      "ugly": 1962,
      "wheel": 1963,
      "hello": 1964,
      "ones": 1965,
      "bake": 1966,
      "cleaned": 1967,
      "whole": 1968,
      "treats": 1969,
      "whistle": 1970,
      "joke": 1971,
      "vase": 1972,
      "izz": 1973,
      "Mim": 1974,
      "Mimi": 1975,
      "lown": 1976,
      "ella": 1977,
      "bubble": 1978,
      "gray": 1979,
      "stars": 1980,
      "myster": 1981,
      "string": 1982,
      "bru": 1983,
      "TV": 1984,
      "hidden": 1985,
      "mer": 1986,
      "bell": 1987,
      "Jen": 1988,
      "hoped": 1989,
      "village": 1990,
      "turtle": 1991,
      "fancy": 1992,
      "machine": 1993,
      "Jerry": 1994,
      "tid": 1995,
      "Pe": 1996,
      "balls": 1997,
      "spe": 1998,
      "couch": 1999,
      "orn": 2000,
      "imag": 2001,
      "lace": 2002,
      "cop": 2003,
      "whenever": 2004,
      "lt": 2005,
      "Bella": 2006,
      "interesting": 2007,
      "clever": 2008,
      "shapes": 2009,
      "jelly": 2010,
      "present": 2011,
      "test": 2012,
      "write": 2013,
      "hone": 2014,
      "sour": 2015,
      "roar": 2016,
      "retur": 2017,
      "grumpy": 2018,
      "wide": 2019,
      "tidy": 2020,
      "shes": 2021,
      "zoom": 2022,
      "waiting": 2023,
      "rude": 2024,
      "cloth": 2025,
      "Are": 2026,
      "wondered": 2027,
      "tie": 2028,
      "saved": 2029,
      "fron": 2030,
      "barr": 2031,
      "necklace": 2032,
      "stories": 2033,
      "embarr": 2034,
      "roc": 2035,
      "boss": 2036,
      "honest": 2037,
      "front": 2038,
      "clown": 2039,
      "pillow": 2040,
      "spoil": 2041,
      "Hey": 2042,
      "!”": 2043,
      "calm": 2044,
      "smooth": 2045,
      "rank": 2046,
      ".”": 2047,
      "embarrass": 2048,
      "fli": 2049,
      "gust": 2050,
      "tightly": 2051,
      "giant": 2052,
      "Molly": 2053,
      "twin": 2054,
      "snowman": 2055,
      "wearing": 2056,
      "working": 2057,
      "change": 2058,
      "vous": 2059,
      "resp": 2060,
      "ult": 2061,
      "rad": 2062,
      "path": 2063,
      "lay": 2064,
      "years": 2065,
      "impress": 2066,
      "bul": 2067,
      "puzzle": 2068,
      "cape": 2069,
      "pizz": 2070,
      "fruits": 2071,
      "prince": 2072,
      "andpa": 2073,
      "emp": 2074,
      "ducks": 2075,
      "group": 2076,
      "empty": 2077,
      "plate": 2078,
      "ast": 2079,
      "selfish": 2080,
      "ars": 2081,
      "gigg": 2082,
      "spray": 2083,
      "est": 2084,
      "pizza": 2085,
      "runs": 2086,
      "ich": 2087,
      "ness": 2088,
      "vegetables": 2089,
      "Bun": 2090,
      "scre": 2091,
      "trouble": 2092,
      "Leo": 2093,
      "circle": 2094,
      "noises": 2095,
      "fil": 2096,
      "ladder": 2097,
      "huge": 2098,
      "ughter": 2099,
      "step": 2100,
      "Their": 2101,
      "thinks": 2102,
      "sup": 2103,
      "daughter": 2104,
      "gather": 2105,
      "fighting": 2106,
      "line": 2107,
      "fake": 2108,
      "jewel": 2109,
      "pin": 2110,
      "pretended": 2111,
      "pointed": 2112,
      "arms": 2113,
      "chest": 2114,
      "ending": 2115,
      "pain": 2116,
      "tool": 2117,
      "izzy": 2118,
      "sleepy": 2119,
      "van": 2120,
      "forget": 2121,
      "moon": 2122,
      "kn": 2123,
      "Johnny": 2124,
      "trust": 2125,
      "case": 2126,
      "slid": 2127,
      "era": 2128,
      "decor": 2129,
      "person": 2130,
      "nervous": 2131,
      "class": 2132,
      "across": 2133,
      "ensive": 2134,
      "clouds": 2135,
      "expensive": 2136,
      "irp": 2137,
      "act": 2138,
      "lazy": 2139,
      "jumping": 2140,
      "Emily": 2141,
      "sheep": 2142,
      "legs": 2143,
      "Your": 2144,
      "stepped": 2145,
      "reg": 2146,
      "pool": 2147,
      "twins": 2148,
      "feels": 2149,
      "lovely": 2150,
      "imed": 2151,
      "res": 2152,
      "search": 2153,
      "easy": 2154,
      "drank": 2155,
      "stair": 2156,
      "smelly": 2157,
      "remind": 2158,
      "last": 2159,
      "Remy": 2160,
      "dogs": 2161,
      "peaceful": 2162,
      "carried": 2163,
      "embarrassed": 2164,
      "Jill": 2165,
      "cross": 2166,
      "which": 2167,
      "drum": 2168,
      "yo": 2169,
      "Mark": 2170,
      "beak": 2171,
      "Where": 2172,
      "deer": 2173,
      "usu": 2174,
      "law": 2175,
      "police": 2176,
      "iting": 2177,
      "osa": 2178,
      "pri": 2179,
      "weak": 2180,
      "print": 2181,
      "cleaning": 2182,
      "sold": 2183,
      "snacks": 2184,
      "stud": 2185,
      "form": 2186,
      "shr": 2187,
      "queen": 2188,
      "places": 2189,
      "cord": 2190,
      "sticks": 2191,
      "osaur": 2192,
      "Bunny": 2193,
      "ggy": 2194,
      "bossy": 2195,
      "sweetie": 2196,
      "berry": 2197,
      "dinosaur": 2198,
      "gun": 2199,
      "closet": 2200,
      "Brownie": 2201,
      "eth": 2202,
      "mir": 2203,
      "teeth": 2204,
      "towel": 2205,
      "gold": 2206,
      "stir": 2207,
      "Bu": 2208,
      "understood": 2209,
      "swe": 2210,
      "plants": 2211,
      "isa": 2212,
      "add": 2213,
      "powerful": 2214,
      "creative": 2215,
      "pay": 2216,
      "passed": 2217,
      "chase": 2218,
      "erly": 2219,
      "rocket": 2220,
      "Red": 2221,
      "hope": 2222,
      "lift": 2223,
      "gy": 2224,
      "Lisa": 2225,
      "Mama": 2226,
      "check": 2227,
      "eag": 2228,
      "excla": 2229,
      "blow": 2230,
      "relie": 2231,
      "ery": 2232,
      "ail": 2233,
      "exclaimed": 2234,
      "brush": 2235,
      "sugar": 2236,
      "Ollie": 2237,
      "furry": 2238,
      "ator": 2239,
      "sell": 2240,
      "lead": 2241,
      "wom": 2242,
      "aser": 2243,
      "woman": 2244,
      "answer": 2245,
      "cri": 2246,
      "mountain": 2247,
      "medic": 2248,
      "success": 2249,
      "ake": 2250,
      "fear": 2251,
      "chew": 2252,
      "seemed": 2253,
      "map": 2254,
      "medicine": 2255,
      "sort": 2256,
      "weird": 2257,
      "Tin": 2258,
      "clear": 2259,
      "space": 2260,
      "lose": 2261,
      "spla": 2262,
      "dish": 2263,
      "cater": 2264,
      "caterpill": 2265,
      "stret": 2266,
      "famous": 2267,
      "spilled": 2268,
      "matter": 2269,
      "dancing": 2270,
      "shark": 2271,
      "chicken": 2272,
      "hing": 2273,
      "motor": 2274,
      "Bet": 2275,
      "nothing": 2276,
      "het": 2277,
      "point": 2278,
      "hetti": 2279,
      "usual": 2280,
      "lves": 2281,
      "icro": 2282,
      "meal": 2283,
      "happening": 2284,
      "mysterious": 2285,
      "itter": 2286,
      "spag": 2287,
      "spaghetti": 2288,
      "tummy": 2289,
      "relieved": 2290,
      "cap": 2291,
      "lar": 2292,
      "match": 2293,
      "boring": 2294,
      "painting": 2295,
      "scare": 2296,
      "maybe": 2297,
      "anc": 2298,
      "caterpillar": 2299,
      "vide": 2300,
      "Sometimes": 2301,
      "dizzy": 2302,
      "polite": 2303,
      "organized": 2304,
      "Mary": 2305,
      "jack": 2306,
      "cele": 2307,
      "celebr": 2308,
      "order": 2309,
      "ume": 2310,
      "wha": 2311,
      "soap": 2312,
      "With": 2313,
      "comes": 2314,
      "cur": 2315,
      "Here": 2316,
      "micro": 2317,
      "tig": 2318,
      "spent": 2319,
      "gate": 2320,
      "taught": 2321,
      "journey": 2322,
      "mixed": 2323,
      "loves": 2324,
      "team": 2325,
      "moving": 2326,
      "pray": 2327,
      "pump": 2328,
      "breath": 2329,
      "rare": 2330,
      "ustr": 2331,
      "asking": 2332,
      "jog": 2333,
      "crown": 2334,
      "hur": 2335,
      "hugs": 2336,
      "ps": 2337,
      "noisy": 2338,
      "child": 2339,
      "finding": 2340,
      "forgive": 2341,
      "tory": 2342,
      "bald": 2343,
      "ually": 2344,
      "missing": 2345,
      "ity": 2346,
      "ten": 2347,
      "ado": 2348,
      "feet": 2349,
      "tick": 2350,
      "faces": 2351,
      "stuff": 2352,
      "poor": 2353,
      "frustr": 2354,
      "balloons": 2355,
      "dol": 2356,
      "true": 2357,
      "tun": 2358,
      "rid": 2359,
      "slipped": 2360,
      "large": 2361,
      "guit": 2362,
      "whale": 2363,
      "pair": 2364,
      "cannot": 2365,
      "glass": 2366,
      "ipp": 2367,
      "locked": 2368,
      "Help": 2369,
      "norm": 2370,
      "ragile": 2371,
      "snee": 2372,
      "ignor": 2373,
      "banana": 2374,
      "rod": 2375,
      "often": 2376,
      "stairs": 2377,
      "splashed": 2378,
      "ventually": 2379,
      "Ann": 2380,
      "fragile": 2381,
      "bles": 2382,
      "bri": 2383,
      "number": 2384,
      "pumpkin": 2385,
      "normal": 2386,
      "ilt": 2387,
      "shoot": 2388,
      "jacket": 2389,
      "jam": 2390,
      "borrow": 2391,
      "ror": 2392,
      "become": 2393,
      "zed": 2394,
      "mark": 2395,
      "asha": 2396,
      "exam": 2397,
      "guitar": 2398,
      "frustrated": 2399,
      "flag": 2400,
      "seem": 2401,
      "using": 2402,
      "boot": 2403,
      "alous": 2404,
      "straw": 2405,
      "feed": 2406,
      "unique": 2407,
      "hose": 2408,
      "jealous": 2409,
      "dest": 2410,
      "ours": 2411,
      "tough": 2412,
      "feathers": 2413,
      "lamp": 2414,
      "apo": 2415,
      "glue": 2416,
      "scarf": 2417,
      "batter": 2418,
      "spoiled": 2419,
      "apolog": 2420,
      "dolph": 2421,
      "flies": 2422,
      "bridge": 2423,
      "ero": 2424,
      "ashamed": 2425,
      "wake": 2426,
      "mirror": 2427,
      "anut": 2428,
      "ute": 2429,
      "Mrs": 2430,
      "march": 2431,
      "umble": 2432,
      "shout": 2433,
      "stic": 2434,
      "Cat": 2435,
      "cone": 2436,
      "gra": 2437,
      "packed": 2438,
      "yelled": 2439,
      "breakfast": 2440,
      "cred": 2441,
      "eld": 2442,
      "spread": 2443,
      "Chirp": 2444,
      "generous": 2445,
      "branches": 2446,
      "acorn": 2447,
      "Luna": 2448,
      "fill": 2449,
      "explor": 2450,
      "incred": 2451,
      "terri": 2452,
      "str": 2453,
      "creature": 2454,
      "andy": 2455,
      "issor": 2456,
      "yourself": 2457,
      "built": 2458,
      "born": 2459,
      "washed": 2460,
      "cate": 2461,
      "dig": 2462,
      "whisper": 2463,
      "issors": 2464,
      "yal": 2465,
      "cher": 2466,
      "thick": 2467,
      "unusual": 2468,
      "cil": 2469,
      "eggs": 2470,
      "shadow": 2471,
      "dough": 2472,
      "vet": 2473,
      "Me": 2474,
      "swan": 2475,
      "cost": 2476,
      "suggest": 2477,
      "fridge": 2478,
      "pencil": 2479,
      "incredible": 2480,
      "movie": 2481,
      "fic": 2482,
      "fine": 2483,
      "leaving": 2484,
      "finger": 2485,
      "driving": 2486,
      "ham": 2487,
      "exploring": 2488,
      "elderly": 2489,
      "toma": 2490,
      "tomato": 2491,
      "tiger": 2492,
      "balance": 2493,
      "hopping": 2494,
      "diffic": 2495,
      "stub": 2496,
      "harm": 2497,
      "robe": 2498,
      "offered": 2499,
      "bounce": 2500,
      "scissors": 2501,
      "mistake": 2502,
      "seeds": 2503,
      "solve": 2504,
      "arn": 2505,
      "bathroom": 2506,
      "these": 2507,
      "difficult": 2508,
      "loudly": 2509,
      "tele": 2510,
      "Even": 2511,
      "wrot": 2512,
      "wrote": 2513,
      "peanut": 2514,
      "yarn": 2515,
      "kicked": 2516,
      "taken": 2517,
      "Bobby": 2518,
      "bloom": 2519,
      "giving": 2520,
      "El": 2521,
      "loyal": 2522,
      "kiss": 2523,
      "shore": 2524,
      "witch": 2525,
      "ancient": 2526,
      "fat": 2527,
      "clock": 2528,
      "pir": 2529,
      "vest": 2530,
      "lli": 2531,
      "week": 2532,
      "useful": 2533,
      "tape": 2534,
      "mighty": 2535,
      "cart": 2536,
      "waves": 2537,
      "stat": 2538,
      "Chirpy": 2539,
      "delicate": 2540,
      "stubborn": 2541,
      "dead": 2542,
      "painted": 2543,
      "sword": 2544,
      "fluffy": 2545,
      "rode": 2546,
      "cabin": 2547,
      "wagon": 2548,
      "bubbles": 2549,
      "terrible": 2550,
      "sque": 2551,
      "Stop": 2552,
      "ugg": 2553,
      "licked": 2554,
      "giggled": 2555,
      "gum": 2556,
      "Polly": 2557,
      "bushes": 2558,
      "port": 2559,
      "udge": 2560,
      "clum": 2561,
      "dolphin": 2562,
      "barn": 2563,
      "Bird": 2564,
      "popcorn": 2565,
      "Bear": 2566,
      "soar": 2567,
      "clumsy": 2568,
      "lolli": 2569,
      "compet": 2570,
      "market": 2571,
      "weal": 2572,
      "fre": 2573,
      "lollipop": 2574,
      "flash": 2575,
      "fright": 2576,
      "libr": 2577,
      "bitter": 2578,
      "supp": 2579,
      "oppy": 2580,
      "nown": 2581,
      "unknown": 2582,
      "uring": 2583,
      "tag": 2584,
      "escape": 2585,
      "tripped": 2586,
      "fool": 2587,
      "mailbox": 2588,
      "ighed": 2589,
      "measure": 2590,
      "screamed": 2591,
      "del": 2592,
      "anyway": 2593,
      "fier": 2594,
      "Who": 2595,
      "ond": 2596,
      "nosy": 2597,
      "bean": 2598,
      "Momo": 2599,
      "oured": 2600,
      "iver": 2601,
      "Jimmy": 2602,
      "crazy": 2603,
      "ato": 2604,
      "forgave": 2605,
      "fierce": 2606,
      "dove": 2607,
      "coco": 2608,
      "rh": 2609,
      "obed": 2610,
      "dreaming": 2611,
      "Zo": 2612,
      "strug": 2613,
      "study": 2614,
      "Andy": 2615,
      "lif": 2616,
      "hun": 2617,
      "statue": 2618,
      "rella": 2619,
      "office": 2620,
      "illi": 2621,
      "frightened": 2622,
      "kindness": 2623,
      "flex": 2624,
      "obedient": 2625,
      "umbrella": 2626,
      "dug": 2627,
      "stove": 2628,
      "gloom": 2629,
      "gas": 2630,
      "sauce": 2631,
      "dull": 2632,
      "bored": 2633,
      "successful": 2634,
      "wealthy": 2635,
      "uncomfortable": 2636,
      "foolish": 2637,
      "coura": 2638,
      "ipped": 2639,
      "Snow": 2640,
      "means": 2641,
      "rise": 2642,
      "depend": 2643,
      "?”": 2644,
      "wis": 2645,
      "flexible": 2646,
      "nuts": 2647,
      "gloomy": 2648,
      "potato": 2649,
      "urous": 2650,
      "dle": 2651,
      "adventurous": 2652,
      "brace": 2653,
      "competit": 2654,
      "aw": 2655,
      "att": 2656,
      "stage": 2657,
      "fely": 2658,
      "Doggy": 2659,
      "safely": 2660,
      "practiced": 2661,
      "ee": 2662,
      "respect": 2663,
      "ife": 2664,
      "cane": 2665,
      "irsty": 2666,
      "ruined": 2667,
      "als": 2668,
      "salad": 2669,
      "disappeared": 2670,
      "belonged": 2671,
      "rocod": 2672,
      "grandpa": 2673,
      "oo": 2674,
      "inal": 2675,
      "poured": 2676,
      "toast": 2677,
      "clay": 2678,
      "orig": 2679,
      "bracelet": 2680,
      "trick": 2681,
      "sleeping": 2682,
      "vi": 2683,
      "trucks": 2684,
      "cakes": 2685,
      "liz": 2686,
      "guess": 2687,
      "inky": 2688,
      "thirsty": 2689,
      "crawled": 2690,
      "liable": 2691,
      "Mum": 2692,
      "cam": 2693,
      "illiant": 2694,
      "rane": 2695,
      "original": 2696,
      "Bub": 2697,
      "shoe": 2698,
      "tank": 2699,
      "brilliant": 2700,
      "hunter": 2701,
      "Instead": 2702,
      "smiling": 2703,
      "goes": 2704,
      "twist": 2705,
      "wrap": 2706,
      "goat": 2707,
      "aunt": 2708,
      "steal": 2709,
      "helmet": 2710,
      "enorm": 2711,
      "enormous": 2712,
      "cooking": 2713,
      "island": 2714,
      "badly": 2715,
      "roy": 2716,
      "coo": 2717,
      "Ros": 2718,
      "Rosie": 2719,
      "mole": 2720,
      "crocod": 2721,
      "gives": 2722,
      "knife": 2723,
      "horn": 2724,
      "hoop": 2725,
      "sport": 2726,
      "cereal": 2727,
      "reliable": 2728,
      "destroy": 2729,
      "serious": 2730,
      "hairy": 2731,
      "independ": 2732,
      "suggested": 2733,
      "shiver": 2734,
      "suit": 2735,
      "lizard": 2736,
      "bananas": 2737,
      "juicy": 2738,
      "disgust": 2739,
      "grace": 2740,
      "cube": 2741,
      "impressive": 2742,
      "cheap": 2743,
      "crane": 2744,
      "chang": 2745,
      "ipe": 2746,
      "independent": 2747,
      "ilty": 2748,
      "cocoa": 2749,
      "counted": 2750,
      "guilty": 2751,
      "hay": 2752,
      "thoughtful": 2753,
      "cco": 2754,
      "Buzz": 2755,
      "son": 2756,
      "playful": 2757,
      "charm": 2758,
      "verse": 2759,
      "forth": 2760,
      "upid": 2761,
      "disgusting": 2762,
      "dependable": 2763,
      "mid": 2764,
      "wip": 2765,
      "nel": 2766,
      "appo": 2767,
      "rose": 2768,
      "invited": 2769,
      "allow": 2770,
      "wic": 2771,
      "wiches": 2772,
      "sandwiches": 2773,
      "penny": 2774,
      "cheerful": 2775,
      "web": 2776,
      "graceful": 2777,
      "teas": 2778,
      "Freddy": 2779,
      "bandage": 2780,
      "hammer": 2781,
      "lifted": 2782,
      "host": 2783,
      "relax": 2784,
      "regular": 2785,
      "rubbed": 2786,
      "rat": 2787,
      "joined": 2788,
      "crocodile": 2789,
      "jolly": 2790,
      "exciting": 2791,
      "eye": 2792,
      "stupid": 2793,
      "goose": 2794,
      "moder": 2795,
      "raven": 2796,
      "parade": 2797,
      "middle": 2798,
      "early": 2799,
      "ffin": 2800,
      "beet": 2801,
      "fountain": 2802,
      "corner": 2803,
      "uth": 2804,
      "env": 2805,
      "pal": 2806,
      "tro": 2807,
      "sca": 2808,
      "disappo": 2809,
      "choose": 2810,
      "stri": 2811,
      "Sp": 2812,
      "prize": 2813,
      "arrow": 2814,
      "puts": 2815,
      "camera": 2816,
      "smaller": 2817,
      "Will": 2818,
      "reminded": 2819,
      "pebble": 2820,
      "sailed": 2821,
      "eng": 2822,
      "carto": 2823,
      "grown": 2824,
      "popular": 2825,
      "crayon": 2826,
      "paws": 2827,
      "knight": 2828,
      "Give": 2829,
      "squee": 2830,
      "charming": 2831,
      "melon": 2832,
      "super": 2833,
      "needs": 2834,
      "tunnel": 2835,
      "arage": 2836,
      "hurts": 2837,
      "gir": 2838,
      "zip": 2839,
      "aur": 2840,
      "garage": 2841,
      "pige": 2842,
      "Betsy": 2843,
      "spring": 2844,
      "Tiny": 2845,
      "deliver": 2846,
      "restaur": 2847,
      "wrapped": 2848,
      "htub": 2849,
      "ave": 2850,
      "bathtub": 2851,
      "stamp": 2852,
      "warned": 2853,
      "careless": 2854,
      "square": 2855,
      "jet": 2856,
      "fearful": 2857,
      "sunflower": 2858,
      "ghost": 2859,
      "iness": 2860,
      "nowhere": 2861,
      "licop": 2862,
      "licopter": 2863,
      "gue": 2864,
      "topus": 2865,
      "erable": 2866,
      "amond": 2867,
      "trap": 2868,
      "library": 2869,
      "gem": 2870,
      "harmless": 2871,
      "modern": 2872,
      "saying": 2873,
      "fig": 2874,
      "compass": 2875,
      "yet": 2876,
      "miserable": 2877,
      "belt": 2878,
      "flashlight": 2879,
      "returned": 2880,
      "comput": 2881,
      "helicopter": 2882,
      "trunk": 2883,
      "diamond": 2884,
      "men": 2885,
      "truth": 2886,
      "Sm": 2887,
      "beetle": 2888,
      "shroom": 2889,
      "muffin": 2890,
      "eager": 2891,
      "tied": 2892,
      "humble": 2893,
      "torn": 2894,
      "vice": 2895,
      "angel": 2896,
      "pasta": 2897,
      "ordin": 2898,
      "restaurant": 2899,
      "serve": 2900,
      "walks": 2901,
      "ordinary": 2902,
      "doesn": 2903,
      "filthy": 2904,
      "mes": 2905,
      "page": 2906,
      "cooked": 2907,
      "sock": 2908,
      "fork": 2909,
      "octopus": 2910,
      "bark": 2911,
      "twig": 2912,
      "ffle": 2913,
      "ates": 2914,
      "mushroom": 2915,
      "roof": 2916,
      "ears": 2917,
      "twirl": 2918,
      "pants": 2919,
      "barber": 2920,
      "stal": 2921,
      "pian": 2922,
      "tom": 2923,
      "gifted": 2924,
      "distance": 2925,
      "value": 2926,
      "haircut": 2927,
      "answered": 2928,
      "bottom": 2929,
      "disappointed": 2930,
      "tries": 2931,
      "whispered": 2932,
      "icycle": 2933,
      "jeep": 2934,
      "boxes": 2935,
      "piano": 2936,
      "quar": 2937,
      "stranger": 2938,
      "igator": 2939,
      "base": 2940,
      "bicycle": 2941,
      "waffle": 2942,
      "thie": 2943,
      "guard": 2944,
      "anx": 2945,
      "create": 2946,
      "already": 2947,
      "apologized": 2948,
      "fet": 2949,
      "crawl": 2950,
      "ating": 2951,
      "brocco": 2952,
      "broccoli": 2953,
      "anxious": 2954,
      "Tr": 2955,
      "candle": 2956,
      "pour": 2957,
      "anywhere": 2958,
      "computer": 2959,
      "lying": 2960,
      "lean": 2961,
      "sil": 2962,
      "parrot": 2963,
      "troubled": 2964,
      "frown": 2965,
      "changed": 2966,
      "deaf": 2967,
      "package": 2968,
      "bees": 2969,
      "screen": 2970,
      "compassion": 2971,
      "resc": 2972,
      "Smith": 2973,
      "rescue": 2974,
      "dreamed": 2975,
      "cycle": 2976,
      "selves": 2977,
      "smoke": 2978,
      "ject": 2979,
      "travel": 2980,
      "alligator": 2981,
      "decorate": 2982,
      "pepper": 2983,
      "planet": 2984,
      "sink": 2985,
      "pear": 2986,
      "ellig": 2987,
      "spend": 2988,
      "jug": 2989,
      "intellig": 2990,
      "persist": 2991,
      "gets": 2992,
      "tem": 2993,
      "wallet": 2994,
      "ature": 2995,
      "load": 2996,
      "polish": 2997,
      "pard": 2998,
      "bull": 2999,
      "picking": 3000,
      "magnet": 3001,
      "illa": 3002,
      "celebrate": 3003,
      "mask": 3004,
      "tract": 3005,
      "advice": 3006,
      "skin": 3007,
      "envious": 3008,
      "pale": 3009,
      "thief": 3010,
      "coins": 3011,
      "tricks": 3012,
      "tooth": 3013,
      "utes": 3014,
      "meow": 3015,
      "uli": 3016,
      "desk": 3017,
      "coll": 3018,
      "almost": 3019,
      "fort": 3020,
      "helpless": 3021,
      "leo": 3022,
      "atch": 3023,
      "crack": 3024,
      "restless": 3025,
      "stream": 3026,
      "perform": 3027,
      "lit": 3028,
      "shells": 3029,
      "scoot": 3030,
      "clap": 3031,
      "io": 3032,
      "butterflies": 3033,
      "persistent": 3034,
      "sighed": 3035,
      "attract": 3036,
      "quarrel": 3037,
      "soldier": 3038,
      "post": 3039,
      "alert": 3040,
      "leopard": 3041,
      "intelligent": 3042,
      "ubby": 3043,
      "may": 3044,
      "cact": 3045,
      "comb": 3046,
      "minutes": 3047,
      "yours": 3048,
      "bb": 3049,
      "collar": 3050,
      "nail": 3051,
      "olin": 3052,
      "See": 3053,
      "mug": 3054,
      "valu": 3055,
      "compassionate": 3056,
      "meat": 3057,
      "notice": 3058,
      "learning": 3059,
      "stronger": 3060,
      "ador": 3061,
      "thinking": 3062,
      "umpet": 3063,
      "pigeon": 3064,
      "harsh": 3065,
      "sle": 3066,
      "tax": 3067,
      "stretch": 3068,
      "Zoom": 3069,
      "excite": 3070,
      "bump": 3071,
      "trumpet": 3072,
      "flute": 3073,
      "cricket": 3074,
      "reading": 3075,
      "sta": 3076,
      "atta": 3077,
      "atient": 3078,
      "asses": 3079,
      "speed": 3080,
      "adorable": 3081,
      "boats": 3082,
      "chubby": 3083,
      "telling": 3084,
      "basketball": 3085,
      "sweater": 3086,
      "aero": 3087,
      "lid": 3088,
      "vol": 3089,
      "question": 3090,
      "catter": 3091,
      "Did": 3092,
      "standing": 3093,
      "brea": 3094,
      "avoc": 3095,
      "attractive": 3096,
      "velo": 3097,
      "scatter": 3098,
      "those": 3099,
      "laun": 3100,
      "rice": 3101,
      "purse": 3102,
      "gurt": 3103,
      "figure": 3104,
      "Pet": 3105,
      "scr": 3106,
      "enjoying": 3107,
      "houses": 3108,
      "triang": 3109,
      "competitive": 3110,
      "envelo": 3111,
      "violin": 3112,
      "bedroom": 3113,
      "Rex": 3114,
      "ignorant": 3115,
      "comple": 3116,
      "station": 3117,
      "impatient": 3118,
      "design": 3119,
      "nur": 3120,
      "yogurt": 3121,
      "record": 3122,
      "sheet": 3123,
      "superhero": 3124,
      "flour": 3125,
      "once": 3126,
      "ache": 3127,
      "scale": 3128,
      "uncle": 3129,
      "crystal": 3130,
      "carpet": 3131,
      "taxi": 3132,
      "inde": 3133,
      "barking": 3134,
      "lime": 3135,
      "engine": 3136,
      "orry": 3137,
      "speak": 3138,
      "valuable": 3139,
      "laundry": 3140,
      "wheels": 3141,
      "cactus": 3142,
      "squash": 3143,
      "earth": 3144,
      "pony": 3145,
      "wiped": 3146,
      "bags": 3147,
      "power": 3148,
      "cano": 3149,
      "Rose": 3150,
      "lively": 3151,
      "Pete": 3152,
      "turkey": 3153,
      "Today": 3154,
      "cats": 3155,
      "Sorry": 3156,
      "Ella": 3157,
      "ye": 3158,
      "rece": 3159,
      "distur": 3160,
      "press": 3161,
      "motorcycle": 3162,
      "comet": 3163,
      "enth": 3164,
      "pipe": 3165,
      "themselves": 3166,
      "volcano": 3167,
      "enthus": 3168,
      "playground": 3169,
      "added": 3170,
      "firework": 3171,
      "lk": 3172,
      "shade": 3173,
      "dust": 3174,
      "thread": 3175,
      "guin": 3176,
      "questions": 3177,
      "wheat": 3178,
      "affe": 3179,
      "ither": 3180,
      "iss": 3181,
      "cush": 3182,
      "hours": 3183,
      "sses": 3184,
      "curtain": 3185,
      "radio": 3186,
      "stack": 3187,
      "track": 3188,
      "behave": 3189,
      "mill": 3190,
      "raft": 3191,
      "unlock": 3192,
      "shrimp": 3193,
      "seal": 3194,
      "chalk": 3195,
      "usage": 3196,
      "scooter": 3197,
      "envelope": 3198,
      "oat": 3199,
      "hive": 3200,
      "glasses": 3201,
      "message": 3202,
      "acce": 3203,
      "Little": 3204,
      "penguin": 3205,
      "vine": 3206,
      "sausage": 3207,
      "acht": 3208,
      "happiness": 3209,
      "pho": 3210,
      "drawings": 3211,
      "camp": 3212,
      "dom": 3213,
      "return": 3214,
      "photo": 3215,
      "helps": 3216,
      "send": 3217,
      "gathered": 3218,
      "Would": 3219,
      "pit": 3220,
      "umbled": 3221,
      "bulance": 3222,
      "dreams": 3223,
      "cer": 3224,
      "tears": 3225,
      "moms": 3226,
      "yacht": 3227,
      "St": 3228,
      "ambulance": 3229,
      "nicely": 3230,
      "half": 3231,
      "tire": 3232,
      "giraffe": 3233,
      "lights": 3234,
      "bounced": 3235,
      "city": 3236,
      "yaw": 3237,
      "inse": 3238,
      "notebook": 3239,
      "jellyfish": 3240,
      "tube": 3241,
      "Jenny": 3242,
      "repair": 3243,
      "slept": 3244,
      "spinning": 3245,
      "distant": 3246,
      "boys": 3247,
      "practice": 3248,
      "Well": 3249,
      "bulb": 3250,
      "extra": 3251,
      "ceed": 3252,
      "Bubbles": 3253,
      "thankful": 3254,
      "modest": 3255,
      "diary": 3256,
      "cauli": 3257,
      "shape": 3258,
      "adow": 3259,
      "meadow": 3260,
      "listening": 3261,
      "cows": 3262,
      "nder": 3263,
      "nurse": 3264,
      "ox": 3265,
      "aky": 3266,
      "aid": 3267,
      "gor": 3268,
      "helper": 3269,
      "Ow": 3270,
      "knot": 3271,
      "cing": 3272,
      "nament": 3273,
      "knock": 3274,
      "eraser": 3275,
      "ticket": 3276,
      "pirate": 3277,
      "succeed": 3278,
      "falling": 3279,
      "calling": 3280,
      "cauliflower": 3281,
      "oy": 3282,
      "view": 3283,
      "iastic": 3284,
      "enthusiastic": 3285,
      "Al": 3286,
      "trash": 3287,
      "mistakes": 3288,
      "swinging": 3289,
      "ito": 3290,
      "Thanks": 3291,
      "riding": 3292,
      "showing": 3293,
      "marry": 3294,
      "impro": 3295,
      "bel": 3296,
      "support": 3297,
      "eventually": 3298,
      "skip": 3299,
      "shield": 3300,
      "squito": 3301,
      "Nut": 3302,
      "pee": 3303,
      "wander": 3304,
      "hook": 3305,
      "reward": 3306,
      "forward": 3307,
      "encoura": 3308,
      "shut": 3309,
      "climbing": 3310,
      "costume": 3311,
      "ornament": 3312,
      "cel": 3313,
      "ingred": 3314,
      "ingredient": 3315,
      "aeroplane": 3316,
      "poem": 3317,
      "putting": 3318,
      "judge": 3319,
      "tools": 3320,
      "Car": 3321,
      "Flo": 3322,
      "screw": 3323,
      "organize": 3324,
      "carrying": 3325,
      "Peter": 3326,
      "stones": 3327,
      "chain": 3328,
      "needle": 3329,
      "otter": 3330,
      "lier": 3331,
      "dishes": 3332,
      "pilot": 3333,
      "mosquito": 3334,
      "steak": 3335,
      "rushed": 3336,
      "pole": 3337,
      "celery": 3338,
      "tells": 3339,
      "chasing": 3340,
      "spell": 3341,
      "cushion": 3342,
      "four": 3343,
      "barrel": 3344,
      "fresh": 3345,
      "tray": 3346,
      "avail": 3347,
      "arian": 3348,
      "triangle": 3349,
      "hotel": 3350,
      "vator": 3351,
      "elevator": 3352,
      "incl": 3353,
      "comfort": 3354,
      "True": 3355,
      "available": 3356,
      "gaz": 3357,
      "gorilla": 3358,
      "puddles": 3359,
      "separ": 3360,
      "eaten": 3361,
      "tern": 3362,
      "object": 3363,
      "une": 3364,
      "rec": 3365,
      "sailor": 3366,
      "split": 3367,
      "pretending": 3368,
      "napkin": 3369,
      "thunder": 3370,
      "excitement": 3371,
      "baseball": 3372,
      "folder": 3373,
      "attic": 3374,
      "useum": 3375,
      "spun": 3376,
      "troph": 3377,
      "gging": 3378,
      "peach": 3379,
      "mop": 3380,
      "cob": 3381,
      "kne": 3382,
      "museum": 3383,
      "harder": 3384,
      "deter": 3385,
      "hipp": 3386,
      "earlier": 3387,
      "leash": 3388,
      "journ": 3389,
      "wife": 3390,
      "rubber": 3391,
      "snif": 3392,
      "keeper": 3393,
      "grapes": 3394,
      "football": 3395,
      "essert": 3396,
      "friendship": 3397,
      "insect": 3398,
      "patch": 3399,
      "dessert": 3400,
      "fee": 3401,
      "mild": 3402,
      "fallen": 3403,
      "flea": 3404,
      "boots": 3405,
      "fed": 3406,
      "drawer": 3407,
      "compla": 3408,
      "offee": 3409,
      "Nutty": 3410,
      "glove": 3411,
      "sparkly": 3412,
      "club": 3413,
      "nature": 3414,
      "hats": 3415,
      "Snowy": 3416,
      "ingredients": 3417,
      "zebra": 3418,
      "trophy": 3419,
      "journal": 3420,
      "onion": 3421,
      "hanging": 3422,
      "Many": 3423,
      "dive": 3424,
      "rhin": 3425,
      "size": 3426,
      "mint": 3427,
      "strich": 3428,
      "hedge": 3429,
      "cries": 3430,
      "metal": 3431,
      "chess": 3432,
      "suppl": 3433,
      "cupboard": 3434,
      "Jake": 3435,
      "ended": 3436,
      "Qu": 3437,
      "ines": 3438,
      "monkeys": 3439,
      "raced": 3440,
      "indeer": 3441,
      "zi": 3442,
      "either": 3443,
      "shouldn": 3444,
      "azz": 3445,
      "itself": 3446,
      "hippo": 3447,
      "hears": 3448,
      "ocer": 3449,
      "herb": 3450,
      "growing": 3451,
      "yoga": 3452,
      "frame": 3453,
      "pattern": 3454,
      "coffee": 3455,
      "lives": 3456,
      "walls": 3457,
      "coal": 3458,
      "wire": 3459,
      "baking": 3460,
      "fu": 3461,
      "por": 3462,
      "cudd": 3463,
      "cli": 3464,
      "squirrels": 3465,
      "reindeer": 3466,
      "biggest": 3467,
      "surprises": 3468,
      "glowing": 3469,
      "armchair": 3470,
      "oceros": 3471,
      "strawberry": 3472,
      "actu": 3473,
      "boo": 3474,
      "popped": 3475,
      "shows": 3476,
      "actually": 3477,
      "film": 3478,
      "vend": 3479,
      "video": 3480,
      "comm": 3481,
      "pun": 3482,
      "repe": 3483,
      "golf": 3484,
      "urch": 3485,
      "soc": 3486,
      "groc": 3487,
      "impressed": 3488,
      "salt": 3489,
      "avocado": 3490,
      "snugg": 3491,
      "louder": 3492,
      "agree": 3493,
      "rema": 3494,
      "soccer": 3495,
      "church": 3496,
      "airport": 3497,
      "spir": 3498,
      "skipped": 3499,
      "rhinoceros": 3500,
      "resist": 3501,
      "magaz": 3502,
      "chan": 3503,
      "sunglasses": 3504,
      "counting": 3505,
      "mule": 3506,
      "freez": 3507,
      "microphone": 3508,
      "Fro": 3509,
      "maze": 3510,
      "kissed": 3511,
      "leton": 3512,
      "keleton": 3513,
      "ased": 3514,
      "skirt": 3515,
      "fireman": 3516,
      "vendor": 3517,
      "struc": 3518,
      "stumbled": 3519,
      "handle": 3520,
      "oyster": 3521,
      "fis": 3522,
      "checked": 3523,
      "hurry": 3524,
      "zzy": 3525,
      "memor": 3526,
      "gn": 3527,
      "Grandpa": 3528,
      "sight": 3529,
      "Miss": 3530,
      "iron": 3531,
      "washer": 3532,
      "Ouch": 3533,
      "trem": 3534,
      "ations": 3535,
      "ley": 3536,
      "fac": 3537,
      "drop": 3538,
      "adm": 3539,
      "prune": 3540,
      "poke": 3541,
      "musician": 3542,
      "mixer": 3543,
      "decide": 3544,
      "battery": 3545,
      "factory": 3546,
      "sounded": 3547,
      "grand": 3548,
      "discovered": 3549,
      "dishwasher": 3550,
      "skeleton": 3551,
      "quit": 3552,
      "kayak": 3553,
      "au": 3554,
      "math": 3555,
      "radish": 3556,
      "stuffed": 3557,
      "blueberries": 3558,
      "scope": 3559,
      "crawling": 3560,
      "sandcastle": 3561,
      "Spike": 3562,
      "excitedly": 3563,
      "makeup": 3564,
      "lotion": 3565,
      "igloo": 3566,
      "tress": 3567,
      "aper": 3568,
      "towers": 3569,
      "nods": 3570,
      "fixing": 3571,
      "pand": 3572,
      "ostrich": 3573,
      "chanic": 3574,
      "reco": 3575,
      "complete": 3576,
      "loop": 3577,
      "medal": 3578,
      "edy": 3579,
      "ckey": 3580,
      "noon": 3581,
      "imagin": 3582,
      "bury": 3583,
      "spotted": 3584,
      "iling": 3585,
      "zipper": 3586,
      "recogn": 3587,
      "cobweb": 3588,
      "root": 3589,
      "umbers": 3590,
      "aged": 3591,
      "imagine": 3592,
      "skull": 3593,
      "hockey": 3594,
      "angar": 3595,
      "lter": 3596,
      "pointing": 3597,
      "fisher": 3598,
      "porch": 3599,
      "shrink": 3600,
      "weather": 3601,
      "veil": 3602,
      "shelter": 3603,
      "mechanic": 3604,
      "powder": 3605,
      "Is": 3606,
      "spirit": 3607,
      "weep": 3608,
      "wool": 3609,
      "buttons": 3610,
      "pas": 3611,
      "cable": 3612,
      "cooler": 3613,
      "ext": 3614,
      "fireplace": 3615,
      "goal": 3616,
      "lightning": 3617,
      "tion": 3618,
      "accidents": 3619,
      "homes": 3620,
      "refused": 3621,
      "cherries": 3622,
      "kangar": 3623,
      "tap": 3624,
      "microscope": 3625,
      "mattress": 3626,
      "ucet": 3627,
      "weigh": 3628,
      "mined": 3629,
      "Next": 3630,
      "mas": 3631,
      "tornado": 3632,
      "Un": 3633,
      "determined": 3634,
      "faucet": 3635,
      "pine": 3636,
      "newsp": 3637,
      "cardboard": 3638,
      "swung": 3639,
      "burn": 3640,
      "hall": 3641,
      "staff": 3642,
      "arry": 3643,
      "planes": 3644,
      "chor": 3645,
      "sity": 3646,
      "melt": 3647,
      "sisted": 3648,
      "sla": 3649,
      "tear": 3650,
      "keeping": 3651,
      "hoping": 3652,
      "sub": 3653,
      "managed": 3654,
      "unpack": 3655,
      "fisherman": 3656,
      "wipe": 3657,
      "temple": 3658,
      "laser": 3659,
      "chim": 3660,
      "chimney": 3661,
      "numbers": 3662,
      "axe": 3663,
      "cheer": 3664,
      "ense": 3665,
      "sunset": 3666,
      "tol": 3667,
      "against": 3668,
      "blouse": 3669,
      "Ro": 3670,
      "spear": 3671,
      "telephone": 3672,
      "istol": 3673,
      "Yay": 3674,
      "wishes": 3675,
      "edge": 3676,
      "freezer": 3677,
      "rained": 3678,
      "bears": 3679,
      "sne": 3680,
      "anchor": 3681,
      "Bye": 3682,
      "rolling": 3683,
      "grill": 3684,
      "slides": 3685,
      "inking": 3686,
      "sneeze": 3687,
      "short": 3688,
      "admired": 3689,
      "lend": 3690,
      "ival": 3691,
      "pistol": 3692,
      "pastry": 3693,
      "jokes": 3694,
      "miner": 3695,
      "peeked": 3696,
      "ilet": 3697,
      "fog": 3698,
      "toilet": 3699,
      "flame": 3700,
      "gym": 3701,
      "kangaroo": 3702,
      "backpack": 3703,
      "passport": 3704,
      "twis": 3705,
      "winter": 3706,
      "Sunny": 3707,
      "Spark": 3708,
      "switch": 3709,
      "gling": 3710,
      "blackboard": 3711,
      "ately": 3712,
      "htray": 3713,
      "poo": 3714,
      "reef": 3715,
      "bathe": 3716,
      "marble": 3717,
      "circles": 3718,
      "cabinet": 3719,
      "opera": 3720,
      "fastest": 3721,
      "wardrobe": 3722,
      "Mummy": 3723,
      "planned": 3724,
      "auto": 3725,
      "discover": 3726,
      "dancer": 3727,
      "oil": 3728,
      "erc": 3729,
      "castles": 3730,
      "aced": 3731,
      "bookcase": 3732,
      "bookshelf": 3733,
      "silver": 3734,
      "magazine": 3735,
      "vision": 3736,
      "picks": 3737,
      "palace": 3738,
      "improve": 3739,
      "father": 3740,
      "mob": 3741,
      "disappear": 3742,
      "tutor": 3743,
      "ribb": 3744,
      "panda": 3745,
      "bill": 3746,
      "explain": 3747,
      "missile": 3748,
      "bathrobe": 3749,
      "automob": 3750,
      "ashtray": 3751,
      "exerc": 3752,
      "shocked": 3753,
      "Poppy": 3754,
      "soil": 3755,
      "newspaper": 3756,
      "sham": 3757,
      "oak": 3758,
      "Pandy": 3759,
      "sadly": 3760,
      "whist": 3761,
      "hic": 3762,
      "ience": 3763,
      "spoke": 3764,
      "perfume": 3765,
      "television": 3766,
      "Pa": 3767,
      "ceiling": 3768,
      "fingers": 3769,
      "vehic": 3770,
      "shampoo": 3771,
      "dear": 3772,
      "painter": 3773,
      "suff": 3774,
      "display": 3775,
      "shrug": 3776,
      "subway": 3777,
      "choice": 3778,
      "swamp": 3779,
      "zor": 3780,
      "hut": 3781,
      "meowed": 3782,
      "drain": 3783,
      "shower": 3784,
      "iction": 3785,
      "asis": 3786,
      "jewelry": 3787,
      "prepare": 3788,
      "cards": 3789,
      "meeting": 3790,
      "strugg": 3791,
      "saving": 3792,
      "ictionary": 3793,
      "essie": 3794,
      "reverse": 3795,
      "Sque": 3796,
      "uage": 3797,
      "anguage": 3798,
      "theater": 3799,
      "file": 3800,
      "separate": 3801,
      "complain": 3802,
      "oasis": 3803,
      "language": 3804,
      "starting": 3805,
      "allowed": 3806,
      "stirred": 3807,
      "fuel": 3808,
      "five": 3809,
      "fest": 3810,
      "rake": 3811,
      "imagined": 3812,
      "letting": 3813,
      "Floppy": 3814,
      "Dolly": 3815,
      "warning": 3816,
      "taller": 3817,
      "hanger": 3818,
      "task": 3819,
      "disturb": 3820,
      "happier": 3821,
      "steps": 3822,
      "regret": 3823,
      "mustache": 3824,
      "neat": 3825,
      "wigg": 3826,
      "uckily": 3827,
      "Sus": 3828,
      "cell": 3829,
      "Carl": 3830,
      "novel": 3831,
      "birdcage": 3832,
      "trail": 3833,
      "raining": 3834,
      "festival": 3835,
      "tuna": 3836,
      "shaking": 3837,
      "dictionary": 3838,
      "snuggled": 3839,
      "These": 3840,
      "creek": 3841,
      "terin": 3842,
      "terinarian": 3843,
      "meas": 3844,
      "lemonade": 3845,
      "veterinarian": 3846,
      "lawy": 3847,
      "Joey": 3848,
      "delay": 3849,
      "reve": 3850,
      "remove": 3851,
      "lic": 3852,
      "introd": 3853,
      "sty": 3854,
      "chance": 3855,
      "washing": 3856,
      "mitten": 3857,
      "attach": 3858,
      "Pipp": 3859,
      "calend": 3860,
      "trains": 3861,
      "classroom": 3862,
      "easily": 3863,
      "yield": 3864,
      "beef": 3865,
      "sym": 3866,
      "reveal": 3867,
      "chickens": 3868,
      "stickers": 3869,
      "visited": 3870,
      "Dan": 3871,
      "appla": 3872,
      "lions": 3873,
      "recomm": 3874,
      "enter": 3875,
      "crib": 3876,
      "calendar": 3877,
      "nobody": 3878,
      "bol": 3879,
      "letters": 3880,
      "knows": 3881,
      "cups": 3882,
      "float": 3883,
      "invite": 3884,
      "Pip": 3885,
      "tease": 3886,
      "ured": 3887,
      "lawyer": 3888,
      "cuss": 3889,
      "trusted": 3890,
      "symbol": 3891,
      "content": 3892,
      "problems": 3893,
      "fishing": 3894,
      "automobile": 3895,
      "socks": 3896,
      "danger": 3897,
      "uniform": 3898,
      "roared": 3899,
      "Eventually": 3900,
      "quiz": 3901,
      "Ho": 3902,
      "People": 3903,
      "razor": 3904,
      "struggling": 3905,
      "discuss": 3906,
      "offic": 3907,
      "dresses": 3908,
      "Wa": 3909,
      "replace": 3910,
      "trade": 3911,
      "human": 3912,
      "apr": 3913,
      "surre": 3914,
      "insisted": 3915,
      "supply": 3916,
      "lawn": 3917,
      "sandbox": 3918,
      "billboard": 3919,
      "junk": 3920,
      "cliff": 3921,
      "breathe": 3922,
      "prevent": 3923,
      "Sad": 3924,
      "lumber": 3925,
      "handed": 3926,
      "knob": 3927,
      "Lo": 3928,
      "panic": 3929,
      "airplane": 3930,
      "marched": 3931,
      "strawberries": 3932,
      "creatures": 3933,
      "searching": 3934,
      "waste": 3935,
      "pinch": 3936,
      "cted": 3937,
      "counter": 3938,
      "belongs": 3939,
      "nit": 3940,
      "niture": 3941,
      "nce": 3942,
      "surf": 3943,
      "stared": 3944,
      "Before": 3945,
      "windows": 3946,
      "collection": 3947,
      "sneezed": 3948,
      "blowing": 3949,
      "lab": 3950,
      "pressed": 3951,
      "furniture": 3952,
      "snap": 3953,
      "player": 3954,
      "aches": 3955,
      "Wait": 3956,
      "holes": 3957,
      "hood": 3958,
      "applaud": 3959,
      "buried": 3960,
      "Hoppy": 3961,
      "Sun": 3962,
      "during": 3963,
      "dar": 3964,
      "iggy": 3965,
      "papers": 3966,
      "license": 3967,
      "patiently": 3968,
      "whip": 3969,
      "given": 3970,
      "accept": 3971,
      "bits": 3972,
      "Quack": 3973,
      "cartoon": 3974,
      "friger": 3975,
      "frigerator": 3976,
      "country": 3977,
      "perfectly": 3978,
      "refrigerator": 3979,
      "Co": 3980,
      "Gig": 3981,
      "ium": 3982,
      "bet": 3983,
      "rules": 3984,
      "sprayed": 3985,
      "alarm": 3986,
      "mand": 3987,
      "Gigi": 3988,
      "bove": 3989,
      "difference": 3990,
      "ighter": 3991,
      "pastel": 3992,
      "argue": 3993,
      "ignore": 3994,
      "above": 3995,
      "yucky": 3996,
      "Hop": 3997,
      "model": 3998,
      "stretched": 3999,
      "Alice": 4000,
      "Lul": 4001,
      "incre": 4002,
      "apron": 4003,
      "doors": 4004,
      "rail": 4005,
      "peek": 4006,
      "poon": 4007,
      "request": 4008,
      "ween": 4009,
      "destroyed": 4010,
      "feelings": 4011,
      "bikes": 4012,
      "Ex": 4013,
      "bumped": 4014,
      "stable": 4015,
      "seeing": 4016,
      "Lulu": 4017,
      "burned": 4018,
      "chose": 4019,
      "happens": 4020,
      "respons": 4021,
      "hate": 4022,
      "gear": 4023,
      "protec": 4024,
      "shoulder": 4025,
      "eor": 4026,
      "Birdy": 4027,
      "admi": 4028,
      "cared": 4029,
      "vehicle": 4030,
      "buckle": 4031,
      "ire": 4032,
      "wea": 4033,
      "throwing": 4034,
      "leaned": 4035,
      "mist": 4036,
      "baked": 4037,
      "oxy": 4038,
      "Bessie": 4039,
      "admire": 4040,
      "rush": 4041,
      "unite": 4042,
      "ison": 4043,
      "reci": 4044,
      "Geor": 4045,
      "tub": 4046,
      "demand": 4047,
      "spr": 4048,
      "suffer": 4049,
      "Harry": 4050,
      "appreci": 4051,
      "kneel": 4052,
      "poked": 4053,
      "falls": 4054,
      "teaspoon": 4055,
      "restore": 4056,
      "scratch": 4057,
      "Luckily": 4058,
      "marbles": 4059,
      "weapon": 4060,
      "ahead": 4061,
      "news": 4062,
      "ummer": 4063,
      "valley": 4064,
      "ricane": 4065,
      "Sadly": 4066,
      "adium": 4067,
      "inked": 4068,
      "stadium": 4069,
      "structure": 4070,
      "sof": 4071,
      "mineral": 4072,
      "fought": 4073,
      "jail": 4074,
      "attent": 4075,
      "mystery": 4076,
      "ranch": 4077,
      "cond": 4078,
      "lands": 4079,
      "proudly": 4080,
      "known": 4081,
      "igging": 4082,
      "George": 4083,
      "laughs": 4084,
      "Rob": 4085,
      "wine": 4086,
      "digging": 4087,
      "Squeaky": 4088,
      "caring": 4089,
      "attention": 4090,
      "rang": 4091,
      "beg": 4092,
      "expec": 4093,
      "mention": 4094,
      "fields": 4095,
      "Binky": 4096,
      "sunrise": 4097,
      "iest": 4098,
      "inf": 4099,
      "cation": 4100,
      "ugga": 4101,
      "watered": 4102,
      "skill": 4103,
      "perm": 4104,
      "fetch": 4105,
      "Susie": 4106,
      "eter": 4107,
      "raise": 4108,
      "Because": 4109,
      "shone": 4110,
      "worth": 4111,
      "plastic": 4112,
      "brothers": 4113,
      "hurricane": 4114,
      "thumb": 4115,
      "winning": 4116,
      "summer": 4117,
      "vroom": 4118,
      "cartoons": 4119,
      "cus": 4120,
      "older": 4121,
      "mall": 4122,
      "guy": 4123,
      "blinked": 4124,
      "quietly": 4125,
      "Tina": 4126,
      "Remember": 4127,
      "freeze": 4128,
      "provide": 4129,
      "spade": 4130,
      "comp": 4131,
      "Have": 4132,
      "ues": 4133,
      "Mick": 4134,
      "mm": 4135,
      "Char": 4136,
      "beep": 4137,
      "closely": 4138,
      "uggage": 4139,
      "twirled": 4140,
      "flood": 4141,
      "myself": 4142,
      "luggage": 4143,
      "Exc": 4144,
      "zag": 4145,
      "squeeze": 4146,
      "rested": 4147,
      ",”": 4148,
      "?\".": 4149,
      "leak": 4150,
      "harbor": 4151,
      "poppy": 4152,
      "shrugged": 4153,
      "ase": 4154,
      "label": 4155,
      "mission": 4156,
      "permit": 4157,
      "evening": 4158,
      "sting": 4159,
      "invest": 4160,
      "pages": 4161,
      "igzag": 4162,
      "Ru": 4163,
      "ina": 4164,
      "exercise": 4165,
      "daisy": 4166,
      "investig": 4167,
      "toe": 4168,
      "chamber": 4169,
      "Mar": 4170,
      "matches": 4171,
      "splashing": 4172,
      "horses": 4173,
      "grape": 4174,
      "zoomed": 4175,
      "ribbon": 4176,
      "Pippin": 4177,
      "oats": 4178,
      "Mickey": 4179,
      "rabbits": 4180,
      "universe": 4181,
      "investigate": 4182,
      "shivering": 4183,
      "Zip": 4184,
      "fireworks": 4185,
      "gers": 4186,
      "acorns": 4187,
      "hurting": 4188,
      "surrender": 4189,
      "captain": 4190,
      "Pinky": 4191,
      "afternoon": 4192,
      "kinds": 4193,
      "repeat": 4194,
      "holid": 4195,
      "holiday": 4196,
      "Buzzy": 4197,
      "sniffed": 4198,
      "quake": 4199,
      "claw": 4200,
      "lest": 4201,
      "steam": 4202,
      "expect": 4203,
      "poison": 4204,
      "sailing": 4205,
      "event": 4206,
      "officer": 4207,
      "squeezed": 4208,
      "icorn": 4209,
      "unicorn": 4210,
      "peanuts": 4211,
      "pancakes": 4212,
      "placed": 4213,
      "aked": 4214,
      "Betty": 4215,
      "Johnson": 4216,
      "vacation": 4217,
      "oped": 4218,
      "rooms": 4219,
      "tour": 4220,
      "sparkled": 4221,
      "ups": 4222,
      "vy": 4223,
      "ement": 4224,
      "menu": 4225,
      "examine": 4226,
      "believed": 4227,
      "earthquake": 4228,
      "tip": 4229,
      "encouraged": 4230,
      "beauty": 4231,
      "enny": 4232,
      "oranges": 4233,
      "slipper": 4234,
      "recei": 4235,
      "slippery": 4236,
      "bling": 4237,
      "score": 4238,
      "upstairs": 4239,
      "chir": 4240,
      "infant": 4241,
      "wre": 4242,
      "chirped": 4243,
      "mometer": 4244,
      "Wel": 4245,
      "spending": 4246,
      "proper": 4247,
      "massage": 4248,
      "served": 4249,
      "Welcome": 4250,
      "ason": 4251,
      "ener": 4252,
      "names": 4253,
      "selling": 4254,
      "fut": 4255,
      "future": 4256,
      "muscle": 4257,
      "poss": 4258,
      "atched": 4259,
      "safar": 4260,
      "sorts": 4261,
      "shovel": 4262,
      "equ": 4263,
      "flapped": 4264,
      "scold": 4265,
      "paid": 4266,
      "invit": 4267,
      "treasures": 4268,
      "imagination": 4269,
      "Kim": 4270,
      "Boun": 4271,
      "tug": 4272,
      "flavor": 4273,
      "ris": 4274,
      "chairs": 4275,
      "brain": 4276,
      "waving": 4277,
      "brick": 4278,
      "Sn": 4279,
      "pup": 4280,
      "thermometer": 4281,
      "safet": 4282,
      "safety": 4283,
      "crow": 4284,
      "offer": 4285,
      "frogs": 4286,
      "beans": 4287,
      "Toby": 4288,
      "shot": 4289,
      "tore": 4290,
      "received": 4291,
      "opens": 4292,
      "following": 4293,
      "realised": 4294,
      "safari": 4295,
      "copper": 4296,
      "Finn": 4297,
      "Whe": 4298,
      "tremble": 4299,
      "sticker": 4300,
      "settle": 4301,
      "Lucky": 4302,
      "prayed": 4303,
      "Charlie": 4304,
      "oper": 4305,
      "wed": 4306,
      "icing": 4307,
      "rhy": 4308,
      "versity": 4309,
      "pigs": 4310,
      "plates": 4311,
      "sprink": 4312,
      "writing": 4313,
      "university": 4314,
      "somewhere": 4315,
      "planted": 4316,
      "explored": 4317,
      "stops": 4318,
      "navy": 4319,
      "uggles": 4320,
      "neighborhood": 4321,
      "gasped": 4322,
      "possible": 4323,
      "Snuggles": 4324,
      "candles": 4325,
      "pushing": 4326,
      "respectful": 4327,
      "buzz": 4328,
      "yawned": 4329,
      "worse": 4330,
      "stomach": 4331,
      "urge": 4332,
      "thm": 4333,
      "chip": 4334,
      "thanks": 4335,
      "ik": 4336,
      "cherry": 4337,
      "ib": 4338,
      "receive": 4339,
      "apart": 4340,
      "Hoot": 4341,
      "cutting": 4342,
      "sticky": 4343,
      "holds": 4344,
      "drinking": 4345,
      "palm": 4346,
      "observe": 4347,
      "ordered": 4348,
      "shooting": 4349,
      "alive": 4350,
      "However": 4351,
      "Everywhere": 4352,
      "twisted": 4353,
      "Day": 4354,
      "rhythm": 4355,
      "ffic": 4356,
      "vanished": 4357,
      "oh": 4358,
      "claws": 4359,
      "bother": 4360,
      "Bluey": 4361,
      "Always": 4362,
      "catching": 4363,
      "slip": 4364,
      "grocery": 4365,
      "ignored": 4366,
      "dressed": 4367,
      "exper": 4368,
      "punish": 4369,
      "mummy": 4370,
      "oking": 4371,
      "Mmm": 4372,
      "growl": 4373,
      "crashed": 4374,
      "minute": 4375,
      "chirp": 4376,
      "dare": 4377,
      "spots": 4378,
      "solved": 4379,
      "waffles": 4380,
      "inch": 4381,
      "jazz": 4382,
      "sofa": 4383,
      "bak": 4384,
      "aking": 4385,
      "energy": 4386,
      "ipment": 4387,
      "Not": 4388,
      "bouncing": 4389,
      "scattered": 4390,
      "equipment": 4391,
      "streng": 4392,
      "bricks": 4393,
      "includ": 4394,
      "smells": 4395,
      "colour": 4396,
      "strength": 4397,
      "Lilly": 4398,
      "between": 4399,
      "Mandy": 4400,
      "brigh": 4401,
      "skills": 4402,
      "brighter": 4403,
      "crash": 4404,
      "soak": 4405,
      "perfor": 4406,
      "ince": 4407,
      "luck": 4408,
      "lec": 4409,
      "nes": 4410,
      "ali": 4411,
      "remain": 4412,
      "frowned": 4413,
      "married": 4414,
      "sters": 4415,
      "steel": 4416,
      "lip": 4417,
      "printer": 4418,
      "circus": 4419,
      "hers": 4420,
      "lecture": 4421,
      "include": 4422,
      "forgotten": 4423,
      "Sha": 4424,
      "jumps": 4425,
      "release": 4426,
      "tide": 4427,
      "Spe": 4428,
      "ding": 4429,
      "tonight": 4430,
      "Goodbye": 4431,
      "During": 4432,
      "nightma": 4433,
      "crossed": 4434,
      "presents": 4435,
      "trapped": 4436,
      "jewels": 4437,
      "Happ": 4438,
      "teaching": 4439,
      "clapping": 4440,
      "potatoes": 4441,
      "weight": 4442,
      "wandered": 4443,
      "leather": 4444,
      "Gre": 4445,
      "!\".": 4446,
      "traffic": 4447,
      "responsible": 4448,
      "parts": 4449,
      "history": 4450,
      "mailman": 4451,
      "appreciate": 4452,
      "chewed": 4453,
      "strangers": 4454,
      "Or": 4455,
      "image": 4456,
      "pirates": 4457,
      "chore": 4458,
      "operation": 4459,
      "entered": 4460,
      "worms": 4461,
      "folded": 4462,
      "utter": 4463,
      "brightly": 4464,
      "tomatoes": 4465,
      "recommend": 4466,
      "giggle": 4467,
      "wagging": 4468,
      "Happy": 4469,
      "yawn": 4470,
      "lemons": 4471,
      "Days": 4472,
      "spaceship": 4473,
      "nies": 4474,
      "jogged": 4475,
      "sidewalk": 4476,
      "kingdom": 4477,
      "prepar": 4478,
      "fortun": 4479,
      "jogging": 4480,
      "Bill": 4481,
      "Dave": 4482,
      "nation": 4483,
      "blueberry": 4484,
      "Froggy": 4485,
      "bouncy": 4486,
      "Big": 4487,
      "collected": 4488,
      "oph": 4489,
      "pleased": 4490,
      "Soph": 4491,
      "sip": 4492,
      "second": 4493,
      "cheek": 4494,
      "underground": 4495,
      "heat": 4496,
      "starts": 4497,
      "chores": 4498,
      "tracks": 4499,
      "rescu": 4500,
      "dared": 4501,
      "softly": 4502,
      "mice": 4503,
      "increase": 4504,
      "floating": 4505,
      "wisdom": 4506,
      "kitty": 4507,
      "scolded": 4508,
      "stra": 4509,
      "Pat": 4510,
      "omed": 4511,
      "strip": 4512,
      "ady": 4513,
      "breaks": 4514,
      "Wo": 4515,
      "price": 4516,
      "emer": 4517,
      "deeper": 4518,
      "Owl": 4519,
      "growled": 4520,
      "burrow": 4521,
      "petted": 4522,
      "Bow": 4523,
      "network": 4524,
      "fortunately": 4525,
      "Coco": 4526,
      "puzzles": 4527,
      "measured": 4528,
      "moves": 4529,
      "elephants": 4530,
      "gloves": 4531,
      "marching": 4532,
      "manage": 4533,
      "bent": 4534,
      "heel": 4535,
      "blankets": 4536,
      "slice": 4537,
      "encourage": 4538,
      "Yuck": 4539,
      "fighter": 4540,
      "vour": 4541,
      "oxygen": 4542,
      "Wed": 4543,
      "Wednes": 4544,
      "memory": 4545,
      "pedal": 4546,
      "begged": 4547,
      "racing": 4548,
      "lick": 4549,
      "Sunday": 4550,
      "budge": 4551,
      "wreck": 4552,
      "pitch": 4553,
      "pulling": 4554,
      "invitation": 4555,
      "iki": 4556,
      "memories": 4557,
      "heads": 4558,
      "Lee": 4559,
      "Chick": 4560,
      "appro": 4561,
      "mentioned": 4562,
      "Olive": 4563,
      "choo": 4564,
      "Jazz": 4565,
      "finds": 4566,
      "introduce": 4567,
      "raised": 4568,
      "rect": 4569,
      "weeks": 4570,
      "seag": 4571,
      "Speedy": 4572,
      "seagull": 4573,
      "mot": 4574,
      "omeday": 4575,
      "spill": 4576,
      "straight": 4577,
      "collecting": 4578,
      "hadn": 4579,
      "petals": 4580,
      "swo": 4581,
      "recognize": 4582,
      "Yum": 4583,
      "quack": 4584,
      "stole": 4585,
      "permission": 4586,
      "zigzag": 4587,
      "breaking": 4588,
      "sterday": 4589,
      "below": 4590,
      "disagreed": 4591,
      "bend": 4592,
      "firefighter": 4593,
      "favour": 4594,
      "Mil": 4595,
      "unlocked": 4596,
      "someday": 4597,
      "ix": 4598,
      "doctors": 4599,
      "unhappy": 4600,
      "muffins": 4601,
      "spike": 4602,
      "landscape": 4603,
      "iers": 4604,
      "anytime": 4605,
      "bones": 4606,
      "pted": 4607,
      "greedy": 4608,
      "dried": 4609,
      "shouting": 4610,
      "easier": 4611,
      "hi": 4612,
      "Sparky": 4613,
      "Ke": 4614,
      "favourite": 4615,
      "olives": 4616,
      "Mo": 4617,
      "isn": 4618,
      "Kiki": 4619,
      "Grace": 4620,
      "lex": 4621,
      "ourselves": 4622,
      "velvet": 4623,
      "Under": 4624,
      "hills": 4625,
      "foods": 4626,
      "remained": 4627,
      "snail": 4628,
      "Lola": 4629,
      "owned": 4630,
      "shouts": 4631,
      "beha": 4632,
      "succeeded": 4633,
      "nightmare": 4634,
      "soldiers": 4635,
      "style": 4636,
      "printed": 4637,
      "Finny": 4638,
      "floated": 4639,
      "gazed": 4640,
      "Ready": 4641,
      "Ye": 4642,
      "solut": 4643,
      "Tues": 4644,
      "toes": 4645,
      "died": 4646,
      "strike": 4647,
      "ucked": 4648,
      "die": 4649,
      "Follow": 4650,
      "mama": 4651,
      "sir": 4652,
      "company": 4653,
      "ides": 4654,
      "..": 4655,
      "teasing": 4656,
      "candies": 4657,
      "courage": 4658,
      "peaches": 4659,
      "lily": 4660,
      "pears": 4661,
      "rust": 4662,
      "Squ": 4663,
      "grocer": 4664,
      "practicing": 4665,
      "Boo": 4666,
      "Wednesday": 4667,
      "God": 4668,
      "further": 4669,
      "prunes": 4670,
      "attached": 4671,
      "reeze": 4672,
      "lu": 4673,
      "comed": 4674,
      "groceries": 4675,
      "guys": 4676,
      "padd": 4677,
      "Danny": 4678,
      "west": 4679,
      "welcomed": 4680,
      "ishes": 4681,
      "drinks": 4682,
      "sigh": 4683,
      "hearts": 4684,
      "punished": 4685,
      "ashion": 4686,
      "coats": 4687,
      "exit": 4688,
      "whistled": 4689,
      "Paul": 4690,
      "nect": 4691,
      "Woof": 4692,
      "mittens": 4693,
      "llen": 4694,
      "Dog": 4695,
      "surround": 4696,
      "emergen": 4697,
      "recognized": 4698,
      "muscles": 4699,
      "ipping": 4700,
      "ladybug": 4701,
      "Mike": 4702,
      "ents": 4703,
      "wink": 4704,
      "sudden": 4705,
      "urged": 4706,
      "zipped": 4707,
      "First": 4708,
      "hoo": 4709,
      "Bee": 4710,
      "aa": 4711,
      "ruin": 4712,
      "points": 4713,
      "laughter": 4714,
      "Crab": 4715,
      "Zoomy": 4716,
      "properly": 4717,
      "blink": 4718,
      "izing": 4719,
      "Alex": 4720,
      "grant": 4721,
      "fashion": 4722,
      "ighted": 4723,
      "struggled": 4724,
      "esca": 4725,
      "lung": 4726,
      "mixing": 4727,
      "slap": 4728,
      "muddy": 4729,
      "seats": 4730,
      "waist": 4731,
      "igned": 4732,
      "snapped": 4733,
      "bey": 4734,
      "accepted": 4735,
      "Fox": 4736,
      "gran": 4737,
      "simp": 4738,
      "grabs": 4739,
      "ory": 4740,
      "season": 4741,
      "lap": 4742,
      "Uncle": 4743,
      "shakes": 4744,
      "Sharing": 4745,
      "delighted": 4746,
      "hesit": 4747,
      "escaped": 4748,
      "pulls": 4749,
      "amb": 4750,
      "demanded": 4751,
      "pinched": 4752,
      "decorations": 4753,
      "gained": 4754,
      "ah": 4755,
      "hon": 4756,
      "ings": 4757,
      "chewing": 4758,
      "revealed": 4759,
      "setting": 4760,
      "Penny": 4761,
      "pies": 4762,
      "colourful": 4763,
      "Sophie": 4764,
      "situ": 4765,
      "delight": 4766,
      "turning": 4767,
      "struck": 4768,
      "doggy": 4769,
      "Bug": 4770,
      "laid": 4771,
      "melted": 4772,
      "shopping": 4773,
      "bun": 4774,
      "keys": 4775,
      "slapped": 4776,
      "contest": 4777,
      "Cl": 4778,
      "Keep": 4779,
      "bing": 4780,
      "tastes": 4781,
      "piggy": 4782,
      "xu": 4783,
      "conf": 4784,
      "granted": 4785,
      "cuddled": 4786,
      "Whenever": 4787,
      "stitch": 4788,
      "pillows": 4789,
      "flat": 4790,
      "Bounce": 4791,
      "ky": 4792,
      "Tuna": 4793,
      "olive": 4794,
      "ins": 4795,
      "alien": 4796,
      "paused": 4797,
      "bringing": 4798,
      "Ruby": 4799,
      "bank": 4800,
      "osed": 4801,
      "supposed": 4802,
      "peel": 4803,
      "rides": 4804,
      "protected": 4805,
      "Tuesday": 4806,
      "barks": 4807,
      "Sur": 4808,
      "luxu": 4809,
      "emergency": 4810,
      "pushes": 4811,
      "struggle": 4812,
      "breeze": 4813,
      "simple": 4814,
      "pupil": 4815,
      "ringing": 4816,
      "spiders": 4817,
      "burning": 4818,
      "recor": 4819,
      "tongue": 4820,
      "Ew": 4821,
      "chirping": 4822,
      "Annie": 4823,
      "apologize": 4824,
      "Excuse": 4825,
      "wiggle": 4826,
      "sprinkles": 4827,
      "vic": 4828,
      "Someone": 4829,
      "pause": 4830,
      "drops": 4831,
      "disagree": 4832,
      "sausages": 4833,
      "brings": 4834,
      "ideas": 4835,
      "vanish": 4836,
      "gued": 4837,
      "Baa": 4838,
      "waiter": 4839,
      "riage": 4840,
      "pets": 4841,
      "golden": 4842,
      "famil": 4843,
      "sorting": 4844,
      "warn": 4845,
      "celebrated": 4846,
      "sliding": 4847,
      "opin": 4848,
      "bang": 4849,
      "angled": 4850,
      "ony": 4851,
      "joyed": 4852,
      "scoop": 4853,
      "singer": 4854,
      "overjoyed": 4855,
      "stealing": 4856,
      "studied": 4857,
      "rescued": 4858,
      "decis": 4859,
      "pearl": 4860,
      "Hen": 4861,
      "shoulders": 4862,
      "luxury": 4863,
      "herbs": 4864,
      "solution": 4865,
      "united": 4866,
      "scaring": 4867,
      "izes": 4868,
      "disturbed": 4869,
      "vies": 4870,
      "signs": 4871,
      "gifts": 4872,
      "End": 4873,
      "hunt": 4874,
      "chips": 4875,
      "movies": 4876,
      "guessed": 4877,
      "scratched": 4878,
      "bravely": 4879,
      "created": 4880,
      "radishes": 4881,
      "acted": 4882,
      "approached": 4883,
      "monsters": 4884,
      "eagerly": 4885,
      "Rab": 4886,
      "passing": 4887,
      "skipping": 4888,
      "camping": 4889,
      "Tilly": 4890,
      "prepared": 4891,
      "ripped": 4892,
      "aren": 4893,
      "eagle": 4894,
      "umes": 4895,
      "rr": 4896,
      "Wigg": 4897,
      "experience": 4898,
      "achie": 4899,
      "Dory": 4900,
      "winner": 4901,
      "ino": 4902,
      "ago": 4903,
      "victory": 4904,
      "ging": 4905,
      "ethe": 4906,
      "bleed": 4907,
      "nails": 4908,
      "etheart": 4909,
      "Henry": 4910,
      "swooped": 4911,
      "tex": 4912,
      "sett": 4913,
      "gotten": 4914,
      "nectar": 4915,
      "Mag": 4916,
      "texture": 4917,
      "throws": 4918,
      "Rabbit": 4919,
      "studying": 4920,
      "trol": 4921,
      "Robby": 4922,
      "blo": 4923,
      "prints": 4924,
      "marriage": 4925,
      "mountains": 4926,
      "east": 4927,
      "continue": 4928,
      "weeping": 4929,
      "aby": 4930,
      "Su": 4931,
      "Everything": 4932,
      "sweetheart": 4933,
      "costumes": 4934,
      "Watch": 4935,
      "zookeeper": 4936,
      "dinosaurs": 4937,
      "wedding": 4938,
      "sandcastles": 4939,
      "shopkeeper": 4940,
      "bloomed": 4941,
      "stamps": 4942,
      "crumb": 4943,
      "result": 4944,
      "control": 4945,
      "Zara": 4946,
      "lly": 4947,
      "babies": 4948,
      "whistling": 4949,
      "rul": 4950,
      "touching": 4951,
      "zero": 4952,
      "none": 4953,
      "neighbors": 4954,
      "brand": 4955,
      "loose": 4956,
      "idey": 4957,
      "Surpr": 4958,
      "Unfortunately": 4959,
      "cupcakes": 4960,
      "Spidey": 4961,
      "relaxed": 4962,
      "frosting": 4963,
      "markers": 4964,
      "Squirrel": 4965,
      "ising": 4966,
      "Baby": 4967,
      "beam": 4968,
      "twigs": 4969,
      "quite": 4970,
      "Ra": 4971,
      "purred": 4972,
      "sorted": 4973,
      "Bubba": 4974,
      "comforted": 4975,
      "Sh": 4976,
      "realize": 4977,
      "rac": 4978,
      "understanding": 4979,
      "ranny": 4980,
      "homework": 4981,
      "Rock": 4982,
      "cones": 4983,
      "buzzing": 4984,
      "sneak": 4985,
      "ends": 4986,
      "calls": 4987,
      "decorated": 4988,
      "trave": 4989,
      "direct": 4990,
      "acting": 4991,
      "recorded": 4992,
      "flap": 4993,
      "settled": 4994,
      "Elly": 4995,
      "compl": 4996,
      "Papa": 4997,
      "awe": 4998,
      "importance": 4999,
      "lollipops": 5000,
      "threat": 5001,
      "competition": 5002,
      "magician": 5003,
      "introduc": 5004,
      "bunch": 5005,
      "learnt": 5006,
      "flutter": 5007,
      "lined": 5008,
      "aff": 5009,
      "neighb": 5010,
      "wanting": 5011,
      "matched": 5012,
      "zing": 5013,
      "faraway": 5014,
      "Maria": 5015,
      "ented": 5016,
      "Granny": 5017,
      "tucked": 5018,
      "weren": 5019,
      "youth": 5020,
      "Kate": 5021,
      "sizes": 5022,
      "oatmeal": 5023,
      "allo": 5024,
      "videos": 5025,
      "cuddle": 5026,
      "runch": 5027,
      "weighed": 5028,
      "amazement": 5029,
      "tune": 5030,
      "beat": 5031,
      "Quackers": 5032,
      "actions": 5033,
      "naps": 5034,
      "hated": 5035,
      "regretted": 5036,
      "parties": 5037,
      "shined": 5038,
      "lips": 5039,
      "removed": 5040,
      "organizing": 5041,
      "Out": 5042,
      "worker": 5043,
      "ifi": 5044,
      "untie": 5045,
      "conc": 5046,
      "measuring": 5047,
      "blood": 5048,
      "izard": 5049,
      "pouring": 5050,
      "paints": 5051,
      "weed": 5052,
      "buildings": 5053,
      "guns": 5054,
      "soaked": 5055,
      "Surprise": 5056,
      "kisses": 5057,
      "tickle": 5058,
      "ination": 5059,
      "Choo": 5060,
      "plays": 5061,
      "Bon": 5062,
      "sore": 5063,
      "melting": 5064,
      "confli": 5065,
      "May": 5066,
      "rele": 5067,
      "soared": 5068,
      "Yummy": 5069,
      "Tony": 5070,
      "bowed": 5071,
      "gie": 5072,
      "headed": 5073,
      "conflict": 5074,
      "Meow": 5075,
      "machines": 5076,
      "Sandy": 5077,
      "follows": 5078,
      "yelling": 5079,
      "silence": 5080,
      "expected": 5081,
      "treehouse": 5082,
      "admir": 5083,
      "Pr": 5084,
      "creation": 5085,
      "lines": 5086,
      "wherever": 5087,
      "bunnies": 5088,
      "broom": 5089,
      "hopes": 5090,
      "kicking": 5091,
      "twink": 5092,
      "twisty": 5093,
      "kneeled": 5094,
      "Che": 5095,
      "Fifi": 5096,
      "patterns": 5097,
      "Po": 5098,
      "sneaky": 5099,
      "staying": 5100,
      "argued": 5101,
      "roots": 5102,
      "curtains": 5103,
      "playtime": 5104,
      "destination": 5105,
      "dent": 5106,
      "crumbs": 5107,
      "sniff": 5108,
      "sew": 5109,
      "Really": 5110,
      "healed": 5111,
      "Our": 5112,
      "San": 5113,
      "situation": 5114,
      "duckling": 5115,
      "tangled": 5116,
      "folding": 5117,
      "stirring": 5118,
      "spoons": 5119,
      "Dino": 5120,
      "Santa": 5121,
      "Slow": 5122,
      "freshed": 5123,
      "wags": 5124,
      "observed": 5125,
      "refreshed": 5126,
      "staring": 5127,
      "James": 5128,
      "Ha": 5129,
      "challen": 5130,
      "seems": 5131,
      "losing": 5132,
      "arrive": 5133,
      "agreement": 5134,
      "uses": 5135,
      "rops": 5136,
      "girls": 5137,
      "aded": 5138,
      "pastries": 5139,
      "ruler": 5140,
      "wizard": 5141,
      "Frog": 5142,
      "Wally": 5143,
      "works": 5144,
      "pupp": 5145,
      "ranger": 5146,
      "brushed": 5147,
      "thr": 5148,
      "paintings": 5149,
      "crunch": 5150,
      "decision": 5151,
      "introduced": 5152,
      "bites": 5153,
      "Millie": 5154,
      "opinion": 5155,
      "piles": 5156,
      "firefighters": 5157,
      "released": 5158,
      "Fri": 5159,
      "Ste": 5160,
      "teased": 5161,
      "bumpy": 5162,
      "Mor": 5163,
      "keeps": 5164,
      "workers": 5165,
      "stripes": 5166,
      "repeated": 5167,
      "completed": 5168,
      "Each": 5169,
      "Wiggly": 5170,
      "bakery": 5171,
      "obey": 5172,
      "belly": 5173,
      "zen": 5174,
      "applauded": 5175,
      "dragons": 5176,
      "bbled": 5177,
      "fy": 5178,
      "planets": 5179,
      "King": 5180,
      "ppers": 5181,
      "hurried": 5182,
      "Bl": 5183,
      "chef": 5184,
      "since": 5185,
      "answers": 5186,
      "shadows": 5187,
      "area": 5188,
      "kindly": 5189,
      "Crabby": 5190,
      "reaches": 5191,
      "Liz": 5192,
      "antly": 5193,
      "firemen": 5194,
      "zooming": 5195,
      "fer": 5196,
      "\",": 5197,
      "Dr": 5198,
      "grin": 5199,
      "rist": 5200,
      "attack": 5201,
      "frozen": 5202,
      "Moral": 5203,
      "medi": 5204,
      "caused": 5205,
      "six": 5206,
      "Those": 5207,
      "secrets": 5208,
      "Fe": 5209,
      "Stay": 5210,
      "goodnight": 5211,
      "hest": 5212,
      "Christ": 5213,
      "achieve": 5214,
      "neighbour": 5215,
      "mediately": 5216,
      "cracked": 5217,
      "len": 5218,
      "shock": 5219,
      "wallow": 5220,
      "curled": 5221,
      "itchy": 5222,
      "cin": 5223,
      "dama": 5224,
      "pebbles": 5225,
      "protecting": 5226,
      "motion": 5227,
      "licks": 5228,
      "cough": 5229,
      "swallow": 5230,
      "recipe": 5231,
      "glowed": 5232,
      "uddles": 5233,
      "warmth": 5234,
      "jamas": 5235,
      "Snowball": 5236,
      "lets": 5237,
      "desert": 5238,
      "requested": 5239,
      "tickets": 5240,
      "artist": 5241,
      "potion": 5242,
      "mister": 5243,
      "praised": 5244,
      "Lizzy": 5245,
      "baths": 5246,
      "imy": 5247,
      "fears": 5248,
      "Christmas": 5249,
      "buying": 5250,
      "hits": 5251,
      "sits": 5252,
      "admiring": 5253,
      "powers": 5254,
      "Excited": 5255,
      "dentist": 5256,
      "tallest": 5257,
      "examined": 5258,
      "onions": 5259,
      "parked": 5260,
      "bedtime": 5261,
      "ancing": 5262,
      "gaze": 5263,
      "beds": 5264,
      "pajamas": 5265,
      "moments": 5266,
      "snowball": 5267,
      "pride": 5268,
      "Bongo": 5269,
      "Ear": 5270,
      "Clara": 5271,
      "stored": 5272,
      "behaved": 5273,
      "princesses": 5274,
      "ford": 5275,
      "yesterday": 5276,
      "chat": 5277,
      "nicer": 5278,
      "nie": 5279,
      "marks": 5280,
      "gathering": 5281,
      "highest": 5282,
      "marked": 5283,
      "ots": 5284,
      "confident": 5285,
      "ef": 5286,
      "raincoat": 5287,
      "visiting": 5288,
      "afford": 5289,
      "rip": 5290,
      "signed": 5291,
      "bravery": 5292,
      "prov": 5293,
      "exact": 5294,
      "poems": 5295,
      "urry": 5296,
      "stolen": 5297,
      "photos": 5298,
      "coloring": 5299,
      "concert": 5300,
      "ities": 5301,
      "comfy": 5302,
      "Woo": 5303,
      "hitting": 5304,
      "tiest": 5305,
      "prettiest": 5306,
      "happiest": 5307,
      "wrist": 5308,
      "stom": 5309,
      "warnings": 5310,
      "climbs": 5311,
      "talent": 5312,
      "librarian": 5313,
      "rubbing": 5314,
      "bleeding": 5315,
      "Its": 5316,
      "sisters": 5317,
      "trips": 5318,
      "choices": 5319,
      "trembling": 5320,
      "ms": 5321,
      "spraying": 5322,
      "aster": 5323,
      "recommended": 5324,
      "loaded": 5325,
      "sunlight": 5326,
      "tions": 5327,
      "included": 5328,
      "fas": 5329,
      "downstairs": 5330,
      "voices": 5331,
      "beside": 5332,
      "bers": 5333,
      "Ok": 5334,
      "bars": 5335,
      "promises": 5336,
      "Great": 5337,
      "polished": 5338,
      "Pepper": 5339,
      "guest": 5340,
      "cash": 5341,
      "gar": 5342,
      "dolphins": 5343,
      "Mon": 5344,
      "Like": 5345,
      "wid": 5346,
      "napping": 5347,
      "Beep": 5348,
      "Earth": 5349,
      "sparkles": 5350,
      "charac": 5351,
      "character": 5352,
      "allest": 5353,
      "ados": 5354,
      "smallest": 5355,
      "ction": 5356,
      "mouths": 5357,
      "crunchy": 5358,
      "health": 5359,
      "iren": 5360,
      "baker": 5361,
      "siren": 5362,
      "fascin": 5363,
      "Kat": 5364,
      "leader": 5365,
      "matching": 5366,
      "families": 5367,
      "dies": 5368,
      "loving": 5369,
      "sparkle": 5370,
      "indy": 5371,
      "Wooly": 5372,
      "goals": 5373,
      "Rocky": 5374,
      "dd": 5375,
      "lied": 5376,
      "tricked": 5377,
      "challenge": 5378,
      "rusty": 5379,
      "seashell": 5380,
      "sticking": 5381,
      "avo": 5382,
      "grandmother": 5383,
      "avocados": 5384,
      "including": 5385,
      "Cla": 5386,
      "immediately": 5387,
      "bby": 5388,
      "deser": 5389,
      "Suzy": 5390,
      "vity": 5391,
      "affes": 5392,
      "distra": 5393,
      "mbers": 5394,
      "beard": 5395,
      "exactly": 5396,
      "Birdie": 5397,
      "giraffes": 5398,
      "Both": 5399,
      "Yeah": 5400,
      "Quick": 5401,
      "ility": 5402,
      "contain": 5403,
      "strings": 5404,
      "Hootie": 5405,
      "hesitant": 5406,
      "slimy": 5407,
      "laying": 5408,
      "packing": 5409,
      "brushes": 5410,
      "traveled": 5411,
      "Oink": 5412,
      "iggie": 5413,
      "Maggie": 5414,
      "Uh": 5415,
      "scra": 5416,
      "effort": 5417,
      "hardly": 5418,
      "pedals": 5419,
      "theirs": 5420,
      "cubes": 5421,
      "polishing": 5422,
      "cashier": 5423,
      "skunk": 5424,
      "Fl": 5425,
      "shaped": 5426,
      "woof": 5427,
      "tablet": 5428,
      "precious": 5429,
      "knights": 5430,
      "cous": 5431,
      "ks": 5432,
      "wooden": 5433,
      "members": 5434,
      "scooped": 5435,
      "wrapping": 5436,
      "eight": 5437,
      "poking": 5438,
      "Friends": 5439,
      "balancing": 5440,
      "stare": 5441,
      "pencils": 5442,
      "soaring": 5443,
      "lored": 5444,
      "snuck": 5445,
      "safer": 5446,
      "pockets": 5447,
      "usually": 5448,
      "Slowly": 5449,
      "colored": 5450,
      "tier": 5451,
      "grey": 5452,
      "snowballs": 5453,
      "instruc": 5454,
      "sides": 5455,
      "chie": 5456,
      "giggling": 5457,
      "ornaments": 5458,
      "scrubbed": 5459,
      "batteries": 5460,
      "ware": 5461,
      "growling": 5462,
      "shelves": 5463,
      "limes": 5464,
      "accompl": 5465,
      "Buggy": 5466,
      "Chicky": 5467,
      "Moo": 5468,
      "beamed": 5469,
      "marker": 5470,
      "Something": 5471,
      "conv": 5472,
      "cot": 5473,
      "sequ": 5474,
      "replaced": 5475,
      "snatched": 5476,
      "ences": 5477,
      "prayer": 5478,
      "chop": 5479,
      "ishy": 5480,
      "uct": 5481,
      "clowns": 5482,
      "praying": 5483,
      "ads": 5484,
      "surrounded": 5485,
      "dollhouse": 5486,
      "crabs": 5487,
      "For": 5488,
      "pastels": 5489,
      "boom": 5490,
      "opening": 5491,
      "Star": 5492,
      "isies": 5493,
      "scor": 5494,
      "becoming": 5495,
      "Toto": 5496,
      "consequ": 5497,
      "alright": 5498,
      "strum": 5499,
      "disco": 5500,
      "daisies": 5501,
      "complet": 5502,
      "talented": 5503,
      "instructions": 5504,
      "screaming": 5505,
      "raind": 5506,
      "watches": 5507,
      "rainbows": 5508,
      "ppa": 5509,
      "insects": 5510,
      "perched": 5511,
      "fairies": 5512,
      "heartbroken": 5513,
      "delivered": 5514,
      "curly": 5515,
      "Water": 5516,
      "discovery": 5517,
      "Hold": 5518,
      "Green": 5519,
      "fascinated": 5520,
      "Dav": 5521,
      "Put": 5522,
      "smar": 5523,
      "whatever": 5524,
      "towels": 5525,
      "consequences": 5526,
      "fever": 5527,
      "crackers": 5528,
      "knelt": 5529,
      "itches": 5530,
      "dusty": 5531,
      "blocking": 5532,
      "Ziggy": 5533,
      "tles": 5534,
      "thorn": 5535,
      "colours": 5536,
      "tuce": 5537,
      "lettuce": 5538,
      "fied": 5539,
      "Achoo": 5540,
      "screams": 5541,
      "Prin": 5542,
      "paying": 5543,
      "wondering": 5544,
      "ids": 5545,
      "adult": 5546,
      "En": 5547,
      "guing": 5548,
      "Peppa": 5549,
      "horns": 5550,
      "thrilled": 5551,
      "hugging": 5552,
      "sweets": 5553,
      "matters": 5554,
      "avoid": 5555,
      "temper": 5556,
      "poin": 5557,
      "David": 5558,
      "Sky": 5559,
      "snakes": 5560,
      "least": 5561,
      "wandering": 5562,
      "isten": 5563,
      "bridges": 5564,
      "seesaw": 5565,
      "Being": 5566,
      "arguing": 5567,
      "remembering": 5568,
      "tigers": 5569,
      "Listen": 5570,
      "Je": 5571,
      "anced": 5572,
      "heroes": 5573,
      "caut": 5574,
      "ners": 5575,
      "grat": 5576,
      "Thom": 5577,
      "smiley": 5578,
      "patience": 5579,
      "penguins": 5580,
      "Time": 5581,
      "defe": 5582,
      "Rac": 5583,
      "sled": 5584,
      "firefly": 5585,
      "Frank": 5586,
      "BunBun": 5587,
      "ribbons": 5588,
      "pots": 5589,
      "shirts": 5590,
      "decorating": 5591,
      "aut": 5592,
      "tim": 5593,
      "surface": 5594,
      "blooming": 5595,
      "Foxy": 5596,
      "Get": 5597,
      "eats": 5598,
      "Steve": 5599,
      "fault": 5600,
      "reply": 5601,
      "Princess": 5602,
      "'.": 5603,
      "mane": 5604,
      "complained": 5605,
      "ref": 5606,
      "Joy": 5607,
      "darker": 5608,
      "mushrooms": 5609,
      "stretching": 5610,
      "peppers": 5611,
      "improved": 5612,
      "neath": 5613,
      "Thomas": 5614,
      "waits": 5615,
      "bodies": 5616,
      "quacked": 5617,
      "adding": 5618,
      "clearing": 5619,
      "fits": 5620,
      "seashells": 5621,
      "bage": 5622,
      "wiggled": 5623,
      "raindrops": 5624,
      "temperature": 5625,
      "Milly": 5626,
      "toss": 5627,
      "filling": 5628,
      "project": 5629,
      "!\",": 5630,
      "Ray": 5631,
      "garbage": 5632,
      "steep": 5633,
      "lamb": 5634,
      "sale": 5635,
      "Any": 5636,
      "overcome": 5637,
      "sadness": 5638,
      "writ": 5639,
      "dads": 5640,
      "Hope": 5641,
      "dipped": 5642,
      "diving": 5643,
      "osity": 5644,
      "uctantly": 5645,
      "Zoe": 5646,
      "bottles": 5647,
      "sings": 5648,
      "finishing": 5649,
      "stung": 5650,
      "scored": 5651,
      "Nice": 5652,
      "Abig": 5653,
      "recording": 5654,
      "Yesterday": 5655,
      "Afterwards": 5656,
      "Abigail": 5657,
      "Spr": 5658,
      "snowmen": 5659,
      "beehive": 5660,
      "Goodnight": 5661,
      "sparkling": 5662,
      "Lion": 5663,
      "drums": 5664,
      "swept": 5665,
      "prettier": 5666,
      "performed": 5667,
      "eling": 5668,
      "Mid": 5669,
      "awake": 5670,
      "peeking": 5671,
      "Midnight": 5672,
      "oline": 5673,
      "responsib": 5674,
      "stem": 5675,
      "ais": 5676,
      "glitter": 5677,
      "leaning": 5678,
      "quarreling": 5679,
      "swallowed": 5680,
      "separated": 5681,
      "Ju": 5682,
      "suffering": 5683,
      "reminder": 5684,
      "Chickie": 5685,
      "ron": 5686,
      "inviting": 5687,
      "rocked": 5688,
      "delivering": 5689,
      "Mouse": 5690,
      "ambi": 5691,
      "Bambi": 5692,
      "paddled": 5693,
      "Rachel": 5694,
      "tugged": 5695,
      "flown": 5696,
      "reluctantly": 5697,
      "udy": 5698,
      "sal": 5699,
      "wonders": 5700,
      "orted": 5701,
      "helpers": 5702,
      "watering": 5703,
      "scales": 5704,
      "creating": 5705,
      "Bad": 5706,
      "villag": 5707,
      "sports": 5708,
      "char": 5709,
      "screwdriver": 5710,
      "cousin": 5711,
      "fabri": 5712,
      "Leave": 5713,
      "ops": 5714,
      "fabric": 5715,
      "sewed": 5716,
      "Bouncy": 5717,
      "itely": 5718,
      "Feeling": 5719,
      "mischie": 5720,
      "meals": 5721,
      "By": 5722,
      "rocking": 5723,
      "ker": 5724,
      "curiosity": 5725,
      "scarecrow": 5726,
      "sneezing": 5727,
      "flavors": 5728,
      "roaring": 5729,
      "basement": 5730,
      "Katie": 5731,
      "sneaked": 5732,
      "acti": 5733,
      "picnics": 5734,
      "logs": 5735,
      "remembers": 5736,
      "cuddly": 5737,
      "mallow": 5738,
      "shmallow": 5739,
      "dreamt": 5740,
      "Behind": 5741,
      "pennies": 5742,
      "cheering": 5743,
      "copy": 5744,
      "pumpkins": 5745,
      "wins": 5746,
      "gues": 5747,
      "flames": 5748,
      "De": 5749,
      "gears": 5750,
      "million": 5751,
      "shivered": 5752,
      "tasks": 5753,
      "Zigzag": 5754,
      "underneath": 5755,
      "atty": 5756,
      "Silly": 5757,
      "balanced": 5758,
      "hissed": 5759,
      "gross": 5760,
      "itor": 5761,
      "ys": 5762,
      "Hallo": 5763,
      "roses": 5764,
      "villagers": 5765,
      "seaweed": 5766,
      "valued": 5767,
      "marshmallow": 5768,
      "Halloween": 5769,
      "Spring": 5770,
      "!'": 5771,
      "sway": 5772,
      "wound": 5773,
      "provided": 5774,
      "beads": 5775,
      "thro": 5776,
      "forgetting": 5777,
      "behavi": 5778,
      "surroundings": 5779,
      "Cindy": 5780,
      "throat": 5781,
      "feast": 5782,
      "bare": 5783,
      "bows": 5784,
      "supplies": 5785,
      "Twink": 5786,
      "aud": 5787,
      "Spl": 5788,
      "insist": 5789,
      "restored": 5790,
      "genie": 5791,
      "explorer": 5792,
      "Duck": 5793,
      "grinned": 5794,
      "needles": 5795,
      "cub": 5796,
      "sweat": 5797,
      "superheroes": 5798,
      "complaining": 5799,
      "Freddie": 5800,
      "Oli": 5801,
      "Pinch": 5802,
      "zes": 5803,
      "faced": 5804,
      "indeed": 5805,
      "issue": 5806,
      "cobwebs": 5807,
      "wrink": 5808,
      "wadd": 5809,
      "serving": 5810,
      "refle": 5811,
      "peacefully": 5812,
      "Flop": 5813,
      "Rudolph": 5814,
      "rainy": 5815,
      "tails": 5816,
      "plent": 5817,
      "burger": 5818,
      "winked": 5819,
      "Zero": 5820,
      "tramp": 5821,
      "rings": 5822,
      "imagining": 5823,
      "Aunt": 5824,
      "splashes": 5825,
      "kes": 5826,
      "youn": 5827,
      "plenty": 5828,
      "reunited": 5829,
      "stumble": 5830,
      "third": 5831,
      "satis": 5832,
      "audience": 5833,
      "direction": 5834,
      "Take": 5835,
      "Beth": 5836,
      "Ma": 5837,
      "tissue": 5838,
      "Twinkle": 5839,
      "buckets": 5840,
      "Birthday": 5841,
      "anna": 5842,
      "minerals": 5843,
      "Love": 5844,
      "Oops": 5845,
      "Wil": 5846,
      "iles": 5847,
      "kites": 5848,
      "Nan": 5849,
      "Two": 5850,
      "ripe": 5851,
      "crossing": 5852,
      "purr": 5853,
      "arrows": 5854,
      "delivery": 5855,
      "paddle": 5856,
      "trampoline": 5857,
      "tickled": 5858,
      "cans": 5859,
      "ledge": 5860,
      "rockets": 5861,
      "crowd": 5862,
      "mies": 5863,
      "mischievous": 5864,
      "Splash": 5865,
      "feeding": 5866,
      "stain": 5867,
      "sation": 5868,
      "roads": 5869,
      "wires": 5870,
      "froze": 5871,
      "reaching": 5872,
      "timer": 5873,
      "igning": 5874,
      "mints": 5875,
      "hearing": 5876,
      "pointy": 5877,
      "vanilla": 5878,
      "rising": 5879,
      "Vel": 5880,
      "umper": 5881,
      ".'": 5882,
      "Ava": 5883,
      "Velvet": 5884,
      "planting": 5885,
      "Frosty": 5886,
      "visitor": 5887,
      "granddaughter": 5888,
      "sewing": 5889,
      "rup": 5890,
      "loading": 5891,
      "Sk": 5892,
      "Jess": 5893,
      "Poor": 5894,
      "freed": 5895,
      "gems": 5896,
      "Sparkles": 5897,
      "ippy": 5898,
      "joking": 5899,
      "squares": 5900,
      "celebrating": 5901,
      "Kids": 5902,
      "changing": 5903,
      "Want": 5904,
      "Thumper": 5905,
      "peck": 5906,
      "knowledge": 5907,
      "draws": 5908,
      "decides": 5909,
      "remot": 5910,
      "remote": 5911,
      "Ed": 5912,
      "masks": 5913,
      "Fire": 5914,
      "refuse": 5915,
      "mailed": 5916,
      "sights": 5917,
      "cautious": 5918,
      "Flopsy": 5919,
      "handsome": 5920,
      "anger": 5921,
      "Biggie": 5922,
      "steady": 5923,
      "leading": 5924,
      "untied": 5925,
      "Enjoy": 5926,
      "Jump": 5927,
      "marshmallows": 5928,
      "bie": 5929,
      "hike": 5930,
      "fluttering": 5931,
      "Dare": 5932,
      "unpacked": 5933,
      "eath": 5934,
      "Pinchy": 5935,
      "objects": 5936,
      "ateri": 5937,
      "speaking": 5938,
      "performing": 5939,
      "responsibility": 5940,
      "patted": 5941,
      "serv": 5942,
      "guests": 5943,
      "materi": 5944,
      "borrowed": 5945,
      "claps": 5946,
      "helmets": 5947,
      "magnets": 5948,
      "vegg": 5949,
      "bbly": 5950,
      "ivity": 5951,
      "windy": 5952,
      "tractor": 5953,
      "scur": 5954,
      "discovering": 5955,
      "bras": 5956,
      "rule": 5957,
      "traded": 5958,
      "forks": 5959,
      "seas": 5960,
      "causing": 5961,
      "Bree": 5962,
      "catches": 5963,
      "damage": 5964,
      "sweeties": 5965,
      "forgiven": 5966,
      "stro": 5967,
      "deal": 5968,
      "tables": 5969,
      "Gogo": 5970,
      "scurried": 5971,
      "rushing": 5972,
      "drives": 5973,
      "Stitch": 5974,
      "surfing": 5975,
      "meatballs": 5976,
      "biting": 5977,
      "bowls": 5978,
      "creativity": 5979,
      "moo": 5980,
      "instrum": 5981,
      "Ratty": 5982,
      "ena": 5983,
      "rotten": 5984,
      "Jam": 5985,
      "loe": 5986,
      "interested": 5987,
      "dam": 5988,
      "tered": 5989,
      "written": 5990,
      "behaving": 5991,
      "sunflowers": 5992,
      "zebras": 5993,
      "veggies": 5994,
      "completely": 5995,
      "chuck": 5996,
      "Olly": 5997,
      "icky": 5998,
      "wasted": 5999,
      "sadder": 6000,
      "Abby": 6001,
      "Wis": 6002,
      "sen": 6003,
      "dropping": 6004,
      "pops": 6005,
      "puppies": 6006,
      "widened": 6007,
      "napkins": 6008,
      "Lou": 6009,
      "action": 6010,
      "rever": 6011,
      "burnt": 6012,
      "cuts": 6013,
      "tunnels": 6014,
      "haven": 6015,
      "cro": 6016,
      "tricky": 6017,
      "begin": 6018,
      "flight": 6019,
      "...": 6020,
      "Wisdom": 6021,
      "spikes": 6022,
      "Chloe": 6023,
      "ount": 6024,
      "inter": 6025,
      "Pippa": 6026,
      "Mir": 6027,
      "stacked": 6028,
      "conver": 6029,
      "twirling": 6030,
      "players": 6031,
      "designed": 6032,
      "snuggle": 6033,
      "Lu": 6034,
      "outfit": 6035,
      "shoo": 6036,
      "writes": 6037,
      "Stri": 6038,
      "onge": 6039,
      "sponge": 6040,
      "worries": 6041,
      "astron": 6042,
      "lending": 6043,
      "lifting": 6044,
      "repa": 6045,
      "countryside": 6046,
      "peered": 6047,
      "runk": 6048,
      "ounced": 6049,
      "polar": 6050,
      "Run": 6051,
      "inst": 6052,
      "astronaut": 6053,
      "yum": 6054,
      "rains": 6055,
      "surfboard": 6056,
      "slither": 6057,
      "barely": 6058,
      "lighter": 6059,
      "printing": 6060,
      "distracted": 6061,
      "fully": 6062,
      "pigeons": 6063,
      "repaired": 6064,
      "whose": 6065,
      "flags": 6066,
      "dresser": 6067,
      "othing": 6068,
      "Flutter": 6069,
      "Try": 6070,
      "rumble": 6071,
      "Catty": 6072,
      "characters": 6073,
      "triangles": 6074,
      "increased": 6075,
      "tires": 6076,
      "knocking": 6077,
      "beloved": 6078,
      "peas": 6079,
      "directions": 6080,
      "discussed": 6081,
      "wobble": 6082,
      "stays": 6083,
      "Hippy": 6084,
      "tran": 6085,
      "tru": 6086,
      "aimed": 6087,
      "Everyday": 6088,
      "wiping": 6089,
      "behavior": 6090,
      "crept": 6091,
      "truly": 6092,
      "toaster": 6093,
      "wishing": 6094,
      "irm": 6095,
      "waddled": 6096,
      "willing": 6097,
      "beneath": 6098,
      "cotton": 6099,
      "birdhouse": 6100,
      "mance": 6101,
      "Ally": 6102,
      "sank": 6103,
      "speeding": 6104,
      "Blink": 6105,
      "scraped": 6106,
      "ades": 6107,
      "performance": 6108,
      "glued": 6109,
      "iding": 6110,
      "teaches": 6111,
      "Mis": 6112,
      "vive": 6113,
      "oni": 6114,
      "survive": 6115,
      "Rain": 6116,
      "birdy": 6117,
      "items": 6118,
      "chuckled": 6119,
      "afar": 6120,
      "grows": 6121,
      "backwards": 6122,
      "pleasure": 6123,
      "dragged": 6124,
      "accomplish": 6125,
      "Josh": 6126,
      "atur": 6127,
      "fact": 6128,
      "seven": 6129,
      "rotting": 6130,
      "spreading": 6131,
      "honk": 6132,
      "racco": 6133,
      "Butter": 6134,
      "chases": 6135,
      "reflection": 6136,
      "baller": 6137,
      "thrown": 6138,
      "attacked": 6139,
      "playroom": 6140,
      "pecked": 6141,
      "grandparents": 6142,
      "vines": 6143,
      "rustling": 6144,
      "salty": 6145,
      "pad": 6146,
      "neither": 6147,
      "suitcase": 6148,
      "lungs": 6149,
      "Anytime": 6150,
      "delayed": 6151,
      "sunscreen": 6152,
      "partment": 6153,
      "jackets": 6154,
      "risks": 6155,
      "dollars": 6156,
      "prick": 6157,
      "watermelon": 6158,
      "pans": 6159,
      "plain": 6160,
      "Puddles": 6161,
      "ler": 6162,
      "Julie": 6163,
      "gardener": 6164,
      "Auntie": 6165,
      "satisfied": 6166,
      "badge": 6167,
      "heavier": 6168,
      "sailors": 6169,
      "surrend": 6170,
      "ientist": 6171,
      "darling": 6172,
      "Farm": 6173,
      "blown": 6174,
      "gratul": 6175,
      "owners": 6176,
      "farther": 6177,
      "aeroplanes": 6178,
      "surrendered": 6179,
      "rum": 6180,
      "iled": 6181,
      "dancers": 6182,
      "officers": 6183,
      "unfortunately": 6184,
      "deserve": 6185,
      "ballerina": 6186,
      "cope": 6187,
      "Nina": 6188,
      "rance": 6189,
      "onwards": 6190,
      "politely": 6191,
      "panick": 6192,
      "elace": 6193,
      "shoelace": 6194,
      "determin": 6195,
      "awesome": 6196,
      "learns": 6197,
      "determination": 6198,
      "pose": 6199,
      "scientist": 6200,
      "humans": 6201,
      "atches": 6202,
      "munch": 6203,
      "angle": 6204,
      "Bop": 6205,
      "tempt": 6206,
      "Ah": 6207,
      "spice": 6208,
      "crew": 6209,
      "10": 6210,
      "Fine": 6211,
      "burst": 6212,
      "aisle": 6213,
      "iar": 6214,
      "amount": 6215,
      "ected": 6216,
      "covers": 6217,
      "flapping": 6218,
      "Milo": 6219,
      "wobbled": 6220,
      "pretends": 6221,
      "honked": 6222,
      "familiar": 6223,
      "plans": 6224,
      "teamwork": 6225,
      "ropes": 6226,
      "Excitedly": 6227,
      "bracelets": 6228,
      "suffered": 6229,
      "reason": 6230,
      "raccoon": 6231,
      "Farmer": 6232,
      "mosquitoes": 6233,
      "Fu": 6234,
      "bbed": 6235,
      "steer": 6236,
      "sighs": 6237,
      "ese": 6238,
      "ouch": 6239,
      "nood": 6240,
      "paintbrush": 6241,
      "puppet": 6242,
      "drowned": 6243,
      "Jamie": 6244,
      "ponies": 6245,
      "noses": 6246,
      "ongest": 6247,
      "wiggly": 6248,
      "rious": 6249,
      "outdoors": 6250,
      "haird": 6251,
      "Grumpy": 6252,
      "strongest": 6253,
      "vehicles": 6254,
      "ships": 6255,
      "permitted": 6256,
      "meowing": 6257,
      "hus": 6258,
      "questioned": 6259,
      "itched": 6260,
      "plug": 6261,
      "blows": 6262,
      "Tree": 6263,
      "Hopper": 6264,
      "Ja": 6265,
      "”.": 6266,
      "lies": 6267,
      "Anne": 6268,
      "cocoon": 6269,
      "master": 6270,
      "smarter": 6271,
      "Mous": 6272,
      "solving": 6273,
      "guessing": 6274,
      "dots": 6275,
      "races": 6276,
      "disturbing": 6277,
      "sending": 6278,
      "vities": 6279,
      "slowed": 6280,
      "films": 6281,
      "Chew": 6282,
      "Jeff": 6283,
      "stool": 6284,
      "afterwards": 6285,
      "twinkle": 6286,
      "Hanna": 6287,
      "neatly": 6288,
      "inda": 6289,
      "drif": 6290,
      "Mousy": 6291,
      "Cuddles": 6292,
      "Kay": 6293,
      "ruining": 6294,
      "conversation": 6295,
      "shrunk": 6296,
      "Jenna": 6297,
      "merma": 6298,
      "Gu": 6299,
      "Whee": 6300,
      "Oliver": 6301,
      "fires": 6302,
      "Jilly": 6303,
      "Rover": 6304,
      "celebration": 6305,
      "Dot": 6306,
      "wow": 6307,
      "assur": 6308,
      "starfish": 6309,
      "passports": 6310,
      "ition": 6311,
      "lower": 6312,
      "fleas": 6313,
      "month": 6314,
      "forehead": 6315,
      "stitches": 6316,
      "husband": 6317,
      "ives": 6318,
      "swans": 6319,
      "storekeeper": 6320,
      "ibble": 6321,
      "blu": 6322,
      "smelling": 6323,
      "bravest": 6324,
      "calmed": 6325,
      "colder": 6326,
      "dryer": 6327,
      "knees": 6328,
      "surprising": 6329,
      "bothering": 6330,
      "worrying": 6331,
      "shrinking": 6332,
      "scratching": 6333,
      "opp": 6334,
      "Roar": 6335,
      "planning": 6336,
      "amboo": 6337,
      "exploded": 6338,
      "oysters": 6339,
      "itude": 6340,
      "supported": 6341,
      "aliens": 6342,
      "hairdress": 6343,
      "drawn": 6344,
      "Ping": 6345,
      "cloudy": 6346,
      "fuzzy": 6347,
      "Patch": 6348,
      "Con": 6349,
      "sense": 6350,
      "ica": 6351,
      "ann": 6352,
      "Fid": 6353,
      "date": 6354,
      "Nothing": 6355,
      "cused": 6356,
      "hunters": 6357,
      "conduc": 6358,
      "hairdresser": 6359,
      "Lena": 6360,
      "warmer": 6361,
      "necklaces": 6362,
      "aware": 6363,
      "haw": 6364,
      "listens": 6365,
      "rolls": 6366,
      "brushing": 6367,
      "gracefully": 6368,
      "conductor": 6369,
      "rout": 6370,
      "si": 6371,
      "hog": 6372,
      "windowsill": 6373,
      "Ac": 6374,
      "aws": 6375,
      "forgiving": 6376,
      "blocked": 6377,
      "Only": 6378,
      "agrees": 6379,
      "Fido": 6380,
      "toed": 6381,
      "pens": 6382,
      "poster": 6383,
      "resisted": 6384,
      "entrance": 6385,
      "Mira": 6386,
      "misses": 6387,
      "buzzed": 6388,
      "creations": 6389,
      "Ele": 6390,
      "Adam": 6391,
      "Bang": 6392,
      "slam": 6393,
      "Claire": 6394,
      "sibling": 6395,
      "deed": 6396,
      "bumps": 6397,
      "forgiveness": 6398,
      "Jones": 6399,
      "ooky": 6400,
      "magazines": 6401,
      "ironment": 6402,
      "Shh": 6403,
      "Eddie": 6404,
      "closes": 6405,
      "environment": 6406,
      "hedgehog": 6407,
      "Which": 6408,
      "preparing": 6409,
      "bamboo": 6410,
      "sheets": 6411,
      "tar": 6412,
      "nests": 6413,
      "squishy": 6414,
      "bully": 6415,
      "stern": 6416,
      "formed": 6417,
      "rubs": 6418,
      "coral": 6419,
      "melons": 6420,
      "firm": 6421,
      "Juli": 6422,
      "cidents": 6423,
      "weekend": 6424,
      "cowboy": 6425,
      "respon": 6426,
      "relief": 6427,
      "cheeks": 6428,
      "prickly": 6429,
      "spooky": 6430,
      "slower": 6431,
      "Trust": 6432,
      "tying": 6433,
      "Accidents": 6434,
      "tapped": 6435,
      "floors": 6436,
      "Gina": 6437,
      "scarves": 6438,
      "wept": 6439,
      "breathing": 6440,
      "Vroom": 6441,
      "breathed": 6442,
      "Mix": 6443,
      "startled": 6444,
      "impossible": 6445,
      "displayed": 6446,
      "Hannah": 6447,
      "soaking": 6448,
      "burying": 6449,
      "Jessie": 6450,
      "bably": 6451,
      "probably": 6452,
      "wobbly": 6453,
      "Does": 6454,
      "yielded": 6455,
      "frowning": 6456,
      "Susan": 6457,
      "acle": 6458,
      "swords": 6459,
      "fishy": 6460,
      "pins": 6461,
      "activities": 6462,
      "nib": 6463,
      "younger": 6464,
      "clues": 6465,
      "convin": 6466,
      "thud": 6467,
      "mermaid": 6468,
      "department": 6469,
      "wrinkled": 6470,
      "manag": 6471,
      "burgers": 6472,
      "Along": 6473,
      "among": 6474,
      "nine": 6475,
      "entire": 6476,
      "Henny": 6477,
      "vow": 6478,
      "beaver": 6479,
      "Cu": 6480,
      "kittens": 6481,
      "licking": 6482,
      "hesitated": 6483,
      "beyond": 6484,
      "figured": 6485,
      "Without": 6486,
      "puck": 6487,
      "merry": 6488,
      "tiptoed": 6489,
      "Pu": 6490,
      "ighty": 6491,
      "source": 6492,
      "airplanes": 6493,
      "focused": 6494,
      "Jacob": 6495,
      "airy": 6496,
      "Peep": 6497,
      "overheard": 6498,
      "policeman": 6499,
      "thoughts": 6500,
      "blinking": 6501,
      "athy": 6502,
      "reminding": 6503,
      "Elephant": 6504,
      "Mighty": 6505,
      "luckily": 6506,
      "Linda": 6507,
      "ider": 6508,
      "wears": 6509,
      "Isn": 6510,
      "floats": 6511,
      "...\"": 6512,
      "grabbing": 6513,
      "defeated": 6514,
      "dived": 6515,
      "flipped": 6516,
      "drifted": 6517,
      "asing": 6518,
      "reversed": 6519,
      "lent": 6520,
      "spoonful": 6521,
      "Rudy": 6522,
      "streamers": 6523,
      "det": 6524,
      "Rolly": 6525,
      "stopping": 6526,
      "sobbed": 6527,
      "dances": 6528,
      "damaged": 6529,
      "Wilbur": 6530,
      "belongings": 6531,
      "suits": 6532,
      "focus": 6533,
      "craft": 6534,
      "students": 6535,
      "assured": 6536,
      "liqu": 6537,
      "stomped": 6538,
      "servant": 6539,
      "scratches": 6540,
      "sprang": 6541,
      "handing": 6542,
      "ene": 6543,
      "noodles": 6544,
      "anno": 6545,
      "waking": 6546,
      "joked": 6547,
      "Squeak": 6548,
      "notes": 6549,
      "treated": 6550,
      "Skip": 6551,
      "Mi": 6552,
      "Fish": 6553,
      "mate": 6554,
      "aled": 6555,
      "earn": 6556,
      "sweetest": 6557,
      "snowfla": 6558,
      "Crusty": 6559,
      "annoy": 6560,
      "Make": 6561,
      "Sparkle": 6562,
      "seeker": 6563,
      "Ball": 6564,
      "maker": 6565,
      "tipped": 6566,
      "rrr": 6567,
      "siblings": 6568,
      "fins": 6569,
      "click": 6570,
      "shoelaces": 6571,
      "Dizzy": 6572,
      "cleaner": 6573,
      "knots": 6574,
      "nibble": 6575,
      "ading": 6576,
      "yourselves": 6577,
      "secure": 6578,
      "kicks": 6579,
      "bitten": 6580,
      "everyday": 6581,
      "ignoring": 6582,
      "smoking": 6583,
      "sprinkled": 6584,
      "rescuing": 6585,
      "postman": 6586,
      "Claus": 6587,
      "hum": 6588,
      "dod": 6589,
      "dressing": 6590,
      "Jon": 6591,
      "grip": 6592,
      "softer": 6593,
      "backed": 6594,
      "beautifully": 6595,
      "pupils": 6596,
      "convinced": 6597,
      "aller": 6598,
      "twisting": 6599,
      "trans": 6600,
      "convince": 6601,
      "Snap": 6602,
      "groups": 6603,
      "insp": 6604,
      "argum": 6605,
      "aside": 6606,
      "decoration": 6607,
      "seconds": 6608,
      "twinkling": 6609,
      "shat": 6610,
      "thest": 6611,
      "Chuck": 6612,
      "Mine": 6613,
      "pant": 6614,
      "bert": 6615,
      "mattered": 6616,
      "hider": 6617,
      "weeds": 6618,
      "sailboat": 6619,
      "Wink": 6620,
      "ramp": 6621,
      "Rib": 6622,
      "bathing": 6623,
      "figures": 6624,
      "neighbourhood": 6625,
      "Que": 6626,
      "syrup": 6627,
      "Luke": 6628,
      "Dara": 6629,
      "twice": 6630,
      "haircuts": 6631,
      "hallway": 6632,
      "site": 6633,
      "images": 6634,
      "Ribbit": 6635,
      "Cow": 6636,
      "counts": 6637,
      "reads": 6638,
      "pouted": 6639,
      "assm": 6640,
      "Sleep": 6641,
      "Lots": 6642,
      "correct": 6643,
      "jars": 6644,
      "screws": 6645,
      "Ant": 6646,
      "encouragement": 6647,
      "Mikey": 6648,
      "lessons": 6649,
      "streets": 6650,
      "worn": 6651,
      "Whistle": 6652,
      "handful": 6653,
      "sharks": 6654,
      "jobs": 6655,
      "seatbelt": 6656,
      "Stripe": 6657,
      "Hurry": 6658,
      "plot": 6659,
      "tested": 6660,
      "explorers": 6661,
      "eted": 6662,
      "partic": 6663,
      "jets": 6664,
      "hawk": 6665,
      "refresh": 6666,
      "however": 6667,
      "rivers": 6668,
      "bulbs": 6669,
      "instruments": 6670,
      "Other": 6671,
      "rewarded": 6672,
      "lipstick": 6673,
      "cept": 6674,
      "robots": 6675,
      "trembled": 6676,
      "Nana": 6677,
      "center": 6678,
      "ipes": 6679,
      "Monkey": 6680,
      "Ske": 6681,
      "Skelly": 6682,
      "Jay": 6683,
      "packages": 6684,
      "talents": 6685,
      "doorbell": 6686,
      "guide": 6687,
      "covering": 6688,
      "angels": 6689,
      "ease": 6690,
      "hotter": 6691,
      "silent": 6692,
      "beeped": 6693,
      "Queen": 6694,
      "raging": 6695,
      "refreshing": 6696,
      "tum": 6697,
      "wipes": 6698,
      "liquid": 6699,
      "darkness": 6700,
      "Honey": 6701,
      "hides": 6702,
      "roller": 6703,
      "artwork": 6704,
      "situations": 6705,
      "recess": 6706,
      "rather": 6707,
      "shines": 6708,
      "crashing": 6709,
      "manners": 6710,
      "ortun": 6711,
      "slipping": 6712,
      "Near": 6713,
      "rier": 6714,
      "vil": 6715,
      "loops": 6716,
      "batch": 6717,
      "popsic": 6718,
      "Nobody": 6719,
      "vented": 6720,
      "sweep": 6721,
      "Fuzzy": 6722,
      "thorns": 6723,
      "amed": 6724,
      "haust": 6725,
      "wisely": 6726,
      "ties": 6727,
      "Copper": 6728,
      "Julia": 6729,
      "zie": 6730,
      "Cathy": 6731,
      "Dee": 6732,
      "ply": 6733,
      "squished": 6734,
      "pound": 6735,
      "allerg": 6736,
      "spices": 6737,
      "argument": 6738,
      "slices": 6739,
      "creamy": 6740,
      "spells": 6741,
      "swimmer": 6742,
      "cupcake": 6743,
      "quarreled": 6744,
      "routine": 6745,
      "Willy": 6746,
      "tricycle": 6747,
      "dot": 6748,
      "ments": 6749,
      "exhaust": 6750,
      "shattered": 6751,
      "blast": 6752,
      "designing": 6753,
      "cushions": 6754,
      "Jessica": 6755,
      "rie": 6756,
      "odd": 6757,
      "tighter": 6758,
      "Shar": 6759,
      "pedaled": 6760,
      "vowed": 6761,
      "kings": 6762,
      "Sim": 6763,
      "lan": 6764,
      "geese": 6765,
      "ghosts": 6766,
      "ppies": 6767,
      "prevented": 6768,
      "posit": 6769,
      "swims": 6770,
      "mixture": 6771,
      "panicked": 6772,
      "Mel": 6773,
      "storms": 6774,
      "teapot": 6775,
      "encou": 6776,
      "campfire": 6777,
      "Ash": 6778,
      "toolbox": 6779,
      "Ostrich": 6780,
      "Playing": 6781,
      "buddy": 6782,
      "pea": 6783,
      "flowing": 6784,
      "combed": 6785,
      "poisonous": 6786,
      "encouraging": 6787,
      "heading": 6788,
      "charge": 6789,
      "Open": 6790,
      "tuck": 6791,
      "knives": 6792,
      "Raven": 6793,
      "cautiously": 6794,
      "height": 6795,
      "paths": 6796,
      "stalk": 6797,
      "Abb": 6798,
      "?\",": 6799,
      "quie": 6800,
      "overhead": 6801,
      "appreciated": 6802,
      "labels": 6803,
      "Moon": 6804,
      "yells": 6805,
      "Robo": 6806,
      "greeted": 6807,
      "ventured": 6808,
      "Fairy": 6809,
      "dangers": 6810,
      "cons": 6811,
      "motorcycles": 6812,
      "imaginary": 6813,
      "Tara": 6814,
      "Dodo": 6815,
      "Years": 6816,
      "Suzie": 6817,
      "farthest": 6818,
      "cts": 6819,
      "travell": 6820,
      "beginning": 6821,
      "cutter": 6822,
      "Pingu": 6823,
      "evil": 6824,
      "nug": 6825,
      "puff": 6826,
      "tossed": 6827,
      "Pup": 6828,
      "Wake": 6829,
      "reassured": 6830,
      "languages": 6831,
      "Hor": 6832,
      "rent": 6833,
      "hadow": 6834,
      "rowed": 6835,
      "healthier": 6836,
      "immer": 6837,
      "soundly": 6838,
      "seagulls": 6839,
      "dip": 6840,
      "playhouse": 6841,
      "appearance": 6842,
      "pays": 6843,
      "exercises": 6844,
      "sprout": 6845,
      "business": 6846,
      "Paws": 6847,
      "roast": 6848,
      "Peanut": 6849,
      "designs": 6850,
      "Zee": 6851,
      "tage": 6852,
      "weapons": 6853,
      "quieter": 6854,
      "raking": 6855,
      "slammed": 6856,
      "rats": 6857,
      "exhausted": 6858,
      "Mu": 6859,
      "Larry": 6860,
      "bber": 6861,
      "plumber": 6862,
      "except": 6863,
      "Dear": 6864,
      "Mic": 6865,
      "swimsuit": 6866,
      "knocks": 6867,
      "Gerry": 6868,
      "poppies": 6869,
      "leads": 6870,
      "Sophia": 6871,
      "tweet": 6872,
      "talks": 6873,
      "traveling": 6874,
      "grandson": 6875,
      "Izzy": 6876,
      "waterfall": 6877,
      "Doctor": 6878,
      "Stre": 6879,
      "destroying": 6880,
      "messes": 6881,
      "opinions": 6882,
      "Kayla": 6883,
      "nuggets": 6884,
      "fluttered": 6885,
      "Magic": 6886,
      "judges": 6887,
      "fries": 6888,
      "hopeful": 6889,
      "Ice": 6890,
      "ining": 6891,
      "Turt": 6892,
      "wance": 6893,
      "allowance": 6894,
      "dou": 6895,
      "crops": 6896,
      "Fishy": 6897,
      "unsure": 6898,
      "creams": 6899,
      "materials": 6900,
      "retrie": 6901,
      "quet": 6902,
      "pered": 6903,
      "flip": 6904,
      "acts": 6905,
      "Bark": 6906,
      "turtles": 6907,
      "buses": 6908,
      "unpacking": 6909,
      "classm": 6910,
      "Too": 6911,
      "forgets": 6912,
      "shown": 6913,
      "Se": 6914,
      "collap": 6915,
      "Sundays": 6916,
      "defeat": 6917,
      "chefs": 6918,
      "guarding": 6919,
      "Laser": 6920,
      "sie": 6921,
      "scattering": 6922,
      "instin": 6923,
      "Man": 6924,
      "ilder": 6925,
      "obeyed": 6926,
      "wraps": 6927,
      "allergic": 6928,
      "distract": 6929,
      "particular": 6930,
      "Pam": 6931,
      "bou": 6932,
      "Sweet": 6933,
      "aven": 6934,
      "seals": 6935,
      "sniffing": 6936,
      "bouquet": 6937,
      "corners": 6938,
      "pancake": 6939,
      "Robbie": 6940,
      "flashing": 6941,
      "flooded": 6942,
      "tock": 6943,
      "force": 6944,
      "returning": 6945,
      "gle": 6946,
      "playdate": 6947,
      "testing": 6948,
      "chosen": 6949,
      "wakes": 6950,
      "cig": 6951,
      "Another": 6952,
      "express": 6953,
      "seller": 6954,
      "robber": 6955,
      "magically": 6956,
      "camel": 6957,
      "visitors": 6958,
      "Bloom": 6959,
      "Lizz": 6960,
      "hatch": 6961,
      "Very": 6962,
      "shops": 6963,
      "Lizzie": 6964,
      "?'": 6965,
      "aret": 6966,
      "honesty": 6967,
      "decisions": 6968,
      "ping": 6969,
      "correctly": 6970,
      "abra": 6971,
      "Guess": 6972,
      "announced": 6973,
      "hatched": 6974,
      "cigaret": 6975,
      "swirl": 6976,
      "unicorns": 6977,
      "echo": 6978,
      "purpose": 6979,
      "udged": 6980,
      "bells": 6981,
      "instincts": 6982,
      "heaven": 6983,
      "cock": 6984,
      "adabra": 6985,
      "chilly": 6986,
      "sails": 6987,
      "manager": 6988,
      "braver": 6989,
      "freezing": 6990,
      "salon": 6991,
      "leaking": 6992,
      "chopped": 6993,
      "zipping": 6994,
      "Abbie": 6995,
      "Min": 6996,
      "coach": 6997,
      "phones": 6998,
      "spat": 6999,
      "drawers": 7000,
      "calmly": 7001,
      "Stella": 7002,
      "Cara": 7003,
      "Tig": 7004,
      "shor": 7005,
      "hangers": 7006,
      "breaths": 7007,
      "tummies": 7008,
      "inchworm": 7009,
      "peeled": 7010,
      "sweaty": 7011,
      "xy": 7012,
      "daring": 7013,
      "Up": 7014,
      "prove": 7015,
      "complim": 7016,
      "gobbled": 7017,
      "ollie": 7018,
      "Snowman": 7019,
      "growls": 7020,
      "accomplished": 7021,
      "Curious": 7022,
      "sparks": 7023,
      "Gray": 7024,
      "thanking": 7025,
      "bicycles": 7026,
      "Shelly": 7027,
      "squeezing": 7028,
      "symbols": 7029,
      "stroked": 7030,
      "Sof": 7031,
      "Boys": 7032,
      "spins": 7033,
      "tentacle": 7034,
      "rely": 7035,
      "scooters": 7036,
      "Stripey": 7037,
      "dump": 7038,
      "spare": 7039,
      "coolest": 7040,
      "blushed": 7041,
      "ammy": 7042,
      "shady": 7043,
      "touches": 7044,
      "neare": 7045,
      "poses": 7046,
      "drivers": 7047,
      "chug": 7048,
      "minded": 7049,
      "runner": 7050,
      "whispers": 7051,
      "respected": 7052,
      "belts": 7053,
      "seasons": 7054,
      "months": 7055,
      "Never": 7056,
      "gazing": 7057,
      "upside": 7058,
      "disappoint": 7059,
      "nch": 7060,
      "singers": 7061,
      "Stret": 7062,
      "shorter": 7063,
      "hael": 7064,
      "container": 7065,
      "Wor": 7066,
      "germs": 7067,
      "beanstalk": 7068,
      "sometime": 7069,
      "gras": 7070,
      "friendships": 7071,
      "goo": 7072,
      "healing": 7073,
      "cas": 7074,
      "usty": 7075,
      "couple": 7076,
      "grassy": 7077,
      "invitations": 7078,
      "June": 7079,
      "Stretch": 7080,
      "single": 7081,
      "Bless": 7082,
      "Nick": 7083,
      "footprints": 7084,
      "Matt": 7085,
      "whoever": 7086,
      "closing": 7087,
      "bandages": 7088,
      "engers": 7089,
      "nif": 7090,
      "stals": 7091,
      "Missy": 7092,
      "backward": 7093,
      "ulp": 7094,
      "diamonds": 7095,
      "certain": 7096,
      "hunting": 7097,
      "munching": 7098,
      "Michael": 7099,
      "Gold": 7100,
      "rewards": 7101,
      "target": 7102,
      "potty": 7103,
      "hoops": 7104,
      "pandas": 7105,
      "yan": 7106,
      "passengers": 7107,
      "battle": 7108,
      "chocolates": 7109,
      "Mabel": 7110,
      "Whoever": 7111,
      "Bones": 7112,
      "rigued": 7113,
      "Dove": 7114,
      "yelped": 7115,
      "offering": 7116,
      "classmates": 7117,
      "nu": 7118,
      "crystals": 7119,
      "buckled": 7120,
      "nightmares": 7121,
      "Rich": 7122,
      "reminds": 7123,
      "communi": 7124,
      "shave": 7125,
      "sped": 7126,
      "hour": 7127,
      "inju": 7128,
      "asers": 7129,
      "shovels": 7130,
      "Oak": 7131,
      "footsteps": 7132,
      "nurses": 7133,
      "achieved": 7134,
      "stinky": 7135,
      "pills": 7136,
      "Robert": 7137,
      "inspired": 7138,
      "Sup": 7139,
      "Satur": 7140,
      "tentacles": 7141,
      "Say": 7142,
      "traps": 7143,
      "slithered": 7144,
      "stands": 7145,
      "scri": 7146,
      "squealed": 7147,
      "experiences": 7148,
      "moat": 7149,
      "positive": 7150,
      "teles": 7151,
      "untangled": 7152,
      "untangle": 7153,
      "cleared": 7154,
      "Maya": 7155,
      "believing": 7156,
      "Turtle": 7157,
      "hops": 7158,
      "gesture": 7159,
      "active": 7160,
      "necess": 7161,
      "Gary": 7162,
      "bi": 7163,
      "wasting": 7164,
      "stores": 7165,
      "crowns": 7166,
      "telescope": 7167,
      "Ral": 7168,
      "taped": 7169,
      "presses": 7170,
      "nuzz": 7171,
      "Show": 7172,
      "freedom": 7173,
      "cheaper": 7174,
      "stacking": 7175,
      "iti": 7176,
      "exhi": 7177,
      "kayaking": 7178,
      "horiz": 7179,
      "weighs": 7180,
      "Karen": 7181,
      "Mart": 7182,
      "dripping": 7183,
      "occas": 7184,
      "grandchild": 7185,
      "Ralph": 7186,
      "somebody": 7187,
      "queens": 7188,
      "Prince": 7189,
      "popsicle": 7190,
      "pres": 7191,
      "bats": 7192,
      "statues": 7193,
      "novels": 7194,
      "horizon": 7195,
      "Lau": 7196,
      "student": 7197,
      "sim": 7198,
      "bolt": 7199,
      "Martha": 7200,
      "Pret": 7201,
      "sou": 7202,
      "teams": 7203,
      "pantry": 7204,
      "Toys": 7205,
      "forts": 7206,
      "Sna": 7207,
      "rigg": 7208,
      "gratulations": 7209,
      "Lia": 7210,
      "ilities": 7211,
      "idence": 7212,
      "erup": 7213,
      "Wise": 7214,
      "beating": 7215,
      "scurry": 7216,
      "coughing": 7217,
      "response": 7218,
      "everybody": 7219,
      "Rollie": 7220,
      "builder": 7221,
      "necessary": 7222,
      "--": 7223,
      "auntie": 7224,
      "ilted": 7225,
      "rays": 7226,
      "Piggy": 7227,
      "encounter": 7228,
      "endy": 7229,
      "actor": 7230,
      "donkey": 7231,
      "swollen": 7232,
      "curiously": 7233,
      "Close": 7234,
      "Piggie": 7235,
      "Yo": 7236,
      "Univer": 7237,
      "changes": 7238,
      "spills": 7239,
      "accomplishment": 7240,
      "journeys": 7241,
      "Sl": 7242,
      "mesmer": 7243,
      "repairman": 7244,
      "Ot": 7245,
      "Black": 7246,
      "Chris": 7247,
      "answering": 7248,
      "Super": 7249,
      "py": 7250,
      "lever": 7251,
      "lava": 7252,
      "punishment": 7253,
      "Spir": 7254,
      "joining": 7255,
      "item": 7256,
      "sitter": 7257,
      "checking": 7258,
      "increasing": 7259,
      "Laura": 7260,
      "failed": 7261,
      "Spirit": 7262,
      "lers": 7263,
      "tapping": 7264,
      "olves": 7265,
      "cheat": 7266,
      "petting": 7267,
      "suggestion": 7268,
      "Tre": 7269,
      "exercising": 7270,
      "utu": 7271,
      "iciest": 7272,
      "nibbled": 7273,
      "Use": 7274,
      "longest": 7275,
      "weaker": 7276,
      "edges": 7277,
      "Congratulations": 7278,
      "grumbled": 7279,
      "whipped": 7280,
      "Ron": 7281,
      "prizes": 7282,
      "cherish": 7283,
      "Quacky": 7284,
      "wrigg": 7285,
      "spilling": 7286,
      "landing": 7287,
      "stepping": 7288,
      "lifts": 7289,
      "Although": 7290,
      "Shr": 7291,
      "slips": 7292,
      "flick": 7293,
      "yawning": 7294,
      "Oxy": 7295,
      "Fight": 7296,
      "adults": 7297,
      "conne": 7298,
      "obsta": 7299,
      "snowflakes": 7300,
      "obstacle": 7301,
      "Eww": 7302,
      "material": 7303,
      "ias": 7304,
      "doorstep": 7305,
      "checkout": 7306,
      "springtime": 7307,
      "Abra": 7308,
      "foxes": 7309,
      "costs": 7310,
      "tearing": 7311,
      "uniforms": 7312,
      "communicate": 7313,
      "?!\"": 7314,
      "pipes": 7315,
      "squeak": 7316,
      "pinching": 7317,
      "collapsed": 7318,
      "connected": 7319,
      "Wolf": 7320,
      "ric": 7321,
      "repeating": 7322,
      "double": 7323,
      "Find": 7324,
      "otch": 7325,
      "shorts": 7326,
      "sniffs": 7327,
      "Puppy": 7328,
      "Ryan": 7329,
      "Shadow": 7330,
      "cky": 7331,
      "Zoey": 7332,
      "engines": 7333,
      "tubes": 7334,
      "honking": 7335,
      "'.\"": 7336,
      "mow": 7337,
      "address": 7338,
      "tasting": 7339,
      "minds": 7340,
      "Simon": 7341,
      "Toot": 7342,
      "scotch": 7343,
      "squir": 7344,
      "tant": 7345,
      "lia": 7346,
      "locks": 7347,
      "habit": 7348,
      "bec": 7349,
      "coop": 7350,
      "tutu": 7351,
      "Momma": 7352,
      "experim": 7353,
      "consider": 7354,
      "enthusias": 7355,
      "enthusiasm": 7356,
      "signing": 7357,
      "switched": 7358,
      "dollar": 7359,
      "elect": 7360,
      "tantrum": 7361,
      "Light": 7362,
      "bud": 7363,
      "Barky": 7364,
      "exhibit": 7365,
      "sipped": 7366,
      "type": 7367,
      "rows": 7368,
      "Eat": 7369,
      "toise": 7370,
      "Jackie": 7371,
      "fireflies": 7372,
      "babysitter": 7373,
      "Fighting": 7374,
      "Zippy": 7375,
      "lifeguard": 7376,
      "appreciation": 7377,
      "Share": 7378,
      "peacock": 7379,
      "aboard": 7380,
      "otion": 7381,
      "squaw": 7382,
      "whispering": 7383,
      "mooed": 7384,
      "Pretty": 7385,
      "Emmy": 7386,
      "ashes": 7387,
      "cadabra": 7388,
      "Smo": 7389,
      "clue": 7390,
      "hopscotch": 7391,
      "examining": 7392,
      "springing": 7393,
      "admit": 7394,
      "cells": 7395,
      "bothered": 7396,
      "Yet": 7397,
      "birdies": 7398,
      "tours": 7399,
      "pours": 7400,
      "flips": 7401,
      "llow": 7402,
      "wolves": 7403,
      "supplied": 7404,
      "confidence": 7405,
      "Ring": 7406,
      "clip": 7407,
      "opportun": 7408,
      "dred": 7409,
      "skate": 7410,
      "clearly": 7411,
      "transformed": 7412,
      "Mad": 7413,
      "miles": 7414,
      "kneeling": 7415,
      "Abracadabra": 7416,
      "Sa": 7417,
      "choosing": 7418,
      "gratitude": 7419,
      "vac": 7420,
      "earned": 7421,
      "roars": 7422,
      "arran": 7423,
      "ently": 7424,
      "shinier": 7425,
      "listener": 7426,
      "nervously": 7427,
      "relaxing": 7428,
      "Davey": 7429,
      "robb": 7430,
      "plugged": 7431,
      "Mother": 7432,
      "Janie": 7433,
      "tortoise": 7434,
      "Saturday": 7435,
      "orders": 7436,
      "Zog": 7437,
      "twists": 7438,
      "providing": 7439,
      "insisting": 7440,
      "Kit": 7441,
      "cour": 7442,
      "within": 7443,
      "intrigued": 7444,
      "borrowing": 7445,
      "parable": 7446,
      "antha": 7447,
      "Samantha": 7448,
      "Mean": 7449,
      "robbers": 7450,
      "Holly": 7451,
      "Beaky": 7452,
      "pepperoni": 7453,
      "inseparable": 7454,
      "Gus": 7455,
      "Titi": 7456,
      "prayers": 7457,
      "backpacks": 7458,
      "ashed": 7459,
      "cheated": 7460,
      "helicopters": 7461,
      "fights": 7462,
      "wrecked": 7463,
      "ssss": 7464,
      "connect": 7465,
      "benches": 7466,
      "Outside": 7467,
      "Imag": 7468,
      "ien": 7469,
      "results": 7470,
      "firmly": 7471,
      "sever": 7472,
      "Bar": 7473,
      "Sw": 7474,
      "Since": 7475,
      "Ar": 7476,
      "bbling": 7477,
      "foggy": 7478,
      "lunchtime": 7479,
      "giggles": 7480,
      "Bugs": 7481,
      "wider": 7482,
      "temptation": 7483,
      "litter": 7484,
      "campsite": 7485,
      "napped": 7486,
      "nodding": 7487,
      "microwave": 7488,
      "models": 7489,
      "supporting": 7490,
      "echoed": 7491,
      "hundred": 7492,
      "clicked": 7493,
      "gro": 7494,
      "massages": 7495,
      "Chess": 7496,
      "Lenny": 7497,
      "natur": 7498,
      "pounced": 7499,
      "whales": 7500,
      "Muffin": 7501,
      "lody": 7502,
      "current": 7503,
      "sandy": 7504,
      "Pl": 7505,
      "Helping": 7506,
      "ream": 7507,
      "thicker": 7508,
      "noticing": 7509,
      "sirens": 7510,
      "hew": 7511,
      "automobiles": 7512,
      "University": 7513,
      "momma": 7514,
      "elf": 7515,
      "Meanwhile": 7516,
      "coloured": 7517,
      "glee": 7518,
      "Tia": 7519,
      "showers": 7520,
      "trusting": 7521,
      "Ana": 7522,
      "Cap": 7523,
      "sess": 7524,
      "section": 7525,
      "!”.": 7526,
      "Bru": 7527,
      "Thunder": 7528,
      "sculp": 7529,
      "onna": 7530,
      "oken": 7531,
      "tops": 7532,
      "messed": 7533,
      "marking": 7534,
      "custom": 7535,
      "rowing": 7536,
      "llas": 7537,
      "brellas": 7538,
      "erase": 7539,
      "freely": 7540,
      "sweaters": 7541,
      "Imagine": 7542,
      "Mat": 7543,
      "topping": 7544,
      "sculpture": 7545,
      "chopping": 7546,
      "driveway": 7547,
      "customers": 7548,
      "gummy": 7549,
      "antic": 7550,
      "umbrellas": 7551,
      "exchange": 7552,
      "congratul": 7553,
      "drying": 7554,
      "scrub": 7555,
      "approach": 7556,
      "juiciest": 7557,
      "baskets": 7558,
      "Hmm": 7559,
      "Wendy": 7560,
      "bride": 7561,
      "cottage": 7562,
      "observing": 7563,
      "scares": 7564,
      "toothbrush": 7565,
      "mommies": 7566,
      "sneezes": 7567,
      "lul": 7568,
      "Otto": 7569,
      "Kip": 7570,
      "shopper": 7571,
      "scent": 7572,
      "Elle": 7573,
      "Nor": 7574,
      "Bumpy": 7575,
      "aim": 7576,
      "stur": 7577,
      "duckie": 7578,
      "cracks": 7579,
      "travels": 7580,
      "magnif": 7581,
      "scurrying": 7582,
      "raising": 7583,
      "tests": 7584,
      "moderation": 7585,
      "wiggling": 7586,
      "discussing": 7587,
      "Claw": 7588,
      "Jojo": 7589,
      "preschool": 7590,
      "Clim": 7591,
      "cigarette": 7592,
      "throughout": 7593,
      "messages": 7594,
      "Cook": 7595,
      "Desp": 7596,
      "Despite": 7597,
      "ankle": 7598,
      "Birds": 7599,
      "frowns": 7600,
      "Win": 7601,
      "tidying": 7602,
      "smoothly": 7603,
      "completing": 7604,
      "Rusty": 7605,
      "squish": 7606,
      "beetles": 7607,
      "nearest": 7608,
      "Captain": 7609,
      "Ame": 7610,
      "erk": 7611,
      "mood": 7612,
      "cooled": 7613,
      "Ms": 7614,
      "todd": 7615,
      "caterpillars": 7616,
      "applauding": 7617,
      "experien": 7618,
      "Jacky": 7619,
      "wealth": 7620,
      "Abi": 7621,
      "More": 7622,
      "whim": 7623,
      "Everybody": 7624,
      "comforting": 7625,
      "Dani": 7626,
      "dia": 7627,
      "hil": 7628,
      "hoot": 7629,
      "tickling": 7630,
      "stuffing": 7631,
      "Drag": 7632,
      "efforts": 7633,
      "grasshopper": 7634,
      "Barry": 7635,
      "faded": 7636,
      "juggling": 7637,
      "demanding": 7638,
      "twinkled": 7639,
      "teachers": 7640,
      "shrank": 7641,
      "slapping": 7642,
      "reappeared": 7643,
      "goats": 7644,
      "ying": 7645,
      "belli": 7646,
      "hooks": 7647,
      "iky": 7648,
      "Herb": 7649,
      "popping": 7650,
      "countries": 7651,
      "detail": 7652,
      "cent": 7653,
      "whined": 7654,
      "headache": 7655,
      "Sadie": 7656,
      "smartest": 7657,
      "lowered": 7658,
      "Todd": 7659,
      "swat": 7660,
      "Meg": 7661,
      "repairing": 7662,
      "Alright": 7663,
      "Judy": 7664,
      "hiss": 7665,
      "thos": 7666,
      "Ange": 7667,
      "stethos": 7668,
      "scratchy": 7669,
      "deserved": 7670,
      "bellies": 7671,
      "conut": 7672,
      "osh": 7673,
      "unstuck": 7674,
      "homeless": 7675,
      "lunchbox": 7676,
      "emerged": 7677,
      "ats": 7678,
      "coconut": 7679,
      "laby": 7680,
      "ability": 7681,
      "knit": 7682,
      "crickets": 7683,
      "scoops": 7684,
      "Tiger": 7685,
      "lullaby": 7686,
      "Pig": 7687,
      "Spin": 7688,
      "alley": 7689,
      "plucked": 7690,
      "antlers": 7691,
      "ketch": 7692,
      "avy": 7693,
      "ounce": 7694,
      "burns": 7695,
      "crafts": 7696,
      "Minnie": 7697,
      "blank": 7698,
      "snowy": 7699,
      "understands": 7700,
      "apers": 7701,
      "Bruce": 7702,
      "Mint": 7703,
      "Nur": 7704,
      "sly": 7705,
      "orrow": 7706,
      "winners": 7707,
      "Sc": 7708,
      "Taking": 7709,
      "outfits": 7710,
      "kinder": 7711,
      "Tooth": 7712,
      "vast": 7713,
      "annoyed": 7714,
      "Roo": 7715,
      "backs": 7716,
      "storing": 7717,
      "ugging": 7718,
      "immering": 7719,
      "toppings": 7720,
      "Judge": 7721,
      "angrier": 7722,
      "thunderstorm": 7723,
      "grandfather": 7724,
      "Roger": 7725,
      "sicker": 7726,
      "wrapper": 7727,
      "Stan": 7728,
      "wrench": 7729,
      "activity": 7730,
      "Goldie": 7731,
      "groan": 7732,
      "natural": 7733,
      "stethoscope": 7734,
      "urity": 7735,
      "congratulated": 7736,
      "sweeter": 7737,
      "fills": 7738,
      "pounds": 7739,
      "Te": 7740,
      "slee": 7741,
      "cuddles": 7742,
      "Nurse": 7743,
      "cine": 7744,
      "ita": 7745,
      "scam": 7746,
      "Marie": 7747,
      "concent": 7748,
      "glo": 7749,
      "spits": 7750,
      "lotte": 7751,
      "terrified": 7752,
      "Charlotte": 7753,
      "Should": 7754,
      "via": 7755,
      "cafe": 7756,
      "attitude": 7757,
      "newspapers": 7758,
      "cages": 7759,
      "erosity": 7760,
      "wounds": 7761,
      "Ali": 7762,
      "undone": 7763,
      "flowed": 7764,
      "weighing": 7765,
      "astronauts": 7766,
      "nuzzled": 7767,
      "formation": 7768,
      "Truck": 7769,
      "youngest": 7770,
      "mun": 7771,
      "stubbed": 7772,
      "lumberjack": 7773,
      "sturdy": 7774,
      "gonna": 7775,
      "limp": 7776,
      "ula": 7777,
      "sets": 7778,
      "security": 7779,
      "Tomorrow": 7780,
      "iona": 7781,
      "generosity": 7782,
      "paddling": 7783,
      "recorder": 7784,
      "App": 7785,
      "ingo": 7786,
      "prank": 7787,
      "posters": 7788,
      "Jelly": 7789,
      "Pur": 7790,
      "Tur": 7791,
      "vas": 7792,
      "joyful": 7793,
      "scen": 7794,
      "squeaked": 7795,
      "Yoga": 7796,
      "mesmerized": 7797,
      "loses": 7798,
      "unable": 7799,
      "roo": 7800,
      "canvas": 7801,
      "trading": 7802,
      "condition": 7803,
      "otters": 7804,
      "ketchup": 7805,
      "Candy": 7806,
      "Fla": 7807,
      "hudd": 7808,
      "gardens": 7809,
      "forests": 7810,
      "crocodiles": 7811,
      "Wiggles": 7812,
      "swaying": 7813,
      "Jonny": 7814,
      "travelled": 7815,
      "Mina": 7816,
      "endant": 7817,
      "facing": 7818,
      "sooner": 7819,
      "darlings": 7820,
      "Din": 7821,
      "Fiona": 7822,
      "becomes": 7823,
      "conqu": 7824,
      "snug": 7825,
      "Swim": 7826,
      "iley": 7827,
      "clerk": 7828,
      "pleaded": 7829,
      "tastiest": 7830,
      "computers": 7831,
      "considerate": 7832,
      "ective": 7833,
      "experienced": 7834,
      "spies": 7835,
      "ilda": 7836,
      "Back": 7837,
      "Pick": 7838,
      "venir": 7839,
      "cheating": 7840,
      "cowboys": 7841,
      "concentr": 7842,
      "types": 7843,
      "necks": 7844,
      "stamped": 7845,
      "Razor": 7846,
      "souvenir": 7847,
      "Play": 7848,
      "Unt": 7849,
      "banged": 7850,
      "La": 7851,
      "owning": 7852,
      "blades": 7853,
      "skirts": 7854,
      "Tri": 7855,
      "pout": 7856,
      "carn": 7857,
      "lookout": 7858,
      "awn": 7859,
      "mugs": 7860,
      "Mixy": 7861,
      "electri": 7862,
      "Ricky": 7863,
      "greet": 7864,
      "pickles": 7865,
      "realizing": 7866,
      "puzzled": 7867,
      "files": 7868,
      "Deal": 7869,
      "matey": 7870,
      "Until": 7871,
      "cares": 7872,
      "bushy": 7873,
      "jugg": 7874,
      "inches": 7875,
      "smashed": 7876,
      "Daniel": 7877,
      "munched": 7878,
      "Bess": 7879,
      "Pop": 7880,
      "fus": 7881,
      "affect": 7882,
      "Fly": 7883,
      "pite": 7884,
      "nightstand": 7885,
      "Mole": 7886,
      "scrape": 7887,
      "Frankie": 7888,
      "Beware": 7889,
      "despite": 7890,
      "cursed": 7891,
      "wiser": 7892,
      "regularly": 7893,
      "envelopes": 7894,
      "disappearing": 7895,
      "instrument": 7896,
      "warmly": 7897,
      "spoiling": 7898,
      "structures": 7899,
      "swayed": 7900,
      "carnival": 7901,
      "Mindy": 7902,
      "Right": 7903,
      "groom": 7904,
      "rior": 7905,
      "dock": 7906,
      "warrior": 7907,
      "trusty": 7908,
      "Rufus": 7909,
      "toward": 7910,
      "omb": 7911,
      "enjoyable": 7912,
      "guards": 7913,
      "styles": 7914,
      "risk": 7915,
      "neighbours": 7916,
      "Lightning": 7917,
      "elbow": 7918,
      "soapy": 7919,
      "Micro": 7920,
      "Sal": 7921,
      "Nancy": 7922,
      "Chewy": 7923,
      "dodged": 7924,
      "encountered": 7925,
      "cinema": 7926,
      "ghed": 7927,
      "webs": 7928,
      "Maddy": 7929,
      "sacks": 7930,
      "newfound": 7931,
      "spiky": 7932,
      "Boom": 7933,
      "rrrr": 7934,
      "curl": 7935,
      "crowded": 7936,
      "fashionable": 7937,
      "Amelia": 7938,
      "Navy": 7939,
      "ody": 7940,
      "movements": 7941,
      "fris": 7942,
      "Start": 7943,
      "court": 7944,
      "toddler": 7945,
      "tumbled": 7946,
      "huddled": 7947,
      "iscu": 7948,
      "tidied": 7949,
      "Monster": 7950,
      "killed": 7951,
      "shortcut": 7952,
      "Ruff": 7953,
      "miest": 7954,
      "chatted": 7955,
      "yummiest": 7956,
      "electricity": 7957,
      "whoosh": 7958,
      "coughed": 7959,
      "sill": 7960,
      "cheers": 7961,
      "exams": 7962,
      "shooed": 7963,
      "Dragon": 7964,
      "Jax": 7965,
      "birdseed": 7966,
      "Still": 7967,
      "challenged": 7968,
      "Arrr": 7969,
      "carve": 7970,
      "doorway": 7971,
      "stomp": 7972,
      "sinking": 7973,
      "mashed": 7974,
      "osite": 7975,
      "caps": 7976,
      "miller": 7977,
      "Speed": 7978,
      "interrup": 7979,
      "fanc": 7980,
      "desper": 7981,
      "whistles": 7982,
      "Friend": 7983,
      "pecking": 7984,
      "opposite": 7985,
      "Oscar": 7986,
      "rin": 7987,
      "compromise": 7988,
      "welcoming": 7989,
      "AB": 7990,
      "dolly": 7991,
      "Tell": 7992,
      "vin": 7993,
      "melody": 7994,
      "minding": 7995,
      "ABC": 7996,
      "Kelly": 7997,
      "Life": 7998,
      "throne": 7999,
      "Brrr": 8000,
      "bly": 8001,
      "stall": 8002,
      "iff": 8003,
      "Ria": 8004,
      "bomb": 8005,
      "suck": 8006,
      "caroni": 8007,
      "defin": 8008,
      "tripping": 8009,
      "Loop": 8010,
      "expert": 8011,
      "Ruth": 8012,
      "gger": 8013,
      "opportunity": 8014,
      "etah": 8015,
      "nightlight": 8016,
      "spelling": 8017,
      "differences": 8018,
      "Jolly": 8019,
      "actors": 8020,
      "frisbee": 8021,
      "enem": 8022,
      "bless": 8023,
      "compar": 8024,
      "cheetah": 8025,
      "endings": 8026,
      "addie": 8027,
      "rods": 8028,
      "obediently": 8029,
      "enemies": 8030,
      "uing": 8031,
      "macaroni": 8032,
      "spears": 8033,
      "flu": 8034,
      "sprinkle": 8035,
      "scampered": 8036,
      "CD": 8037,
      "Sir": 8038,
      "beaks": 8039,
      "performers": 8040,
      "explains": 8041,
      "Bally": 8042,
      "Biggy": 8043,
      "boiling": 8044,
      "mac": 8045,
      "spy": 8046,
      "loudest": 8047,
      "warmed": 8048,
      "Shrink": 8049,
      "Rub": 8050,
      "ative": 8051,
      "anyways": 8052,
      "joins": 8053,
      "service": 8054,
      "Megan": 8055,
      "rumbling": 8056,
      "steering": 8057,
      "scaredy": 8058,
      "trigger": 8059,
      "mailing": 8060,
      "comets": 8061,
      "masterpiece": 8062,
      "Maddie": 8063,
      "Rino": 8064,
      "tilted": 8065,
      "compete": 8066,
      "crawls": 8067,
      "parted": 8068,
      "riverbank": 8069,
      "zooms": 8070,
      "belle": 8071,
      "sternly": 8072,
      "Maisy": 8073,
      "Phil": 8074,
      "duckies": 8075,
      "commotion": 8076,
      "expecting": 8077,
      "weights": 8078,
      "quacking": 8079,
      ".'\"": 8080,
      "Rita": 8081,
      "god": 8082,
      "ruff": 8083,
      "Missile": 8084,
      "simply": 8085,
      "Yel": 8086,
      "birth": 8087,
      "ipper": 8088,
      "flaps": 8089,
      "ocular": 8090,
      "explaining": 8091,
      "brains": 8092,
      "Moley": 8093,
      "Danger": 8094,
      "mold": 8095,
      "binocular": 8096,
      "expression": 8097,
      "presented": 8098,
      "pouch": 8099,
      "carries": 8100,
      "keepers": 8101,
      "troubles": 8102,
      "vacu": 8103,
      "Got": 8104,
      "Sil": 8105,
      "Sing": 8106,
      "inj": 8107,
      "reappear": 8108,
      "runny": 8109,
      "pressing": 8110,
      "Blinky": 8111,
      "lur": 8112,
      "unwrapped": 8113,
      "coaster": 8114,
      "visible": 8115,
      "heavily": 8116,
      "strips": 8117,
      "differently": 8118,
      "annoying": 8119,
      "retrieved": 8120,
      "complimented": 8121,
      "rebuild": 8122,
      "descri": 8123,
      "recommendation": 8124,
      "purrs": 8125,
      "Yellow": 8126,
      "Cloud": 8127,
      "boil": 8128,
      "fishes": 8129,
      "discoveries": 8130,
      "tiptoes": 8131,
      "Rainbow": 8132,
      "Math": 8133,
      "pilots": 8134,
      "scenery": 8135,
      "Flappy": 8136,
      "Must": 8137,
      "ands": 8138,
      "glitt": 8139,
      "cops": 8140,
      "smoothie": 8141,
      "harmful": 8142,
      "arranged": 8143,
      "Bri": 8144,
      "wenty": 8145,
      "surfed": 8146,
      "stretches": 8147,
      "riddle": 8148,
      "anticip": 8149,
      "definitely": 8150,
      "visits": 8151,
      "fans": 8152,
      "waitress": 8153,
      "Looks": 8154,
      "aprons": 8155,
      "Crocod": 8156,
      "hy": 8157,
      "nights": 8158,
      "Jet": 8159,
      "Jumpy": 8160,
      "passes": 8161,
      "bounces": 8162,
      "wist": 8163,
      "goodness": 8164,
      "scolds": 8165,
      "Tuesdays": 8166,
      "apologised": 8167,
      "sickness": 8168,
      "rewarding": 8169,
      "rails": 8170,
      "Li": 8171,
      "crushed": 8172,
      "ening": 8173,
      "range": 8174,
      "rightful": 8175,
      "interest": 8176,
      "lantern": 8177,
      "Oc": 8178,
      "Per": 8179,
      "iri": 8180,
      "brightest": 8181,
      "izzes": 8182,
      "desserts": 8183,
      "bathed": 8184,
      "nasty": 8185,
      "trot": 8186,
      "Care": 8187,
      "faint": 8188,
      "uster": 8189,
      "meows": 8190,
      "rell": 8191,
      "jumper": 8192,
      "whether": 8193,
      "alligators": 8194,
      "humming": 8195,
      "occasion": 8196,
      "Angel": 8197,
      "Dina": 8198,
      "Grow": 8199,
      "tanks": 8200,
      "vacuum": 8201,
      "custo": 8202,
      "binoculars": 8203,
      "pace": 8204,
      "sharpen": 8205,
      "drip": 8206,
      "embarrassing": 8207,
      "improving": 8208,
      "Eliz": 8209,
      "Pink": 8210,
      "gooey": 8211,
      "Eliza": 8212,
      "Over": 8213,
      "lim": 8214,
      "compan": 8215,
      "hamm": 8216,
      "sneaking": 8217,
      "Phew": 8218,
      "badger": 8219,
      "harvest": 8220,
      "Mustache": 8221,
      "Sis": 8222,
      "quizzes": 8223,
      "disagreeing": 8224,
      "Olivia": 8225,
      "erasers": 8226,
      "onward": 8227,
      "chin": 8228,
      "checks": 8229,
      "lizards": 8230,
      "quarrell": 8231,
      "chatting": 8232,
      "Butterfly": 8233,
      "Oxygen": 8234,
      "cuc": 8235,
      "ial": 8236,
      "paste": 8237,
      "pinec": 8238,
      "Snake": 8239,
      "twenty": 8240,
      "nets": 8241,
      "example": 8242,
      "Buster": 8243,
      "reaction": 8244,
      "byes": 8245,
      "construc": 8246,
      "floppy": 8247,
      "flashed": 8248,
      "ibi": 8249,
      "several": 8250,
      "ana": 8251,
      "final": 8252,
      "mindful": 8253,
      "tips": 8254,
      "juggle": 8255,
      "anticipation": 8256,
      "Pine": 8257,
      "mysteries": 8258,
      "charged": 8259,
      "customer": 8260,
      "Cho": 8261,
      "Flick": 8262,
      "army": 8263,
      "responded": 8264,
      "prun": 8265,
      "goodbyes": 8266,
      "meaning": 8267,
      "Seeing": 8268,
      "snaps": 8269,
      "cousins": 8270,
      "nibbling": 8271,
      "Eric": 8272,
      "Hug": 8273,
      "Jason": 8274,
      "flyer": 8275,
      "Janey": 8276,
      "laces": 8277,
      "Yawn": 8278,
      "Bozo": 8279,
      "Dotty": 8280,
      "injured": 8281,
      "lurking": 8282,
      "bond": 8283,
      "Grac": 8284,
      "anda": 8285,
      "swap": 8286,
      "spaces": 8287,
      "tickles": 8288,
      "Wha": 8289,
      "wig": 8290,
      "sax": 8291,
      "forgives": 8292,
      "allowing": 8293,
      "Dis": 8294,
      "Vi": 8295,
      "booth": 8296,
      "faith": 8297,
      "grily": 8298,
      "hunger": 8299,
      "cris": 8300,
      "acing": 8301,
      "stains": 8302,
      "jing": 8303,
      "lope": 8304,
      "ticking": 8305,
      "bumping": 8306,
      "compared": 8307,
      "baa": 8308,
      "writer": 8309,
      "Smoke": 8310,
      "groaned": 8311,
      "Gracie": 8312,
      "rumbled": 8313,
      "toot": 8314,
      "Robin": 8315,
      "oos": 8316,
      "shallow": 8317,
      "farmers": 8318,
      "Elsa": 8319,
      "Riri": 8320,
      "challenges": 8321,
      "Bibi": 8322,
      "ssess": 8323,
      "ites": 8324,
      "possess": 8325,
      "common": 8326,
      "sandpit": 8327,
      "medals": 8328,
      "pudding": 8329,
      "pitcher": 8330,
      "birthdays": 8331,
      "rib": 8332,
      "Animal": 8333,
      "nearly": 8334,
      "hardest": 8335,
      "owls": 8336,
      "training": 8337,
      "science": 8338,
      "chili": 8339,
      "ordering": 8340,
      "thumbs": 8341,
      "stroke": 8342,
      "cases": 8343,
      "leapt": 8344,
      "cleans": 8345,
      "surely": 8346,
      "striches": 8347,
      "Louise": 8348,
      "details": 8349,
      "stroller": 8350,
      "boards": 8351,
      "chalks": 8352,
      "Eating": 8353,
      "hoy": 8354,
      "raincoats": 8355,
      "broomstick": 8356,
      "Bal": 8357,
      "although": 8358,
      "ousel": 8359,
      "dears": 8360,
      "snor": 8361,
      "online": 8362,
      "carousel": 8363,
      "pollen": 8364,
      "dripped": 8365,
      "Patty": 8366,
      "Feli": 8367,
      "reel": 8368,
      "Three": 8369,
      "Step": 8370,
      "protector": 8371,
      "Wednesdays": 8372,
      "Lina": 8373,
      "pled": 8374,
      "tale": 8375,
      "shall": 8376,
      "Dogs": 8377,
      "attempt": 8378,
      "drift": 8379,
      "Peace": 8380,
      "imaginations": 8381,
      "Eva": 8382,
      "taco": 8383,
      "foam": 8384,
      "bubbly": 8385,
      "Crane": 8386,
      "umbling": 8387,
      "declar": 8388,
      "skinny": 8389,
      "unlocking": 8390,
      "magnifying": 8391,
      "iscuit": 8392,
      "Ahoy": 8393,
      "soda": 8394,
      "robin": 8395,
      "handy": 8396,
      "stew": 8397,
      "protection": 8398,
      "speaker": 8399,
      "admiration": 8400,
      "injuries": 8401,
      "Heli": 8402,
      "gap": 8403,
      "ophone": 8404,
      "deck": 8405,
      "dragonfly": 8406,
      "Grand": 8407,
      "glows": 8408,
      "extraordinary": 8409,
      "Clucky": 8410,
      "Free": 8411,
      "Zack": 8412,
      "newly": 8413,
      "owns": 8414,
      "cracker": 8415,
      "Sofia": 8416,
      "companion": 8417,
      "declared": 8418,
      "acro": 8419,
      "process": 8420,
      "rider": 8421,
      "rooster": 8422,
      "saxophone": 8423,
      "Bingo": 8424,
      "Gilly": 8425,
      "Worm": 8426,
      "Cic": 8427,
      "shares": 8428,
      "sprays": 8429,
      "Startled": 8430,
      "ABCs": 8431,
      "Cici": 8432,
      "ech": 8433,
      "threads": 8434,
      "aids": 8435,
      "events": 8436,
      "aisles": 8437,
      "vastated": 8438,
      "moons": 8439,
      "devastated": 8440,
      "continuing": 8441,
      "desks": 8442,
      "kangaroos": 8443,
      "Ky": 8444,
      "guitars": 8445,
      "Cari": 8446,
      "hooves": 8447,
      "Freeze": 8448,
      "grump": 8449,
      "adventurer": 8450,
      "pointer": 8451,
      "Zipper": 8452,
      "rey": 8453,
      "woodcutter": 8454,
      "revealing": 8455,
      "laptop": 8456,
      "Fr": 8457,
      "Furry": 8458,
      "Vicky": 8459,
      "cooper": 8460,
      "signal": 8461,
      "holidays": 8462,
      "invites": 8463,
      "sniffled": 8464,
      "Plus": 8465,
      "Race": 8466,
      "tone": 8467,
      "unfair": 8468,
      "Book": 8469,
      "prod": 8470,
      "solutions": 8471,
      "retrieve": 8472,
      "concer": 8473,
      "includes": 8474,
      "Crocodile": 8475,
      "construction": 8476,
      "washes": 8477,
      "tightrope": 8478,
      "apology": 8479,
      "mayor": 8480,
      "separating": 8481,
      "Dinner": 8482,
      "Gi": 8483,
      "ality": 8484,
      "brakes": 8485,
      "moonlight": 8486,
      "sensation": 8487,
      "',": 8488,
      "Spic": 8489,
      "Won": 8490,
      "seriously": 8491,
      "niece": 8492,
      "slithering": 8493,
      "panicking": 8494,
      "Spicy": 8495,
      "Park": 8496,
      "funn": 8497,
      "fail": 8498,
      "def": 8499,
      "tastic": 8500,
      "Spider": 8501,
      "spelled": 8502,
      "ruled": 8503,
      "sleds": 8504,
      "Tammy": 8505,
      "render": 8506,
      "adop": 8507,
      "underwater": 8508,
      "promising": 8509,
      "Surrender": 8510,
      "Silver": 8511,
      "Orange": 8512,
      "whine": 8513,
      "gasp": 8514,
      "chugged": 8515,
      "awoke": 8516,
      "zookeepers": 8517,
      "bruises": 8518,
      "clubs": 8519,
      "Com": 8520,
      "Du": 8521,
      "Girl": 8522,
      "raked": 8523,
      "abby": 8524,
      "patches": 8525,
      "Bunbun": 8526,
      "adds": 8527,
      "scram": 8528,
      "equally": 8529,
      "Willi": 8530,
      "bait": 8531,
      "chains": 8532,
      "Otherwise": 8533,
      "William": 8534,
      "Grump": 8535,
      "tempted": 8536,
      "combing": 8537,
      "textures": 8538,
      "servants": 8539,
      "unless": 8540,
      "caw": 8541,
      "snowflake": 8542,
      "scribbled": 8543,
      "Im": 8544,
      "pads": 8545,
      "rick": 8546,
      "hissing": 8547,
      "ips": 8548,
      "sleepover": 8549,
      "heels": 8550,
      "Katy": 8551,
      "flicker": 8552,
      "Vivi": 8553,
      "Clown": 8554,
      "Cars": 8555,
      "judged": 8556,
      "cluck": 8557,
      "accepting": 8558,
      "beaming": 8559,
      "Bonnie": 8560,
      "Quickly": 8561,
      "Greeny": 8562,
      "Brian": 8563,
      "ribbit": 8564,
      "Lung": 8565,
      "bending": 8566,
      "lil": 8567,
      "unity": 8568,
      "disobey": 8569,
      "Kevin": 8570,
      "whimpered": 8571,
      "Res": 8572,
      "resolved": 8573,
      "neighed": 8574,
      "asper": 8575,
      "Stripes": 8576,
      "Shark": 8577,
      "issa": 8578,
      "rop": 8579,
      "realizes": 8580,
      "bowing": 8581,
      "awful": 8582,
      "musicians": 8583,
      "Gor": 8584,
      "Twist": 8585,
      "frustration": 8586,
      "thieves": 8587,
      "dusted": 8588,
      "hula": 8589,
      "cosy": 8590,
      "beast": 8591,
      "mats": 8592,
      "Becky": 8593,
      "Lemon": 8594,
      "painful": 8595,
      "Softy": 8596,
      "Sy": 8597,
      "Sasha": 8598,
      "Waf": 8599,
      "lish": 8600,
      "ostriches": 8601,
      "thump": 8602,
      "caf": 8603,
      "based": 8604,
      "applause": 8605,
      "deserves": 8606,
      "Waffle": 8607,
      ",'": 8608,
      "Fo": 8609,
      "Mus": 8610,
      "Moppy": 8611,
      "Prom": 8612,
      "sion": 8613,
      "invisible": 8614,
      "isher": 8615,
      "ics": 8616,
      "pred": 8617,
      "disagreement": 8618,
      "tents": 8619,
      "Catch": 8620,
      "stained": 8621,
      "Thanksgiving": 8622,
      "caution": 8623,
      "Butterflies": 8624,
      "Tippy": 8625,
      "getic": 8626,
      "sunburn": 8627,
      "cheerfully": 8628,
      "reversing": 8629,
      "Felix": 8630,
      "Ze": 8631,
      "doggie": 8632,
      "Ty": 8633,
      "royal": 8634,
      "illas": 8635,
      "Elsie": 8636,
      "couraged": 8637,
      "intelligence": 8638,
      "Mae": 8639,
      "Match": 8640,
      "woken": 8641,
      "level": 8642,
      "rack": 8643,
      "spic": 8644,
      "abilities": 8645,
      "Bobbie": 8646,
      "Doll": 8647,
      "feathered": 8648,
      "bbing": 8649,
      "Duke": 8650,
      "munk": 8651,
      "boiled": 8652,
      "parking": 8653,
      "finishes": 8654,
      "portal": 8655,
      "Fer": 8656,
      "mp": 8657,
      "knitting": 8658,
      "carts": 8659,
      "information": 8660,
      "lighting": 8661,
      "fantastic": 8662,
      "calf": 8663,
      "risky": 8664,
      "Climb": 8665,
      "Terry": 8666,
      "peep": 8667,
      "fixer": 8668,
      "workshop": 8669,
      "successfully": 8670,
      "Rh": 8671,
      "worst": 8672,
      "waters": 8673,
      "rocky": 8674,
      "cloths": 8675,
      "Flora": 8676,
      "injury": 8677,
      "lilies": 8678,
      "plow": 8679,
      "aring": 8680,
      "treating": 8681,
      "instantly": 8682,
      "Mister": 8683,
      "travelling": 8684,
      "café": 8685,
      "Bel": 8686,
      "Bra": 8687,
      "Old": 8688,
      "fif": 8689,
      "angrily": 8690,
      "carton": 8691,
      "parades": 8692,
      "scene": 8693,
      "Robot": 8694,
      "supplying": 8695,
      "March": 8696,
      "property": 8697,
      "Promise": 8698,
      "trim": 8699,
      "snorted": 8700,
      "snapping": 8701,
      "tippy": 8702,
      "cords": 8703,
      "blush": 8704,
      "trotted": 8705,
      "scrambled": 8706,
      "unnecessary": 8707,
      "essa": 8708,
      "stor": 8709,
      "disgu": 8710,
      "swimsuits": 8711,
      "Bees": 8712,
      "squeaky": 8713,
      "Drink": 8714,
      "disappointment": 8715,
      "Turn": 8716,
      "Mind": 8717,
      "ode": 8718,
      "intment": 8719,
      "stacks": 8720,
      "conflicts": 8721,
      "Cheese": 8722,
      "croaked": 8723,
      "concentrate": 8724,
      "assist": 8725,
      "pizzas": 8726,
      "Sale": 8727,
      "Cream": 8728,
      "fade": 8729,
      "bandaid": 8730,
      "awk": 8731,
      "ironing": 8732,
      "puppets": 8733,
      "pinecone": 8734,
      "Lady": 8735,
      "ared": 8736,
      "chill": 8737,
      "barbec": 8738,
      "choke": 8739,
      "shoots": 8740,
      "chipmunk": 8741,
      "enemy": 8742,
      "barbecue": 8743,
      "Mail": 8744,
      "rises": 8745,
      "seeking": 8746,
      "carefree": 8747,
      "disobeyed": 8748,
      "hippos": 8749,
      "Horse": 8750,
      "ka": 8751,
      "surger": 8752,
      "honeycomb": 8753,
      "addition": 8754,
      "halfway": 8755,
      "knobs": 8756,
      "sincere": 8757,
      "Blackie": 8758,
      "acrobats": 8759,
      "Wonder": 8760,
      "Ba": 8761,
      "enger": 8762,
      "arrested": 8763,
      "local": 8764,
      "lowers": 8765,
      "Joan": 8766,
      "keyhole": 8767,
      "ballet": 8768,
      "cuddling": 8769,
      "introducing": 8770,
      "cubs": 8771,
      "surgery": 8772,
      "Broc": 8773,
      "striking": 8774,
      "melts": 8775,
      "Lost": 8776,
      "manda": 8777,
      "Whale": 8778,
      "Amanda": 8779,
      "Pegg": 8780,
      "foreshadow": 8781,
      "rung": 8782,
      "poop": 8783,
      "Reddy": 8784,
      "ths": 8785,
      "unfamiliar": 8786,
      "sline": 8787,
      "pleas": 8788,
      "clothesline": 8789,
      "vests": 8790,
      "rhino": 8791,
      "Patrick": 8792,
      "dodge": 8793,
      "roasted": 8794,
      "diaper": 8795,
      "witches": 8796,
      "canes": 8797,
      "boarded": 8798,
      "crispy": 8799,
      "grumble": 8800,
      "poles": 8801,
      "freeing": 8802,
      "flashlights": 8803,
      "sleigh": 8804,
      "11": 8805,
      "Cir": 8806,
      "Har": 8807,
      "flock": 8808,
      "Afterward": 8809,
      "intently": 8810,
      "particularly": 8811,
      "sleeve": 8812,
      "Ka": 8813,
      "Rosa": 8814,
      "Set": 8815,
      "liking": 8816,
      "Annabelle": 8817,
      "discouraged": 8818,
      "sleeps": 8819,
      "cooed": 8820,
      "skateboard": 8821,
      "Amber": 8822,
      "Ding": 8823,
      "Mop": 8824,
      "Things": 8825,
      "ection": 8826,
      "trusts": 8827,
      "miracle": 8828,
      "capture": 8829,
      "stretchy": 8830,
      "Giant": 8831,
      "Found": 8832,
      "Par": 8833,
      "maje": 8834,
      "dirtier": 8835,
      "respond": 8836,
      "digs": 8837,
      "guarded": 8838,
      "gorillas": 8839,
      "Bucky": 8840,
      "adjust": 8841,
      "softened": 8842,
      "passion": 8843,
      "cherished": 8844,
      "Jean": 8845,
      "Mam": 8846,
      "Pizz": 8847,
      "lef": 8848,
      "aling": 8849,
      "hisses": 8850,
      "hoses": 8851,
      "papa": 8852,
      "winding": 8853,
      "gardening": 8854,
      "maps": 8855,
      "curse": 8856,
      "lectures": 8857,
      "Matilda": 8858,
      "Gill": 8859,
      "Puffy": 8860,
      "tover": 8861,
      "creep": 8862,
      "misty": 8863,
      "shots": 8864,
      "scientists": 8865,
      "Animals": 8866,
      "leftover": 8867,
      "Ly": 8868,
      "Pot": 8869,
      "levers": 8870,
      "experiments": 8871,
      "Pizza": 8872,
      "Sit": 8873,
      "halves": 8874,
      "somehow": 8875,
      "stard": 8876,
      "Bea": 8877,
      "Rebec": 8878,
      "Cats": 8879,
      "speedy": 8880,
      "Rebecca": 8881,
      "Bert": 8882,
      "cated": 8883,
      "catcher": 8884,
      "climber": 8885,
      "numbered": 8886,
      "hamster": 8887,
      "spirits": 8888,
      "pedaling": 8889,
      "chatter": 8890,
      "Peggy": 8891,
      "Apr": 8892,
      "seahorse": 8893,
      "guardian": 8894,
      "bends": 8895,
      "DV": 8896,
      "yuck": 8897,
      "coli": 8898,
      "snowing": 8899,
      "copied": 8900,
      "pruning": 8901,
      "Broccoli": 8902,
      "April": 8903,
      "DVD": 8904,
      "narrow": 8905,
      "stitched": 8906,
      "Andre": 8907,
      "shyly": 8908,
      "sweating": 8909,
      "attaching": 8910,
      "zigzags": 8911,
      "chattered": 8912,
      "wick": 8913,
      "doves": 8914,
      "speaks": 8915,
      "pistols": 8916,
      "energetic": 8917,
      "behaviour": 8918,
      "OO": 8919,
      "Rep": 8920,
      "Val": 8921,
      "rips": 8922,
      "brag": 8923,
      "ippers": 8924,
      "fuss": 8925,
      "911": 8926,
      "Bull": 8927,
      "waggy": 8928,
      "restoring": 8929,
      "mustard": 8930,
      "Thankfully": 8931,
      "nicest": 8932,
      "rinse": 8933,
      "iny": 8934,
      "usion": 8935,
      "bluebird": 8936,
      "Stand": 8937,
      "facts": 8938,
      "Berry": 8939,
      "Fortun": 8940,
      "pendant": 8941,
      "ridge": 8942,
      "inting": 8943,
      "mower": 8944,
      "experiment": 8945,
      "Eve": 8946,
      "Fun": 8947,
      "Four": 8948,
      "troll": 8949,
      "mushy": 8950,
      "explode": 8951,
      "Fortunately": 8952,
      "Fix": 8953,
      "unzip": 8954,
      "ladybugs": 8955,
      "silverware": 8956,
      "ducklings": 8957,
      "unzipped": 8958,
      "paramed": 8959,
      "shaker": 8960,
      "clips": 8961,
      "luckiest": 8962,
      "Swan": 8963,
      "cies": 8964,
      "armor": 8965,
      "quarrelling": 8966,
      "Pen": 8967,
      "Sand": 8968,
      "War": 8969,
      "idy": 8970,
      "blamed": 8971,
      "champ": 8972,
      "closure": 8973,
      "displaying": 8974,
      "oceans": 8975,
      "Coal": 8976,
      "banging": 8977,
      "Cot": 8978,
      "Er": 8979,
      "teen": 8980,
      "White": 8981,
      "emma": 8982,
      "gasps": 8983,
      "hesitation": 8984,
      "glittering": 8985,
      "enclosure": 8986,
      "inger": 8987,
      "fived": 8988,
      "chews": 8989,
      "avoided": 8990,
      "detective": 8991,
      "Liam": 8992,
      "Cleaning": 8993,
      "frames": 8994,
      "community": 8995,
      "emergencies": 8996,
      "Ashley": 8997,
      "Aw": 8998,
      "learner": 8999,
      "clam": 9000,
      "Jose": 9001,
      "purring": 9002,
      "scores": 9003,
      "Move": 9004,
      "Purple": 9005,
      "Da": 9006,
      "Span": 9007,
      "rash": 9008,
      "whel": 9009,
      "cables": 9010,
      "access": 9011,
      "tured": 9012,
      "fooled": 9013,
      "recipes": 9014,
      "wrinkly": 9015,
      "disguise": 9016,
      "Spanish": 9017,
      "Cluck": 9018,
      "bish": 9019,
      "zippers": 9020,
      "onde": 9021,
      "carved": 9022,
      "ecting": 9023,
      "blonde": 9024,
      "overwhel": 9025,
      "dee": 9026,
      "Leopard": 9027,
      "leans": 9028,
      "delaying": 9029,
      "Paula": 9030,
      "reck": 9031,
      "saddle": 9032,
      "Alligator": 9033,
      "horri": 9034,
      "fences": 9035,
      "pearls": 9036,
      "Cally": 9037,
      "Pru": 9038,
      "Pene": 9039,
      "importantly": 9040,
      "rubbish": 9041,
      "fanciest": 9042,
      "godmother": 9043,
      "Penelope": 9044,
      "Past": 9045,
      "hover": 9046,
      "mest": 9047,
      "shaving": 9048,
      "Reliable": 9049,
      "loyalty": 9050,
      "trailer": 9051,
      "Trees": 9052,
      "obstacles": 9053,
      "Cotton": 9054,
      "Glow": 9055,
      "Winter": 9056,
      "sizz": 9057,
      "atest": 9058,
      "alongside": 9059,
      "motors": 9060,
      "larger": 9061,
      "infection": 9062,
      "Woolly": 9063,
      "Scissors": 9064,
      "Cut": 9065,
      "Gir": 9066,
      "bum": 9067,
      "lump": 9068,
      "skies": 9069,
      "talons": 9070,
      "squeezes": 9071,
      "resisting": 9072,
      "heights": 9073,
      "Tyler": 9074,
      "deeply": 9075,
      "overflowing": 9076,
      "winds": 9077,
      "kissing": 9078,
      "wildflowers": 9079,
      "Ken": 9080,
      "droop": 9081,
      "matchbox": 9082,
      "toothpaste": 9083,
      "Cammy": 9084,
      "Puff": 9085,
      "leap": 9086,
      "Leah": 9087,
      "studio": 9088,
      "zips": 9089,
      "exercised": 9090,
      "sculptures": 9091,
      "snoring": 9092,
      "Flex": 9093,
      "gates": 9094,
      "lasers": 9095,
      "tugging": 9096,
      "deciding": 9097,
      "Inky": 9098,
      "laws": 9099,
      "Carrot": 9100,
      "ssssssss": 9101,
      "Gabby": 9102,
      "Isa": 9103,
      "wax": 9104,
      "ellie": 9105,
      "goodies": 9106,
      "pokes": 9107,
      "Sunshine": 9108,
      "performer": 9109,
      "tossing": 9110,
      "managing": 9111,
      "erupted": 9112,
      "rinsed": 9113,
      "jigg": 9114,
      "anny": 9115,
      "cere": 9116,
      "tablecloth": 9117,
      "tunes": 9118,
      "Beef": 9119,
      "savor": 9120,
      "boos": 9121,
      "venture": 9122,
      "disaster": 9123,
      "restaurants": 9124,
      "softest": 9125,
      "Nora": 9126,
      "Microscope": 9127,
      "Tessa": 9128,
      "Wal": 9129,
      "hardworking": 9130,
      "rags": 9131,
      "warmest": 9132,
      "pricked": 9133,
      "occasions": 9134,
      "Slinky": 9135,
      "gly": 9136,
      "jaws": 9137,
      "stray": 9138,
      "launch": 9139,
      "blurry": 9140,
      "mony": 9141,
      "messier": 9142,
      "turkeys": 9143,
      "Again": 9144,
      "Mona": 9145,
      "savan": 9146,
      "uncovered": 9147,
      "suns": 9148,
      "blend": 9149,
      "liest": 9150,
      "snar": 9151,
      "snip": 9152,
      "chicks": 9153,
      "entering": 9154,
      "Books": 9155,
      "Immediately": 9156,
      "savanna": 9157,
      "nations": 9158,
      "sipping": 9159,
      "wee": 9160,
      "shh": 9161,
      "otherwise": 9162,
      "gratefully": 9163,
      "Toy": 9164,
      "stings": 9165,
      "threatened": 9166,
      "Apple": 9167,
      "20": 9168,
      "Number": 9169,
      "oma": 9170,
      "ssy": 9171,
      "grandchildren": 9172,
      "bills": 9173,
      "possib": 9174,
      "palms": 9175,
      "conquered": 9176,
      "Ferris": 9177,
      "Ever": 9178,
      "Son": 9179,
      "sucked": 9180,
      "wit": 9181,
      "gress": 9182,
      "passenger": 9183,
      "smoother": 9184,
      "lasted": 9185,
      "meetings": 9186,
      "confusion": 9187,
      "peels": 9188,
      "Jody": 9189,
      "kindest": 9190,
      "Joke": 9191,
      "dedi": 9192,
      "vinegar": 9193,
      "Coffee": 9194,
      "state": 9195,
      "plat": 9196,
      "unwrap": 9197,
      "veled": 9198,
      "asy": 9199,
      "fluff": 9200,
      "suspic": 9201,
      "invol": 9202,
      "fascinating": 9203,
      "wicked": 9204,
      "champion": 9205,
      "Ind": 9206,
      "”,": 9207,
      "prof": 9208,
      "gaining": 9209,
      "greatest": 9210,
      "Boat": 9211,
      "patients": 9212,
      "cacti": 9213,
      "Money": 9214,
      "Ta": 9215,
      "ital": 9216,
      "glimmering": 9217,
      "dialed": 9218,
      "oray": 9219,
      "racer": 9220,
      "umn": 9221,
      "donate": 9222,
      "unexpectedly": 9223,
      "lamps": 9224,
      "sends": 9225,
      "squashes": 9226,
      "Club": 9227,
      "erupt": 9228,
      "Cookies": 9229,
      "Kyle": 9230,
      "suspicious": 9231,
      "'?\"": 9232,
      "Whose": 9233,
      "lumpy": 9234,
      "braid": 9235,
      "hideout": 9236,
      "Janet": 9237,
      "scrunch": 9238,
      "New": 9239,
      "squirted": 9240,
      "storybook": 9241,
      "Spud": 9242,
      "taxis": 9243,
      "beeping": 9244,
      "leng": 9245,
      "ruck": 9246,
      "homemade": 9247,
      "ift": 9248,
      "creak": 9249,
      "hangs": 9250,
      "sells": 9251,
      "trunks": 9252,
      "harshly": 9253,
      "earthquakes": 9254,
      "sweeping": 9255,
      "Mamma": 9256,
      "Giraffe": 9257,
      "Ad": 9258,
      "Sug": 9259,
      "grade": 9260,
      "blooms": 9261,
      "Squee": 9262,
      "Ahh": 9263,
      "deeds": 9264,
      "Horsy": 9265,
      "Dream": 9266,
      "hurtful": 9267,
      "tiara": 9268,
      "Martin": 9269,
      "wriggled": 9270,
      "funniest": 9271,
      "Music": 9272,
      "Fay": 9273,
      "Iron": 9274,
      "bound": 9275,
      "unted": 9276,
      "sobbing": 9277,
      "hearted": 9278,
      "grandkids": 9279,
      "preventing": 9280,
      "Cool": 9281,
      "puffed": 9282,
      "cooperate": 9283,
      "Clo": 9284,
      "Five": 9285,
      "Vio": 9286,
      "pounce": 9287,
      "Leaf": 9288,
      "missiles": 9289,
      "rattle": 9290,
      "cucumbers": 9291,
      "Andrew": 9292,
      "Repeat": 9293,
      "Cher": 9294,
      "Tip": 9295,
      "amused": 9296,
      "advan": 9297,
      "onest": 9298,
      "splitting": 9299,
      "Bubu": 9300,
      "jacks": 9301,
      "tagged": 9302,
      "apartment": 9303,
      "Jellyfish": 9304,
      "Land": 9305,
      "Ooh": 9306,
      "cran": 9307,
      "petal": 9308,
      "Belie": 9309,
      "calmer": 9310,
      "suggesting": 9311,
      "?”.": 9312,
      "Wheee": 9313,
      "North": 9314,
      "Was": 9315,
      "ister": 9316,
      "rais": 9317,
      "shimmering": 9318,
      "fishies": 9319,
      "appet": 9320,
      "Looking": 9321,
      "Reading": 9322,
      "repeats": 9323,
      "energ": 9324,
      "interrupted": 9325,
      "defend": 9326,
      "ceremony": 9327,
      "Brun": 9328,
      "gallo": 9329,
      "iter": 9330,
      "waded": 9331,
      "parks": 9332,
      "Through": 9333,
      "whiskers": 9334,
      "fetched": 9335,
      "freshly": 9336,
      "Uni": 9337,
      "stomachs": 9338,
      "Sleepy": 9339,
      "Melissa": 9340,
      "Bruno": 9341,
      "Dilly": 9342,
      "Hank": 9343,
      "Offic": 9344,
      "aloud": 9345,
      "choking": 9346,
      "mopping": 9347,
      "blade": 9348,
      "crum": 9349,
      "festivals": 9350,
      "admitted": 9351,
      "Officer": 9352,
      "Pol": 9353,
      "Tu": 9354,
      "cru": 9355,
      "gal": 9356,
      "wilt": 9357,
[...]
